#version: 0.2
à °
à ±
Ġ à°
à± į
à° ¿
à± ģ
à° ¾
à° ¨
à° °
à° Ĥ
à° ²
à° ķ
à° ¤
à° ¦
Â ł
à± ĩ
à± ĭ
à° Ł
à° ¯
à° ¡
à° ª
à° ¸
à° µ
à° ®
à° Ĺ
à± Ģ
à° ļ
à± Ĩ
Ġà° ª
Âł Âł
Ġà° µ
č Ċ
Ġà° ķ
Ġà° ħ
â Ģ
âĢ Į
Ġà° ®
à±į âĢĮ
à°¿ à°Ĥ
Ġà° ¸
à± Ĥ
Ġà° ļ
Ġà° ¨
à±ģ .
Ġà° ¤
à°¿ .
Ġà° °
à° ·
à° ľ
Ġà° Ĩ
à±ģ à°Ĥ
à± Ī
à° ¬
à° ³
à° ¶
à° §
à± Ĭ
ÂłÂł Âł
. .
Ġà° ¬
Ġà° ¦
Ġà° ĩ
Ġà° Ĺ
à° £
à° ¹
Ġà° İ
Ġà° ľ
Ġà° ī
Ġà° ²
Ġà°ħ à°¨
à° Ń
à°² à°¨
à°¾ à°Ĥ
à±Ĩ à°Ĥ
à° ¥
Ġ Âł
2 0
à°µ à°°
à°² à°ķ
Ġà° Ń
Ġà° ¶
Ġà° ı
Ġà° Ī
ÂłÂłÂł Ġ
20 1
ÂłÂł ÂłÂł
Ġà° ¹
à°¦ à°°
N O
D O
DO C
DOC NO
Ġ "
à°¦ à°¨
à±ģ ,
ĠÂł ĠÂł
à± ĥ
à°¿ ,
à° ĸ
Ġà° ¡
Ġà° Ĵ
à°¯ à°¨
à°ķ à°°
Ġà° Ł
Ġà°ª à°°
ÂłÂł Ġ
à°° à°¤
à° İ
à°° à°®
à° «
Ġà° ¯
à°° à°ķ
à°® à°¨
Ġà° «
Ġ 1
Ġà°¸ à°®
à±ĩ à°Ĥ
à±Ĭ à°Ĥ
à°¤ à°¨
à°Ł à°°
à°¯ à°ķ
Ġà°¤ à°¨
Ġà°Ĵ à°ķ
à° ħ
à° Ĩ
Ġà°µ à°ļ
.. .
à°¨ à°Ł
à°ª à°¡
à±ĭ à°Ĥ
Ġà°® à°°
Ġà°ħ à°µ
à°· à°¨
n d
Ġà°ī à°¨
t e
o f
u t
e nd
x t
< /
te xt
< |
| >
of text
ut f
end oftext
Ġà°ħ à°¯
Ġà°ķ à°²
Ġà°ľ à°°
ÂłÂłÂłÂł ÂłÂłÂłÂł
à± Į
Ġà°® à°¨
à°ª à°Ł
à°ķ à°¡
âĢ Ļ
à°¯ à°²
âĢ ĺ
Ġà°Ĩ à°®
à°² à°²
Ġà° ĵ
à±įâĢĮ ,
à°° à°Ń
à°° à°¸
à°µ à°¡
1 0
à°¤ à°°
? "
à°Ĺ à°°
Ġà°ħ à°®
ĠÂłĠÂł ĠÂłĠÂł
Ġà°Ĩ à°°
à°¸ à°°
à°ķ à°²
Ġà°ķ à°¨
Ġà°ħ à°§
ĠÂł čĊ
à°µ à°²
201 7
Ġà°ħ à°¦
Ġà°¤ à°°
Ġà°¸ à°°
à°Ł à°²
à°° à°£
Ġà°ħ à°°
ÂłÂł ĠÂłčĊ
à°² à°¤
Ġà°ħ à°¡
201 6
à°¯ à°®
à°° à°¨
à°° à°ľ
Ġà°ħ à°²
à°° à°µ
Ġà°ª à°¨
1 1
ÂłÂłÂłĠ čĊ
Ġà°Ĩ à°¯à°¨
à°¾ ,
à°° à°¯
à°¤ à°²
Ġ âĢĺ
Ġà°ħ à°¤à°¨
Ġ 2
201 5
1 2
à°Ł à°¨
à°ķ à°ª
.. ..
à°Ĥ .
Ġà°ª à°¡
Ġà°ĩ à°¦
Ġ (
Ġ 0
Ġ čĊ
à°¦ à°²
Ġà°µ à°°
Ġà°ħ à°¤
à°µ à°¨
Ġà°ħ à°ª
à°¯ à°µ
Ġà°ħ à°ķ
à°ļ à°¨
Ġà°µ à°¸
Ġà° §
Ġà°ª à°Ł
à°¡ à°²
Ġà°ī à°¦
à±Ģ ,
à°Ĥ ,
à°¤ à°®
Ġà°İ à°ķ
Ġà°¤ à°²
à±Ĥ .
Ġà°İ à°¨
à°¨ à°¨
à°ľ à°¨
à°µ à°¤
à°¬ à°¡
Ġà°ħ à°Ń
à°ª à°¤
à°· à°¯
à°ª à°°
Ġà°ĩ à°ª
à°¨ à°¦
à°Ĺ à°²
à°¬ à°°
à°Ĩ à°°
Ġà°ª à°¦
à° ı
à°ª à°²
à° ĩ
à°¤ à°ķ
! "
à°¾ ?
à° ĺ
à°· à°£
à°ļ à°¡
Ġà°¤ à°ª
Ġà°® à°¹
à°² à°ª
à°® à°°
Ġà° ·
Ġà°¤ à°®
à°° à°ª
Ġà° ĸ
à°¨ à°µ
à°² à°¯
Ġà°² à°ķ
à°ķ à°¨
Ġà°® à°§
à±į .
Ġà°ı à°°
Ġà°İ à°²
Ġ -
Ġà°ħ à°¸
à°¯ à°Ł
à°İ à°¸
3 0
à°ļ à°°
à°¨ à°ª
à°¨ à°ķ
Ġà° Ĳ
à°· à°²
Ġà°İ à°µà°°
Ġà°Ĩ à°¦
à±ģ "
5 0
à°µ à°ļ
Ġà°ļ à°°
ÂłÂłÂłÂłÂłÂłÂłÂł ÂłÂłÂłÂłÂłÂłÂłÂł
à°¨ à°°
Ġà°Ĩ à°²
Ġà°¨ à°µ
à°° à°¦
à° ł
à±Ģ à°Ĥ
Ġà°ķ à°³
Ġà°µ à°¦
Ġà°¦ à°Ĺ
à°¯ à°¤
à°¯ à°°
à°Ĺ à°¤
à°ķ à°Ł
à°® à°²
Ġà°ı à°®
Ġà°ĩ à°ļ
à°¨ à°®
à°¾ .
à°¨ à°²
à°¯ à°¡
à° Ĳ
à±ĩ .
à°¾ !
Ġà°Ĩ à°¸
Ġà°ī à°¤
à°ļ à°²
à°¾ ?"
à°µ à°¹
à°² à°®
Ġà°ĩ à°ķ
Ġà°ĩ à°²
à°® à°ķ
ĠÂłĠÂłĠÂłĠÂł ĠÂłĠÂłĠÂłĠÂł
à°° à°²
à°ª à°ķ
Ġ '
Ġà°¨ à°®
à°¡ à°¨
à°ľ à°°
Ġà° Ĭ
à°° à°¶
Ġà°İ à°¦
à°° à°§
Ġà°ı à°¡
Ġà°ī à°ª
Ġà°¤ à°Ĺ
Ġà°µ à°°à°ķ
Ġà°ħà°¤ à°¡
à±Ī à°Ĥ
Ġà°ĩ à°µ
Ġà°ķ à°°
à°² à°°
à°¡ à°Ĺ
Ġà°Ĩ à°¶
à°² à°µ
à±Ĥ ,
à°° à°¹
Ġà°¬ à°¯à°Ł
Ġà°¸ à°¹
Ġà°ķ à°®
à°£ à°¯
Ġà°¦ à°°
Ġ *
à±ĭ ,
0 0
à°¦ à°Ł
à° Ī
à°¿ )
à±ģ. ..
Ġà°ª à°²
Ġ 3
Ġà°¨ à°¡
à°¤ à°Ĺ
à±ĩ ,
à±ģ. "
à°¯ à°¸
Ġà°ĩ à°¨
Ġà°ħà°µ à°ķ
à±į ,
0 8
à°Ĺ à°¨
Ġ 4
0 7
0 4
à°® à°¤
Ġà°¸à°® à°¯
0 9
à°ľ à°¯
Ġ :
Ġà°° à°ķ
à°Ł à°ķ
à°¨ à°¸
à°¿ "
Ġà°ı à°¦
Ġà°Ĩ à°Ĺ
à±ģ !
à° ŀ
0 5
2017 4
Ġà°Ĩ à°¡
Ġà°µ à°²
à±ģ. .
0 6
à°¹ à°¨
à°¿ ?
à°² à°Ĺ
à°³ à°¨
à°® à°¯
à°ľ à°ķ
Ġà°ľ à°¨
à°¾ ..
Ġà° ĺ
à°¡ à°°
Ġà°ķ à°¦
Ġà°ļ à°¦
à°ľ à°®
Ġà°¸ à°Ń
à°µ à°ķ
à°°à°¯ à°¤
à°¾à°Ĥ .
Ġà°Ĩ à°¨
à°Ł à°®
Ġà°Ĺ à°¤
0 3
à°¥ à°²
Ġà°®à°¨ à°¸
à°ª à°¨
Ġà°ª à°ķ
Ġà°® à°³
à°¿. ..
Ġà°ķ à°Ł
à°¿. .
0 2
0 1
à°¿ !
à°¡ à°Ł
Ġà°Ĩ à°«
Ġà°Ĩ à°§
à°° à°¬
à±ģ ?
Ġà°İ à°¸
à°¦ à°ķ
Ġà°Ń à°°
Ġà°¡ à°¬
à°¸ à°²
Ġ 20
Ġà°¸à°® à°¸
Ġà°ı à°ª
Ġà°İ à°®
à°µà°° à°ķ
Ġà°ĩ à°¸
à°° à°Ĺ
Ġà°İ à°ª
Ġà°ħ à°Ł
Ġà°¨ à°¨
Ġà°Ń à°¯
à°¿) :
à°°à°ľ à°²
Ġà°Ĺ à°¡
à°® à°µ
à° ¢
Ġà°ĩ à°Ł
à°µ à°Ł
à°³ à°²
à°¡ à°¦
2016 2
à°¶ à°ķ
à°µ à°¸
Ġà°¨ à°Ł
Ġ 6
Ġà°Ĩ à°µ
à°°à°ķ à°Ł
à°¯à°µ à°¸
Ġà°§ à°°
à°¡ à°µ
Ġà°¨ à°²
2015 1
à°ļ à°ķ
... "
Ġà°Ĩ à°¤
à°¹ à°°
Ġà°¤à°¨ à°ķ
Ġà°ħ à°Ĺ
Ġ 5
à°§ à°¨
Ġà°Ĺ à°¦
Ġà°¬ à°²
à°¨ à°¤
Ġ1 9
1 9
Ġà°¸ à°¤
à°¸ à°¨
à°Ĺ à°³
à±Ĥ à°Ĥ
à±ĩ ..
à°¡ à°ķ
Ġ 8
à°¿. "
à°² à°¡
à°ķà°° à°£
à°ķ à°®
à°ª à°¦
Ġ1 0
à° Ĵ
à°Ĺ à°¦
à°® à°¹
Ġ Ġ
à°ĸ à°°
à°Ń à°µ
à±į !
Ġ 7
à±Į à°Ĥ
Ġà°¨ à°Ĺà°°
à°¬ à°Ł
Ġ0 2
Ġà°ĸ à°°
à°¥ à°ķ
_ _
à°¡ à°¡
à°Ĺ à°®
1 3
Ġ 9
à°² à°¬à°¡
à°¤ à°µ
à°¿ âĢĻ
Ġ1 2
à°¿ ?"
à°ª à°·
à±ĩ !
à°° à°ļ
1 6
à°µ à°Ĺ
à±ģ ?"
Ġà°İ à°¤
à°§ à°µ
Ġà°Ĩ à°ķ
1 5
Ġà°¨ à°°
à°¨ à°Ĺà°°
Ġà°ķ à°·
2 5
à°³ à°ķ
Ġà°° à°µ
Ġ1 5
à°¦ à°®
à°¾ ...
Ġ0 1
Ġà°¬ à°¸
à°¤ à°ª
à° Ľ
1 8
à°£ à°²
Ġà°ħà°µ à°¸à°°
1 7
Ġà°ª à°¤
à°Ł à°¡
Ġà° Ľ
1 4
à°µ à°¦
à°µ à°¯
Ġà°Ĩ à°ª
Ġà°¹ à°°
Ġà°ĩ à°·
à° ī
Ġà°¤ à°¯
à°ħ à°¦
à±įâĢĮ )
à±įâĢĮ âĢĻ
à°¦ à°µ
Ġà° ¢
Ġà°® à°¦
à°¨ à°¯
2 4
à°Ĺ à°¡
Ġà°ħà°® à°²
Ġà°ħà°¸ à°²
à°ļ à°Ł
à°ª à°¥
Ġà°¸ à°¨
Ġà°ļ à°Ł
à°İ à°²
Ġà°¶ à°°
à°® à°¦
à±įâĢĮ .
2 6
à±ģ -
Ġà°¤ à°ķ
à°¨ à°Ĺ
à°¸ à°®
à°¯ à°£
à°ĸ à°²
2 8
à°¦ à°¯
à°ķ à°¸
Ġà°Ĩ à°Ł
à°® à°Ĺ
à°® à°£
Ġà°Ĵ à°ķà°°
Ġà°¤ à°¦
ÂłÂłÂłĠ ÂłÂłÂłĠ
à°¯ à°ª
à°° à°µà°°
2 9
3 4
Ġà°Ĳ à°¦
à°¦ à°Ĺ
2 7
Ġà°ķ à°¥
ĠâĢĺ âĢĺ
3 5
à°ķ à°¤
Ġà°Ĩ à°¯
à°¸ à°µ
3 6
à±ģ âĢĻ
Ġà°® à°²
Ġà°Ĭ à°°
Ġà°ĩ à°¤à°°
Ġà°Ĵà°ķ à°Ł
Ġà°ħ à°¬
à°Ĺ à°µ
Ġ1 1
Ġà°« à°²
3 7
à°ķ à°ķ
Ġà°¬ à°¹
à°¿ -
à°Ł à°ª
Ġà°¦ à°ķ
à°ľ à°¯à°µ
à±Ĩ .
3 9
à±Ģ !
à±Ģ .
3 8
Ġà°Ĩ à°¹
Ġà°īà°¦ à°¯
à°§ à°°
ÂłÂłÂłÂłÂłÂłÂłÂłÂłÂłÂłÂłÂłÂłÂłÂł ÂłÂłÂłÂłÂłÂłÂłÂłÂłÂłÂłÂłÂłÂłÂłÂł
à°ļ à°¯
à°µà°° à°£
Ġà°ª à°¥à°ķ
à°İ à°¨
à±ĩ ...
à°« à°°
à°¾ !"
à°¡ à°¤
à°¡ à°®
à°¹ à°¸
à°ħ à°¨
à°¶ à°¨
à°ı à°®
à°µà°² à°¸
Ġ0 0
Ġà°² à°Ń
2 2
Ġ1 8
Ġà°ĩ à°¬
Ġà°¤à°¨ à°¨
à°¤ à°¯
Ġà°¶ à°ķ
à°· à°ķ
à±ĭ .
à°¯ à°¦à°°
Ġà°İ à°Ĺ
Ġà°¬à°¯à°Ł à°ķ
Ġ1 4
Ġ1 6
à°ħ à°µ
à°Ĥ ..
Ġà°İ à°°
à° ĵ
à°§ à°®
à°¯ à°¦
à°° à°Ł
Ġà°ļ à°²
Ġà°¤à°° à°²
2 3
à°¯ à°Ĺ
Ġà°Ĵ à°ª
Ġà°° à°¦
Ġà°Ĺ à°®à°¨
Ġà°ķ à°¡
Ġà°ļ à°ķ
Ġà°Ĺ à°°
à±ģ :
Ġà°¸ à°¦
Ġà°ı à°³
à±ģ. ...
à°ħ à°¯
à±į "
Ġ0 3
2 1
à°¾ "
à°Ł à°²à°ķ
Ġà°¨ à°·
à°· à°®
Ġ1 7
Ġ2 3
à°® à°®
Ġ 30
à°Ĥ !
Ġà°ľ à°²
à°£ à°®
à°¬ à°²
à°ķ à°Ĺ
Ġ1 3
Ġà°īà°ª à°¯
à±ĥ à°Ĥ
ĠÂłĠÂłĠÂłĠÂłĠÂłĠÂłĠÂłĠÂł ĠÂłĠÂłĠÂłĠÂłĠÂłĠÂłĠÂłĠÂł
à°®à°¹ à°¤
à°ª à°Ĺ
à°° à°¦à°°
à±įâĢĮ :
à°¶ à°²
Ġà°ħà°µ à°¸
à°² à°¬
Ġà°¹ à°¤
Ġà°® à°¤
Ġ 201
Ġà°Ĺ à°Ł
à°Ĺà°³ à°µ
à°ļà°¨ à°²
à°ĩ à°¦
Ġà°ĩ à°°
à°ľ à°²
.... "
à°¦ à°¤
Ġà°¬ à°°
à°ļ à°Ĺ
à±įâĢĮ -
Ġà° ¥
Ġà°¸à°® à°°
Ġ !
Ġà°İ à°Ł
à°¨ à°¡
à°Ĺ à°Ł
Ġà°¶ à°¨
à±ĭ ..
à°ķ à°¯
à°µ à°®
Ġà°Ń à°¦
à°·à°¨ à°°
à°ħ à°²
Ġà°ı à°ķ
à°ħ à°¤à°¨
4 5
à° ĥ
Ġà°ĺ à°Łà°¨
à°§ à°¤
à°¯ à°ªà°¡
Ġà°µ à°¯à°¸
à°ħ à°®
à±į ...
4 8
Ġà°¬ à°Ł
à°µà°° à°²
à°Ĵ à°ķ
Ġà°ħà°® à°°
2016 3
à°¶ à°®
Ġà°ľ à°Ĺà°¨
) ,
Ġà°ħ à°¶
4 9
Ġà°ķ à°¸
Ġ 50
à°Ĩ à°®
Ġà°¬ à°¡
à°ĺ à°Łà°¨
Ġà°ħà°µà°¸ à°°à°®
à°¹ à°¦
5 6
4 7
à°Ĺ à°°à°ķ
Ġà°¬ à°¦
4 6
à±Ĥ !
Ġà°¸ à°²
Ġà°ªà°¦ à°µ
Ġà°®à°° à°£
à°ª à°®
Ġà°Ń à°ķ
à°¦ à°¡
à±ģ !"
à±ĭ !
5 8
Ġà°ľ à°¯
Ġà°¶ à°¤
Ġà°¬ à°¯à°²
3 1
Ġà°ķ à°ª
5 7
Ġà°ī à°Ĺ
5 9
Ġà°° à°®
à°² à°¸
à±Ĥ ..
Ġà°Ń à°µà°¨
4 0
Ġà°İ à°ķà°°
à°¤ à°¤
à°¿ :
à°¿. ...
Ġ ÂłÂł
Ġà°Ń à°µ
Ġà°ĩ à°³
à°¥ à°®
à°ľ à°§
Ġà°ķ à°µ
à°² à°¦
à°¡ à°ª
Ġà°¸ à°¬
à°Ł à°ªà°¡
à°³ à°¤
à°® à°¡
Ġà°ľ à°Ł
Ġà°İ à°¯
Ġ2 2
Ġà°ļ à°¨
à°¤ à°¸
à°¯à°µ à°¹
à±Ģ :
à°¸ à°Ĺ
à°¯ à°®à°¨
à°¤ à°Ł
Ġà°¬ à°¤
à°ķ à°¦
5 5
à°® à°¸
à°Ĥ :
à°§ à°ªà°¡
Ġà°Ĭ à°¹
à°¤ à°µà°°à°ķ
Ġà°ľ à°µ
Ġ2 1
âĢĻ âĢĻ
à°Ĥ ...
4 4
à°°à°ķ à°Łà°¨
à°Ĺ à°¸
à°ł à°¶
Ġà°µ à°¡
.... ..
à±įâĢĮ ..
Ġà°ª à°¶
à±Ģ ..
Ġà°Ĺ à°²
à°Ł à°¯
à°¯à°µ à°¹à°°
à±į :
à°§ à°ķ
Ġà°µ à°¨
3 2
à°ĩ à°ª
à°² à°ľ
à±į '
à°ħ à°ª
à±ĭ ...
Ġà°¤à°® à°ķ
Ġà°¨ à°ļ
Ġ2 5
Ġà°Ĩà°¯à°¨ à°ķ
3 3
à°¹ à°²
Ġà°ī à°®
à°¿ !"
à±į !"
Ġà°ľà°° à°Ĺ
à°ķ à°µ
5 4
Ġà°Ĩà°Ĺ à°¸
Ġà°¦ à°³
Ġà°ª à°¸
Ġà°ī à°²
Ġà°®à°¨ à°ķ
Ġà°¤ à°¡
à°· à°°
à°¯ à°ķà°°
Ġà°Ĩà°¸ à°ķ
à°°à°ľ à°²à°ķ
à°İ à°«
Ġ ,
Ġà°ĵ à°Ł
à°ļ à°Ĺà°²
à°° à°°
à°Ł à°£
à±į ..
4 2
Ġà°¹ à°ķ
10 8
Ġà°İ à°¡
à°¤ à°¦
Ġà°ħà°² à°µ
Ġà°ĵ à°µà°°
Ġà°ĵ à°ª
à±ģ )
à°·à°¨ à°²
à°Ł à°Ĺ
à°£ à°ķ
10 7
à°¾ ....
5 2
Ġà°Ĳ à°Ł
Ġà°¨ à°ķ
Ġà°Ī à°¸
à°¸ à°Ń
4 3
à°¯ à°¬
Ġà°ķà°¨ à°¬à°¡
Ġà°Ĺ à°µà°°
10 9
à°¥ à°¨
à±ģ '
à°ľà°ķ à°µà°°
à±ĩ "
1 10
à°¯ à°²à°ķ
à°Ĥ âĢĻ
à°¡ à°¬
Ġà°Ĭ à°ª
Ġ2 4
5 3
Ġà°¸ à°µ
à°¡ à°¯
Ġà°ļ à°ª
Ġà°¬à°¯à°Ł à°ªà°¡
Ġà°Ĩ à°²à°¯
à°¶ à°ª
à°¬ à°¤
à°İ à°µà°°
à°§ à°¨à°²
Ġà°Ńà°¯ à°ªà°¡
Ġà°¯ à°ľà°®
à°°à°¸ à°¨
à°Ń à°®
à°¸ à°¹
10 6
à°¯ à°²à°¨
à±Ģ ...
Ġà°¦à°° à°ĸ
à°¡ à°¦à°¨
à°Ł à°µ
à°¹ à°®
Ġà°§ à°¨
Ġà° Ķ
5 1
Ġà°ī à°°
à±Ģ )
ÂłÂł ÂłÂłÂł
4 1
à°Ĺ à°ľ
Ġà°¯ à°ľ
à±Ģ -
10 4
Ġà°¸ à°ķ
Ġà°« à°°
à°Ń à°ľà°¨
à°¿ '
à°¸ à°ķ
Ġà°Ĺ à°£
ĠĠ ĠĠ
à°Ĺ à°£
à°¾ -
à°¯ à°Ĺà°²
Ġà°µ à°¹
à°¦à°¨ à°²
Âł čĊ
Ġà°¤ à°Ł
Ġà°ħ à°¦à°¨
à°µ à°ª
à°µ à°µ
Ġà°ª à°µà°¨
Ġà°¨ à°¦
Ġà°Ĵ à°¤
Ġà°ľà°¨ à°µà°°
à°¦ à°ľ
à°¤ à°¡
Ġà°¸à°² à°¹
Ġà°Ĩ à°ªà°°
Ġà°® à°®
Ġà°ľ à°¡
Ġà°® à°Ĺ
Ġà°Ĩ à°ļ
Ġà°¶ à°¶
à±ģ. ....
à°· à°¤
00 0
à°Ł à°¬
à°°à°£ à°ķ
à°µà°° à°°
Ġà°ħ à°ľ
à°¹ à°¤
Ġà°¦ à°¶
à°¯ à°ľ
à°° à°ªà°¤
Ġà°ı à°Ł
Ġà°¸à°° à°«à°°
Ġà°ķ à°¬
à°¹ à°ķ
à°µà°° à°Ĺ
Ġà°Ĩà°¡ à°ª
Ġ2 8
11 6
à±į ....
à°¡ à°¤à°¨
à±į -
Ġà°ħà°µ à°Ĺ
9 9
à°ľ à°¸
à°ļ à°ķà°ª
à±Ĥ ...
Ġà°Ĩ à°ķà°°
à±į ?"
Ġ .
50 0
à°ª à°£
Ġà°ļ à°ļ
Ġà°ľ à°¸
Ġà°ħ à°£
12 6
à°² à°²à°ķ
12 7
11 8
à°¶ à°µ
à°µà°¡ à°®
11 9
à°Ĺ à°¬
Ġà°¸ à°ļ
à°° à°³
12 8
ÂłÂłÂłĠ ÂłÂłÂł
à°ķ à°³
Ġà°ª à°ļ
11 7
Ġà°Ĩà°² à°¸
à°ħ à°°
à° ģ
Ġà°ı à°µ
Ġ2 7
à°¯ à°¶
à°ħ à°ķ
à°° à°¡
Ġà°Ĩ à°¦à°°
Ġà°° à°¹à°¸
à°ª à°£à°²
Ġà°ĵ à°¡
Ġà°¸à°® à°ķ
Ġà°¨ à°Ĺà°¦
à°ĩ à°ķ
à°¾ à±į
à°Ĥ ?
Ġ2 6
Ġà°ľ à°®
à°¯ à°¤à°²
12 9
à±ĩ ....
Ġà°¸à°¦ à°¸
à°ļ à°µà°ļ
à°³ à°®
à°¦ à°¸
à°¯ à°Łà°¨
à°¶à°ķ à°¤
à°· à°¯à°®
à°¾ âĢĻ
Ġà°Ĺ à°¨
à°ļ à°¬
à° Ĭ
Ġà°ī à°ļ
Ġà°Ĵà°ķ à°¸
Ġà°¸à°¹ à°ķ
Ġà°ħ à°ĸ
12 4
Ġà°ķ à°¤
Ġà°® à°Ł
à°¶ à°¬
à°¡ à°¸
à°İ à°ķ
à°Ĥ "
ÂłÂłÂłÂłÂłÂłÂłÂł ÂłÂłÂłÂł
Ġà°ķ à°¦à°²
Ġà°ı à°¸
Ġà°Ī à°¨
Ġà°¹ à°¨
11 4
à°ħ à°®à°°
à±Ī ,
Ġà°Ĵà°ķ à°µ
à°® à°Ł
Ġà°Ĵ à°¡
à±įâĢĮ (
Ġà°¤à°° à°Ĺà°¤
à°° à°ªà°¡
à°ķà°¡ à°ķ
à°Ĥ -
Ġà°° à°ļà°¯
1 30
à°¤ à°²à°ķ
Ġà°§ à°°à°²
Ġà°° à°¹à°¦
à°® à°§
Ġà°¶ à°¬
à±Ĥ ?"
à°Ĺ à°ª
à°¿âĢĻ âĢĻ
7 6
à°°à°® à°²
Ġ2 9
Ġà°ħ à°¹
Ġà° ĭ
à±ĩ -
Ġà°¸ à°Ĺ
à°¦à°° à°Ĺ
.. ...
à°ĸ à°ªà°Ł
à°« à°²
ĠÂłĠÂł ĠÂł
à°Ń à°ķ
à°ķ à°²à°¨
Ġ4 0
Ġà°¦ à°¶à°²
Ġà°° à°ĺ
à°· à°¸
à°Ń à°°
à°ļ à°²à°¨
à°¬ à°¦
Ġà°ľ à°¨à°°
à°¸ à°ª
Ġà°¬ à°²à°µ
à°² à°µà°°
à±ģ... "
Âł ĠÂłčĊ
Ġà°Ĺ à°¬
Ġà°ı à°ľ
à°Ł à°Ł
Ġà°¸à°Ń à°²
à°® à°ļ
Ġà°ħ à°ļ
à°¯ à°¯
à°° à°¥
à°¸ à°¤
Ġà°ķ à°ł
à°¨ à°¦à°¨
Ġà°¸à°¹ à°ķà°°
à°ª à°²à°ķ
Ġ ....
Ġà°° à°®à°£
à°² à°Ł
8 6
ÂłÂłÂłÂł Ġ
11 20174
à±ģâĢĻ âĢĻ
Ġà°ĩ à°°à°µ
Ġà°ķà°¥ à°¨
à°µ à°¤à°²
à°°à°¤ à°¦
Ġà°® à°¸
ÂłÂłÂłĠ ÂłÂł
Ġà°ħà°¡ à°µ
à°°à°® à°£
à°µ à°²à°¨
à°°à°£ à°®
à°¯ à°¯à°¨
à°ķà°° à°®
à°Ń à°¯
à°ĸ à°®
Ġà°ĺ à°¨
Ġà°ªà°° à°®
Ġà°ª à°²à°ķ
à°µ à°£
à±Ģ !"
Ġà°¸ à°¸
à°¿. ....
Ġà°İ à°«
à°ļ à°¦
à°ĩ à°²
Ġà°ª à°¬
9 6
à°² à°Ń
à±ĭ "
Ġà°ķ à°®à°²
Ġ1 00
1 20
à±ģ à°ĥ
20151 6
7 7
à±ĩ !"
Ġà°ª à°Ĺ
à°¦ à°²à°ķ
à±Ģ "
à°¾ :
à°¨ à°¹
Ġà°¦ à°¯
Ġà°¨ à°°à°¸
à°°à°Ĺ à°¡
8 8
à°¯ à°§
à±ĭ -
Ġà°µ à°£
12 2017
à°Ń à°¦
à°Ł à°²à°¨
Ġ __
à°¬ à°¨
à°· à°ª
à°¦ à°ª
Ġà°« à°¸
à°¶ à°Ĺ
Ġà°¤à°° à°¹
Ġ3 1
à°Ł à°¤
à°¡ à°µà°ļ
ĠÂłĠÂłĠÂłĠÂłĠÂłĠÂłĠÂłĠÂł ĠÂłĠÂłĠÂłĠÂł
à°Ĺà°° à°Ĺ
10 20174
Ġà°ħà°µ à°®
à°ķ à°²à°ķ
à°ķà°° à°ķ
à°ļà°¡ à°®
Ġ0 9
Ġà°ľà°¨à°° à°²
à°ļ à°µ
à°¦à°² à°¯
à°® à°³
à°² à°ļ
Ġà°Ĩà°« à°°
Ġà°° à°¸
Ġà°¬à°² à°¹
à°® à°¶
Ġà°ľà°° à°Ĺà°¨
Ġà°ħà°¬ à°¦
11 20163
Ġà°Ĩ à°ĸà°°
Ġà°ķà°² à°¸
Ġà°Ĳ à°¸
à°Ĺ à°ķ
- -
à°¾à°Ĥ "
9 8
Ġà°Ī à°µ
à°µ à°¸à°°
Ġà°ĩ à°®
à°ª à°µ
Ġà°ī à°ķ
à±Ĥ !"
Ġà°ħà°° à°µ
à°ļ à°®
Ġà°¬ à°²à°®
à°¶ à°°
à±Ĥ ?
à°¯à°ķ à°ª
à°Ĥ ....
à°ª à°ļ
2016 34
Ġ ?
Ġà°¤à°² à°ª
à°¤ à°²à°¨
7 8
à±į âĢĻ
Ġà°° à°¹
à°¬ à°¸
à±įâĢĮ âĢĮ
Ġà°¸à°¹ à°ľ
Ġà°ª à°µà°°
Ġ6 0
à°Ĩ à°¯à°¨
__ __
à°ªà°¡ à°¤
à°¤à°® à°µ
à°°à°® à°¤
Ġà°ħà°¨ à°¡
Ġà°ī à°·
à°§ à°²
Ġà°¨ à°¯
12 30
à°ı à°¸
à°Ĺ à°¯
à°ļ à°¬à°¡
12 50
11 30
à±ģ. ..."
à°ŀ à°ª
à°® à°ª
Ġà°¶ à°µ
2016 30
à°Ĥ )
à°³ à°¯
Ġà°¹ à°¡
Ġà°Ĺ à°ľ
à±ĭ ?
à°¯à°ķ à°¤
Ġ201 4
à°¤ à°ľ
à°°à°£ à°²
à°¾ )
à°¶ à°¯
Ġà°ħà°µ à°¤à°²
à°¦ à°ªà°¡
Ġà°İ à°²à°ķ
à°¥ à°°
à°µ à°³
12 20151
Ġà°¬ à°ķ
à°µà°¹ à°£
Ġà°ĸ à°®
Ġ0 4
Ġà°ķà°² à°²
à±Ģ âĢĻ
20174 6
à±ĭ ....
Ġ 2015
Ġà°Ń à°Ĺ
à°¤à°® à°¯
Ġà°¹ à°µ
10 30
Ġà°ľ à°ª
ÂłÂłÂłĠÂłÂłÂłĠ ÂłÂłÂłÂłÂłÂłÂłÂłÂłÂłÂłÂłÂłÂłÂłÂł
Ġà°ħà°¦à°¨ à°ª
Ġà° ł
Ġà°² à°¬
à°¸ à°Ł
à°¿... "
10 5
2017 37
Ġà°¤ à°®à°¨
11 50
Ġ ...
Ġà°Ĩ à°ķà°Ł
10 50
à°ħ à°¬
à°·à°£ à°²
10 20163
à°Ń à°²
Ġà°ķ à°¥à°²
Ġà°° à°ķà°°à°ķ
Ġà°ħà°° à°Ĺ
à°ı à°ª
11 2
à°¾ '
Ġà°Ī à°®
à°¯à°µ à°ļ
à°°à°ķà°Łà°¨ à°²
à°¸ à°¨à°¸
2017 36
Ġà°Ĩà°¡ à°¦
à°ļ à°°à°£
Ġ |
à°£ à°¨
Ġà°Ĳ à°ª
à°Ľ à°¨
à°ª à°ª
à°ľ à°°à°¯
à°ª à°¯
à±ĩ ?"
à°ªà°° à°ļ
Ġ0 7
à°ª à°¬
Ġà°ķ à°ķ
à°¯ à°¤à°¨
Ġà°ķà°¨ à°ªà°¡
Ġà°Ĩà°¡ à°µ
Ġ 2016
à±ģ (
à°· à°§
Ġà°µ à°²à°¨
à°Ĳ à°¸
à°ķ à°¬
ÂłÂłĠ ÂłÂłÂłĠ
Ġà°Ń à°Ĺà°µ
à°°à°¤ à°²
à°Ĥ ?"
Ġà°ı à°¨
à°¯à°² à°ª
12 20
2017 39
à°ħ à°¸à°²
Ġà°Ĩà°Ł à°Ĺ
10 20
à°ŀ à°®
Ġà°¤ à°µ
âĢ ĵ
à°§ à°Ĺ
à°·à°£ à°ķ
. "
Ġà°¸ à°ª
à°¾. "
9 7
à°¯à°ķ à°²
Ġà°ħà°¸ à°¹
Ġà°¸à°° à°¦
10 3
Ġà°° à°¨
Ġà°¦ à°¤
à°Ł à°¸
à±į ?
04 20162
à°µ à°¶
20162 6
à°·à°£ à°®
Ġà°ª à°³
Ġà°µ à°¨à°°
à°°à°ľ à°²à°¨
Ġà°ª à°µ
Ġà°ĩ à°µà°¨
à±Ģ ....
Ġà°° à°ľà°¨
Ġà°µà°° à°²
Ġà°° à°·
Ġà°® à°Ĺà°µ
Ġà°· à°°
11 20
Ġà°µà°¸ à°¤
Ġà°¨à°® à°¸
à°²à°ķ à°²
Ġà°Ĵ à°³
à°ķ à°¶
à°ĸ à°ķ
Ġà°ķ à°¶
à±ĩ ?
12 201634
Ġà°ħà°Ł à°µ
à°ı à°¦
à±į. "
à°¾.. ...
à°¯à°® à°¯
Ġà°¹ à°ł
Ġà°Ł à°¨
à°· à°²à°ķ
à±Ģ à±įâĢĮ
à°¯ à°ļ
Ġà°ĺà°Łà°¨ à°²
Ġà°² à°²
à°¨ à°ļ
Ġà°Ĭ à°³
à°ª à°¸
Ġà°ı à°®à°¨
Ġà°ħà°ª à°°
6 0
à±Ĥ "
à°² à°²à°¨
à°§ à°®à°¯
à° ½
à°¨ à°¬
Ġà°¸ à°µà°°
2017 35
Ġà°®à°¹ à°¬
à±ĭ !"
Ġà°µ à°ķ
à°¬ à°¯
à°Ĺ à°ªà°¡
à°ľ à°¶
Ġà°Ĺà°¬ à°Ĺà°¬
à±Ģ ?
Ġà°ī à°¸
Ġà°® à°£
à°¤à°° à°ª
à±Ģ ?"
Ġà°¬ à°¯
Ġ0 8
à°§ à°®à°µ
Ġà°Ĩ à°µà°°
à°« à°²à°®
Ġ0 6
Ġà°¸ à°°à°¸
Ġà°ªà°²à°ķ à°°
Ġà°² à°µ
Ġà°¹ à°¸
Ġà°ħà°² à°°
à±Ī :
Ġà°¤à°° à°«
2015 8
Ġà°Ī à°°
Ġà°¤à°¨ à°²
Ġà°ħ à°«
2017 38
à°Ĥ '
11 20151
10 2
Ġà°¤à°° à°ļ
à°Ł à°¦
à°¸ à°¯
à°ª à°ľ
Ġà°Ĩ à°ķà°²
7 0
à°ļ à°¸
10 201516
à°² à°ªà°²
Ġà°Ī à°ľ
à°ĸ à°¨
7 5
à°ĩ à°¨
à°¯à°¡ à°®
à°¬ à°ķ
Ġà°Ń à°°à°¤
âĢĺ âĢĺ
à±Ĥ -
7 9
à°³ à°¦
2016 19
122017 50
à°¾ ..."
Ġà°®à°¨ à°®
à°ħ à°¤
Ġà°ľ à°Ĺ
Ġà°ľ à°¬
à°°à°¤ à°ķ
Ġà°ħà°¨ à°µà°¸à°°
Ġà°Ĵà°ķ à°ª
à°¿. ..."
à°¦ à°¦
à°Ĳ à°Ł
8 0
à°ª à°µà°¨
Ġà°¸ à°®à°¨
à°¡ à°µà°²
à°³ à°¡
à°¯à°¨ à°Ĺà°°
Ġà°Ĳ à°ķ
Ġà°ħà°¡ à°Ĺ
Ġà°ĵ à°Łà°®
à°¯à°² à°¸
07 20174
Ġà°Ī à°¶
à°İ à°®
Ġà°¸ à°¦à°°
à°¤à°ķ à°¨
Ġ7 0
1220151 8
2016 20
à°ĺà°Łà°¨ à°²
à°Ĩ à°¦
Ġà°ĵ à°Łà°°
09 20151
à°µ à°Ń
à°° à°Łà°°
à°ķà°°à°£ à°²
06 20174
Ġà°İ à°µ
Ġ8 0
à±Ĩ à±įâĢĮ
Ġà°¨ à°Ĺ
à°® à°ľ
à°Ń à°¨
à°° à°Ĺà°¤
Ġà°Ĳ à°¡
Ġà°ķ à°ļ
Ġà°¤à°¨ à°¤
à°²à°ķ à°®
ÂłÂłÂłÂłÂłÂłÂłÂłÂłÂłÂłÂłÂłÂłÂłÂłÂłÂłÂłÂłÂłÂłÂłÂłÂłÂłÂłÂłÂłÂłÂłÂł ÂłÂłÂłÂłÂłÂłÂłÂłÂłÂłÂłÂłÂłÂłÂłÂłÂłÂłÂłÂłÂłÂłÂłÂłÂłÂłÂłÂłÂłÂłÂłÂł
Ġà°¤à°° à°ª
Ġà°µà°° à°¦
Ġà°ªà°¡ à°ķ
à°¿ (
à°¯ à°¬à°¡
Ġà°ķ à°µà°°
Ġà°° à°ļ
08 20174
05 20162
05 20174
à±įâĢĮ !
à°Ī à°µ
à°¾ à±įâĢĮ
Ġà°Ĩà°¶ à°²
à°ļ à°®à°¨
6 6
Ġà°Ĵ à°°
à±įâĢĮ) ,
Ġà°ħà°¸ à°¹à°¨
Âł ĠčĊ
à°£ à°µ
à°³ à°¨à°ķ
à°Ĥ. "
Ġà°Ĩà°¯à°¨ à°¨
Ġ ÂłÂłÂłÂłĠ
à°ĺ à°µ
à°ª à°Ĺà°²
Ġà°¤ à°²à°¨
ÂłÂłÂłĠ ÂłÂłÂłÂłÂłÂłÂłÂłÂłÂłÂłÂłÂłÂłÂłÂł
Ġ20 0
Ġà°µ à°¦à°²
à°°à°£ à°®à°¨
à°¡ à°Ĺà°²
à°¸à°¨à°¸ à°Ń
Ġà°ĵ à°¸
Ġà°ħà°µ à°¨
Ġà°¤ à°²à°ķ
08 20151
à°° à°¬à°¡
à°İ à°ª
à°ķ à°ļ
Ġà°¤ à°¤
Ġ1 50
à°¯à°² à°²
ĠĠĠĠ ĠĠĠĠ
9 0
Ġà°§ à°¨à°®
à°Ł à°®à°¨
Ġà°¬ à°¨
Ġ50 0
à° ±
à°¨ à°¬à°¡
à°¨ à°ªà°¡
Ġ ?"
Ġà°¬ à°ľ
à°²à°¨ à°²
Ġà°Ĵà°ķ à°¡
à°ª à°¦à°¨
à°¤ à°²à°¤
à±Ĩ ,
Ġà°¸à°® à°Ĺ
à°Łà°² à°¤
à°Ł à°®à°°
à°£ à°¤
à°ħ à°¤à°¡
10 0
06 20162
i n
Ġ _
Ġà°Ĩ à°ľ
à°· à°Ĺ
Ġà°ĩ à°¤à°¨
à°¯à°µ à°§
Ġà°ĺ à°°
à±ĩ. "
Ġà°° à°¤
à°Ĥ !"
à±į ..."
Ġà°®à°° à°²
ÂłÂłÂłÂł ÂłÂł
ÂłÂłÂłĠÂłÂłÂłĠ ÂłÂłÂł
Ġà°Ī à°¡
Ġà°®à°¹ à°¤
à±įâĢĮ /
à±Ĥ ....
Ġà°ıà°® à°¯
Ġà°Ĵ à°²
Ġà°ĩ à°ķà°ª
Ġà°¯ à°¶
Ġà°µ à°ľ
Ġ9 0
à°¯à°£ à°°
ÂłÂłÂłÂł ÂłÂłÂł
à°ļ à°µà°²
à°°à°® à°¨
à°® à°¬
Ġà°¸ à°ľ
à°¨ à°ķà°°
à°µ à°¬
Ġ3 5
ÂłÂł ĠÂł
Ġà°¶ à°°à°¤
à°¦à°° à°®
à±ģ" .
à°ī à°¤
à°ľ à°ª
à°ī à°¦
à°¾.. ?
9 4
à°ı à°¡
à°µ à°ľ
Ġà°¯ à°¤
à°¯ à°Ń
Ġà°®à°¨ à°²
à°£ à°ª
à°¥ à°²à°ķ
20 0
à°¯ à°ªà°°
Ġà°¹ à°¯
09 201746
à°ķà°°à°£ à°ķ
Ġà°¸ à°Ĺà°Ł
à°ĩ à°Ł
6 8
à°ī à°¨
Ġà°Ł à°°
Ġà°ĭ à°·
Ġà°ľà°° à°Ĺà°¡
Ġà°® à°ķ
à°¸à°Ń à°²
Ġ I
à°°à°ķ à°²
9 5
Ġ 2017
Ġà°¨ à°µà°²
Ġà°ķà°¸ à°°à°¤
Ġà°ķ à°£
Ġà°® à°ļ
à°¯ à°µà°°
Ġà°¯ à°¨
Ġà°ĵ à°°
à°® à°²à°ķ
Ġà°®à°° à°ļ
Ġà°¹ à°²
à°°à°µ à°¹
à°® à°°à°£
Ġà°¤à°² à°µ
à°¨ à°²à°ķ
à°ļ à°µà°²à°¸
Ġ4 5
à°ķ à°¬à°¡
à°¦à°¨ à°¨
à°¶ à°¨à°®
à°ľ à°¯à°¨à°Ĺà°°
à°² à°µà°²
Ġà°ľ à°Ĺà°¦
à°³ à°ª
ÂłÂłĠ ÂłÂłÂł
à°ĩ à°µ
à°Ĺ à°¤à°¨
Ġà°ľ à°²à°®
à± ¦
Ġ ..
à°Ĳ à°ª
à°¡ à°ķà°ª
à±įâĢĮ ...
à°¦à°² à°µ
à±į.. ...
Ġà°Ķ à°·à°§
à°² à°§à°¨
Ġ201 3
à°° à°¥à°®
ĠÂł ĠÂłÂł
Ġà°īà°ª à°¸
Ġà°ĵ à°ķ
à°Ĩ à°¨
Ġ .....
à°¾à°Ĥ !
à°°à°¤ à°¨
à°³ à°²à°ķ
9 2
Ġà°ī à°¡
à°¯à°² à°¤
Ġà°¸ à°¯
6 5
7 4
à°ħ à°¡
à°ª à°¬à°¡
Ġà°° à°ľ
Ġà°ľ à°¯à°²à°²
à±į )
Ġà°ı à°²
Ġà°¨ à°°à°ķ
w w
à°ķ à°µà°°
à°³ à°µ
à±ģ... ...
à°ħ à°Ń
à°Ĩ à°¸
Ġà°² à°¤
à°ħ à°§
Ġà° Ŀ
Ġà°Ī à°¯à°¨
Ġà°® à°ľ
Ġà°µ à°§
Ġà°ħ à°ľà°¯
Ġà°¤ à°Ĺà°²
à°ľ à°Ĺ
Ġà°ª à°¤à°ķ
8 5
Ġà°ĩ à°¤
à°Ĺ à°²à°¨
Ġà°ķà°² à°µà°°
Ġà°ªà°¡ à°¤
à°Ń à°°à°£
Ġà°ķà°² à°µ
à°Ń à°®à°¯
Ġà°¨ à°Łà°¨
ÂłÂłÂłĠÂłÂłÂłĠ ÂłÂłÂłÂłÂłÂłÂłÂłÂłÂłÂłÂłÂłÂłÂłÂłÂłÂłÂłÂłÂłÂłÂłÂłÂłÂłÂłÂłÂłÂłÂłÂł
à°¯à°® à°µ
Ġà°ķà°¡ à°ª
Ġà°ª à°Ĺà°²
ĠÂłĠÂł ĠÂłÂł
Ġà°ľà°° à°Ĺà°²
Ġà°İ à°µà°¡
Ġà°¸ à°°à°¸à°¨
à°¦ à°¶
7 2
à°İ à°¤
Ġà°µ à°³
à±ĩà°Ĥ ?
à°ĺ à°ķ
Ġà°® à°¡
Ġà°¤à°¨ à°¦
Ġà°ħà°¨ à°°
à°¾à°Ĥ âĢĻâĢĻ
à±ĩ âĢĻ
à°°à°® à°¯
8 9
à°ķà°° à°²
Ġà°° à°£
2015 9
Ġà°ħà°² à°¸
t h
05 2015
Ġà°¸ à°ķà°²
à°°à°£ à°¯
à°¨ à°µà°¨
à°¤à°° à°£
à°Ń à°µà°¨
à°§ à°ª
11 5
Ġà°Ń à°Ł
Ġà°Ī à°²
à°¯ à°µà°²à°¸
Ġà°° à°ļà°¨
Ġà°®à°¨ à°¦
Ġà°¤à°¨ à°ª
à°³ à°Ĺ
à°¦à°° à°ª
à°³ à°¨à°²
ĠÂłĠÂłĠÂł ĠÂłÂł
06 2015
à±ĭ ?"
Ġà°µ à°¤
à°Ł à°³
ÂłÂłÂłĠÂłÂłÂłĠ ÂłÂł
01 201735
à±ĩ.. ...
à±Ģ '
Ġà°ı à°¬
à°°à°¸ à°¤
à°¾à°Ĥ ..
Ġà°Ĩ à°Łà°²
à°¤ à°ªà°¡
30 0
à°Ĺ à°¦à°°
à°¹ à°°à°£
à°¸ à°¨à°²
07 201626
à°¤ à°¬
12 5
Ġà°® à°¯
à°Ĩ à°²
03 20162
8 4
à°ķ à°£
à°¦ à°³
Ġà°ĸ à°ļ
à±ĩ à±į
à°ħ à°¸
à°¾à°Ĥ ,
08 20162
Ġà°īà°ª à°¨
Ġà°Ĺ à°®
Ġà°ħ à°¥
8 7
Ġà°¤ à°¹à°¸
Ġà°ª à°ª
Ġà°¤à°° à°¬à°¡
Ġ3 6
Ġà°¬à°¯à°Ł à°ª
à°¨ à°¤à°¨
à°Ĺ à°®à°¨
Ġ a
à°ľ à°µ
Ġà°ħà°¨ à°²
à°Ĺ à°Ĺ
1120174 9
à°Ĳ à°¡
Ġà°Ĳ à°¶
Ġà°¸ à°µà°°à°£
Ġà°ħà°¨ à°Ĺ
Ġà°ķ à°²à°ķà°²
12 3
Ġà°¯ à°®
ĠÂłĠÂłĠÂłĠÂłĠÂłĠÂłĠÂłĠÂłĠÂłĠÂłĠÂłĠÂłĠÂłĠÂłĠÂłĠÂł ĠÂłĠÂłĠÂłĠÂłĠÂłĠÂłĠÂłĠÂł
Ġà°ħ à°¯à°¨
à°ŀ à°¤à°²
Ġà°° à°ª
Ġ3 2
12 2
à°° à°ªà°°
à°¦à°¨ à°ķ
à°¾ ...."
à°¦ à°®à°¨
Ġà°ļ à°¤
à°½ à°§
à±Ģ à±į
Ġ ÂłÂłÂł
à°° à°²à°ķ
à°¦ à°¬
à°¶ à°®à°¨
à±ĭ âĢĻ
Ġ30 0
Ġà°¡ à°¯
03 201738
Ġà°ķà°² à°°
à°¨ à°µà°¤
à°µ à°ķà°ª
Ġà°ªà°° à°¸
04 2015
à°Ĺ à°ļ
Ġà°ļ à°°à°£
Ġà°Ĩà°¯à°¨ à°¤
à°ª à°®à°¨
à±ĩà°Ĥ ?"
à°² à°¯à°¨
à°ı à°İà°¸
à±ĩ :
à°° à°·
Ġà°ĺ à°¨à°¤
Ġà°¯ à°¥
à°¯à°Łà°¨ à°²
Ġà°¨ à°Ĺà°²
à°ķà°¡ à°¨
à°µ à°¤à°®
1120151 7
ÂłÂłÂłÂł ÂłÂłÂłÂłÂł
Ġà°¬ à°²à°Ĺ
à±ĩ ..."
à±įâĢĮ) :
à°° à°ĸ
Ġà°ªà°¡ à°Ĺ
Ġ3 3
à°ķ à°ľ
à°ª à°¨à°ķ
11 3
____ ____
Ġà°ĵ à°¦
ĠÂłĠÂłĠÂłĠÂłĠÂłĠÂłĠÂłĠÂłĠÂłĠÂłĠÂłĠÂłĠÂłĠÂłĠÂłĠÂł ĠÂłĠÂłĠÂłĠÂł
6 7
Ġà°¤ à°²à°²
11 1
Ġà°µ à°¯
Ġà°¸à°° à°³
9 3
Ġà°ªà°¦ à°ķ
à°®à°¨ à°¸
à°Ĵ à°°
...... "
Ġà°Ń à°¯à°®
à°¯à°¸ à°Ń
à°ĺ à°Ł
à°¤à°¨ à°ķ
Ġà°¤à°¨ à°µ
à°ħ à°Ł
à°Ń à°ľ
4 20162
à°° à°ªà°Ł
Ġà°µà°² à°¸
5 20162
à°¹ à°°à°£à°ķ
à°Ĺà°£ à°¨à°²
6 4
à°ĺ à°¨
Ġà°Ĳ à°İà°¸
à°Ĥ (
à°¬ à°¸à°Ń
à°³ à°Ł
à°¯à°µ à°¸à°°
à°®à°ķ à°®
Ġà°ļà°² à°ªà°¤
à°¿ à±įâĢĮ
Ġà°Ķ à°Ł
à° Ŀ
10 1
à°ķ à°²à°²
à°³ à°¬
Ġà°Ī à°ķ
à°ªà°¡ à°Ł
Ġà°ħà°¨ à°ķ
à°® à°°à°¸
Ġà°Ĺà°£ à°¨
Ġ7 5
1020174 7
à°¾à°Ĥ ...
à°°à°¸ à°ķ
à°¾à°Ĥ. "
à±ĭ :
à± ĸ
à°µ à°Łà°®
Ġà°¨à°² à°Ń
e r
04 201739
6 9
à°¦ à°ķà°°
à°ľ à°¡
8 2
à°ķà°ª à°ķ
Ġà°ĺ à°Ł
Ġà°Ń à°²
Ġà°ªà°¡ à°Ł
à°¶ à°®à°¯
à°¤ à°¶
à°Ī à°¸
Ġà°Ĩà°µà°° à°£à°²
à°² à°µà°¡
à°§ à°µà°°
Ġà°ļ à°µ
à°µà°² à°ª
à°Ĥ.. ...
Ġà°ª à°¯à°¨
Ġà°®à°¹ à°°
à°Ĳ à°İ
à°ĸ à°¤
à°°à°® à°¦
à±ģ __
ÂłÂłÂłĠÂłÂł ĠÂłĠÂłĠÂłĠÂłĠÂłĠÂłĠÂłĠÂł
Ġà°ħà°° à°ļ
à°° à°²à°¨
à°¤à°² à°ª
à°¿.. !
à°Ń à°¤
à°° à°«
01 201619
* *
Ġà°ª à°¤à°¨
à±ģ _
à°¨ à°µà°°
à°°à°¸ à°°
à°²à°ķ à°¨
à°Ł à°ªà°°
Ġà°ħ à°°à°ķ
à°ķà°² à°¤
à°¦à°² à°ļ
à°ł à°ķ
à°°à°® à°¬à°¦
à°¿... ...
Ġà°¦ à°Ł
Ġà°° à°¬
à°²à°¨ à°¨
Ġà°« à°£
à°¯ à°µà°²
à°²à°² à°¤
07 20151
ÂłÂłÂłÂłÂłÂłÂłÂłÂłÂłÂłÂłÂłÂłÂłÂłÂłÂłÂłÂłÂłÂłÂłÂłÂłÂłÂłÂłÂłÂłÂłÂł ÂłÂłÂłÂłÂłÂłÂłÂłÂłÂłÂłÂłÂłÂłÂłÂł
Ġà°ķà°¨ à°ķ
Ġà°İà°µà°° à°¨
à°¥ à°²à°¨
Ġà° £
à°¡ à°®à°¨
Ġà°ħà°µ à°¯à°µ
Ġà°Ł à°ķ
à°ª à°¶
Ġà°ľà°°à°Ĺ à°¬
à°ļ à°ª
Ġà°² à°Ĺ
Ġà°İ à°¡à°®
à°ĩ à°¸
à°ļà°° à°°
Ġ201 2
Ġà°ĺà°Łà°¨ à°ª
Ġà°ħà°µ à°²
Ġà°Ĩ à°Ńà°°à°£
à°¾? '
6 2
Ġ201 9
à±ģ- "
à°· à°²à°¨
o n
à°¿ __
Ġà°¶ à°°à°£
Ġà°®à°¨ à°µ
à°ļà°¨ à°Ĺ
ÂłÂłĠ ÂłÂłÂłÂłĠ
à°Ĺ à°¢
Ġà°ħà°¨ à°¸
à°Łà°² à°ª
122017 5
Ġà°ľà°° à°ª
Ġà°Ĵ à°¬
7 20174
Ġà°¤à°¨ à°®
à°µà°¸ à°¨
Ġà°ľ à°¨à°¸
à°ª à°ķà°²
à°¾à°Ĥ :
à°® à°µà°°
à°¬ à°¯à°Ł
Ġà°µ à°¶
8 20174
8 3
Ġà°ļ à°¸
Ġà°Ĩà°¶ à°¯
Ġà°® à°¦à°¨
à°ķà°² à°ª
à°¸ à°¸
ÂłÂłÂłÂłÂłÂłÂłÂł ÂłÂł
7 3
à°Ĭ à°°
o m
9 20151
à°¨ à°¤à°²
Ġà°ļà°¦ à°µ
Ġ4 2
à°Ł à°ķà°²
à±į ...."
Ġà°² à°¨
Ġà°¸à°Ń à°ķ
02 201737
à±ģ. ...."
Ġ' '
Ġà°¶ à°¸
à±ĭ )
à°¨à°® à°¯
ÂłÂłÂł ĠÂł
Ġà°ķ à°°à°£
à°Ī à°¡
à±ĭ.. ...
à°ļ à°ļ
09 20163
1 201
02 201620
Ġà°ħà°µà°¸à°°à°® à°¨
à°ľà°¨ à°²
à°¬ à°¶
à°¶ à°¶
à°ª à°¨à°²
Ġà°ī à°¬
! !
Ġà°ķà°¨ à°¬à°°
Ġà°Ĳ à°ıà°İà°¸
à°ªà°¡ à°ķ
Ġà°¤à°¡ à°¬à°¡
à°® à°²à°¨
Ġà°® à°°à°®
à°ª à°°à°®
à±ĩà°Ĥ .
à°²à°¨ à°Ĺ
04 20174
à°°à°® à°ķ
Ġà°ļ à°®
à°¤à°° à°Ĺà°¤
à°µ à°²à°ķ
ÂłÂłÂłÂłÂłÂłÂłÂłÂłÂłÂłÂł ÂłÂł
à°ī à°ª
ÂłÂłÂłÂłÂłÂłÂłÂł ÂłÂłÂł
Ġà°§ à°°à°ķ
à±Ī .
ÂłÂłĠ čĊ
Ġà°ĩ à°¹
ÂłÂłÂłÂłÂłÂłÂłÂłÂłÂłÂłÂłÂłÂłÂłÂł ÂłÂł
à°Ł à°Ĺà°²
à°°à°Ń à°¦
Ġà°ī à°ªà°°
à°¡ à°¤à°²
à°¬ à°®
Ġ4 00
Ġà°®à°¹ à°®
Ġà°ħ à°·
à°¤ à°°à°®
Ġà°° à°Ĺ
Ġ: -
à°¤ à°®à°¨
à°µà°¨ à°°
Ġà°¤à°² à°®
à°® à°²à°²
Ġà°¤à°¨ à°¯
9 1
à°¾à°Ĥ âĢĻ
Ġà°¤à°² à°¦
Ġà°ļ à°²à°¨
Ġà°Ĵà°ķ à°¦
Ġà°ľà°°à°Ĺ à°ķ
5 20174
à°ķ à°·
à°ª à°ķà°ª
Ġà°ľ à°¤
à°ļ à°¯à°®
Ġà°µ à°°à°¸
à°ı à°²
7 1
à°¦ à°ļ
à°µà°¤ à°ķ
à±ĩ '
à°²à°ķ à°ª
à°µ à°ľà°®
à°¤ à°¹
à°¡ à°ļ
à°¶ à°¤
à°Ĩ à°µ
à°¿" .
à°µ à°Ĺà°²
Ġà°¹ à°¤à°®
Ġ3 4
à°²à°ķ à°°
Ġà°ħà°£ à°ļ
à±Ģ (
) :
à°Ń à°¸
à°¥ à°¤
à±ģ.. !
à°Ĳ à°²
Ġ201 1
6 3
à°²à°¨ à°ķ
à°µà°¨ à°Ĺ
à°°à°® à°µ
à°µà°° à°®
ÂłÂłÂłÂłÂłÂłÂłÂłÂłÂłÂłÂł ÂłÂłÂł
Ġà°ī à°ªà°ķ
Ġà°Ńà°¯ à°ª
03 20159
Ġ4 8
à°Ł à°ļ
à°ĺ à°®
à°® à°ªà°ķ
à°ī à°¦à°¯
à±ģ. )
Ġà°¥ à°°
à°°à°® à°°
à°ķ à°¤à°¨
à°£ à°Ĺ
Ġà°ħ à°Ĺà°°
a n
à°µà°¤ à°²à°ķ
Ġà°ªà°¡ à°¡
à°ĺ à°°
ÂłÂłĠ ÂłÂł
Ġà°¦ à°¸à°°
6 20174
Ġà°ĩ à°¡
à°£ à°¸
Ġà°ħà°ķ à°¸
Ġà°¯ à°§
Ġà°Ĳ à°°
à°®à°¹ à°¬
à±Ģ.. ...
ÂłÂłÂłÂłÂłÂłÂłÂłÂłÂłÂłÂł ÂłÂłÂłÂłÂł
1020174 8
à°£ à°¦
Ġà°® à°²à°¯
Ġà°° à°ļà°¨à°²
Ġà°°à°ķ à°®
à°Ĺà°³ à°Ĺ
à°¸ à°¬
à°¡ à°Łà°®
Ġà°Ĩ à°¸à°°
à°°à°® à°¶
Ġ3 8
Ġà°Ī à°ª
à°ªà°¡ à°¨
Ġà°¸à°¹ à°¨
Ġà°ī à°§
à°ı à°µ
à°§à°¨ à°²à°ķ
8 20151
10 20151
Ġà°Ĭ à°Ĺ
Ġà°Ł à°µà°°
à°Ĩ à°«
à±Ĩà°Ĥ .
ÂłÂłÂłĠ ÂłÂłÂłĠčĊ
Ġà°ħ à°µà°°
Ġà°° à°¥
Ġà°ī à°Ńà°¯
à°¦ à°¤à°¨
Ġ201 8
Ġà°Ĭ à°¡
à°¦ à°İà°¤
Ġà°¨ à°¯à°¨
Ġà°ļ à°¦à°°à°ª
à°ª à°µà°ļ
à°¾à°Ĥ !"
ÂłÂłÂłÂłÂłÂłÂłÂł ÂłÂłÂłÂłÂł
Ġà°¤ à°²à°¤
Ġà°¸à°¹ à°ļà°°
à°¸ à°®à°¯
à°· à°¤à°¨
6 20162
à°¿ /
Ġ| |
à±ĩ ...."
à°§à°¨ à°²à°¨
à±ģ ),
à°µ à°®à°¨
Ġà°¦ à°®
Ġà°° à°¥à°®
à°¯à°¤ à°²à°¨
à°¬ à°ľ
Ġà°¹ à°®
à°Ĩ à°Ĺ
' '
à±ĭ. "
à°° à°Ĺà°¨
à°¨ à°ªà°¤
Ġà°® à°®à°¤
Ġ6 5
4 00
à°¶ à°µà°°
à°¦ à°²à°¤
ĠÂłĠÂłĠÂłĠÂłĠÂłĠÂłĠÂłĠÂłĠÂłĠÂłĠÂłĠÂłĠÂłĠÂłĠÂłĠÂł ĠÂłĠÂłĠÂłĠÂłĠÂłĠÂłĠÂłĠÂłĠÂłĠÂłĠÂłĠÂł
Ġà°ĭ à°¤
à°¤à°¨ à°¨
à°® à°Ń
à°°à°ª à°ķ
Ġà°Ĩà°¦à°° à°£
à°ľ à°Ĺà°¨
à°° à°µà°¡
à±ĭ '
à°ı à°¯
à°¯ à°¦à°¨
à°µà°° à°¨
Ġà°µ à°Ł
r e
Ġà°ħà°µ à°¤
à°¯à°¸ à°Ńà°²
Ġà°ªà°¡ à°²
09 201630
Ġà°Ī à°¦
à°¿. ...."
à°İ à°¦
Ġà°¨à°µ à°²à°²
Ġ s
Ġà°¬ à°ļ
Ġà°ı à°¯
Ġà°§ à°°à°£
à°µ à°ļà°¨
à°¡ à°²à°ķ
à°¦ à°²à°¨
Ġà°ħà°¸ à°Ń
Ġ4 3
à°° à°ķà°°
à°Ł à°ķà°ª
à°Ĩ à°ķ
Ġà°Ĺà°£ à°ªà°¤
9 201746
à°® à°Łà°²
ÂłÂłĠ ÂłÂłÂłĠÂłÂłÂłĠÂłÂłÂłÂłÂłÂłÂłÂłÂłÂłÂłÂłÂłÂłÂłÂł
à°°à°£ à°¨
Ġà°Ľ à°¤
Ġà°ª à°ł
à° Ķ
à°µà°¹ à°£à°²
à°¿ _
à°¦ à°ķà°°à°®
à°¤à°¨ à°®
à°Ĳ à°ķ
6 2015
à°¹ à°¬
5 2015
à°ı à°³
Ġà°ļà°ķ à°ļà°ķ
à°ĩ à°Ĵ
01 2015
à°¶ à°¨à°²
à°ŀ à°¤
à°¡ à°²à°¨
à°Ĩ à°¶
à°ªà°¡ à°¡
Ġà°¨ à°¶
à°Ń à°®à°µ
à°ķà°° à°°
Ġ !"
Ġà°¬ à°¤à°ķ
Ġà°· à°°à°¤
à°ķ à°Łà°°
Ġà°ī à°Ł
Ġà°¤à°² à°¸
à°Ĩ à°ª
à°Ĳ à°İà°¸
Ġ th
à°¡à°Ĺ à°Ł
Ġà°Ĺà°¡ à°ª
à°¬ à°¹
à°µà°¹ à°£à°ķ
à±ģ ;
Ġà°ħà°µ à°§
Ġà°µ à°Ĺ
Ġà°Ń à°°à°¦
à°¡ à°³
à°ļ à°¦à°¨
à±ĩ à±įâĢĮ
Ġà°Ĵ à°¦
Ġà°ī à°ľ
à°Ĳ à°¦
à°µ à°ľà°¨
à±Ĩà°Ĥ ,
à°³à°¨ à°Ĺ
à°· à°µ
à°Ĺà°² à°µ
Ġà°µ à°ª
02 201736
à°¨ à°®à°¨
à°ļà°¨ à°ķ
à°ĺ à°µà°°
ĠÂłÂł ĠÂłĠÂłĠÂłĠÂł
Ġà°¶ à°¤à°ķ
Ġà°¯ à°¸
à°°à°£ à°¬
Ġà°ķ à°§
Ġà°Ĵà°ķ à°¨
Ġà°¦ à°¹à°¨
à°ķ à°¹
Ġ4 4
à°¦ à°®à°¯
Ġà°ıà°¦ à°¯
8 1
à°¿- "
Ġà°ĸ à°¨
à°ļà°¨ à°²à°¨
à°¦ à°µà°ļ
à°ı à°ķ
0820151 4
à°Ĺ à°¶
Ġà°¤à°² à°ļ
6 00
Ġà°İà°¨ à°°
3 20162
ĠÂł Ġ
à°ķà°¡ à°ª
à°§ à°®à°¨
à°ļà°¨ à°¨
à°¡ à°µà°²à°¸
Ġ3 7
6 1
Ġà°¹ à°¦
ÂłÂłÂłĠ ÂłÂłÂłÂłÂłÂłÂłÂłÂłÂłÂłÂłÂłÂłÂłÂłÂłÂłÂłÂłÂłÂłÂłÂłÂłÂłÂłÂłÂłÂłÂłÂł
à°Ĺà°² à°¦
Ġà°ķà°² à°ª
Ġà°Ĩ à°¨à°µ
à°ī à°¹
Ġà°ĩ à°¤à°¡
à°°à°¸ à°µ
à°ĵ à°¹
à°¦à°° à°¦
à°¨à°µ à°¸à°°
Ġ20 09
à°£ à°¹
Ġà°ĵ à°²
à°¥ à°®à°¯
à°§ à°¸
Ġà°Ĵà°ķ à°ļ
Ġ201 0
à°²à°® à°¯
c om
à°° à°µà°²
a l
à°µ à°¤à°¨
Ġà°¶ à°°à°µ
Ġà°¤à°ª à°¸
ww w
0720174 4
02 20158
Ġà°ªà°° à°ļ
0920151 5
à°¯à°ķ à°Ł
Ġ2 50
Ġ5 5
Ġà°İ à°Ĺà°°
Ġ1 000
Ġà°İà°µà°° à°¯
à°°à°¹ à°°
à°² à°ªà°°
à°¥ à°ª
Ġà°ľà°¯ à°¶
Ġà°ħà°¨ à°¬
Ġà°ħà°¡ à°Ĺà°²
à°¾ âĢĻâĢĻ
à°ľ à°¯à°ķ
Ġà°Ĵ à°Ł
à°°à°Ĺ à°¬à°¡
Ġ ......
à°Ł à°¬à°¡
07 20162
i s
à°ĸ à°ª
Ġà°Ĳ à°Ĳà°Ł
à°ļ à°ľ
Ġà°¯à°¨ à°®à°²
Ġà°ľà°¨ à°¤
Ġà°Ĩ à°¯à°ķà°Ł
Ġ3 9
Ġà°ķ à°²à°ķ
à°§ à°¨à°ķ
Ġà°Ĩ à°ļà°°
à±Ģ ..."
Ġà°ļà°¦ à°µà°¡
8 00
ÂłÂł ĠÂłĠÂłĠÂłĠÂł
à°ħ à°Ĺ
à°Ĺ à°µà°°
à°ľà°¨ à°°
Ġà°¹ à°¬
10 00
7 201626
à°¥ à°®à°µ
Ġà°ĩ à°¯à°°
07 2015
à°¾ ......
ÂłÂłĠ ÂłÂłÂłĠÂłÂłÂł
Ġà°Ĩà°ķ à°¸
Ġà°ħà°¸ à°®
à°µ à°§
Ġà°ħ à°ĺ
a m
à°Ĺ à°µà°¤
à°«à°²à°® à°¯
4 201739
à°¤ à°ļ
a r
o r
Ġà°Ī à°Łà°²
à°¹ à°¨à°°
Ġ4 7
à°ķ à°¥
à°ļ à°µà°¦
à°°à°¸ à°¨à°Ĺ
Ġà°Ĩà°¯à°¨ à°ª
à°İ à°¡
à±ģ /
à°° à°³à°²
Ġà°² à°¡
à°°à°¦ à°ķ
ĠĠ Ġ
à°¨ à°°à°¸
Ġà°ķ à°®à°°
Ġà°Ĺ à°Ĺ
à°® à°²à°¤
à°Ĩ à°Ł
à±ĭ ..."
Ġà°ħà°¡ à°Ĺà°¡
à°²à°² à°ª
à°Ĥ ),
à°ľ à°°à°µ
à°¦à°¨ à°¡
à°²à°ª à°ķ
Ġà°ªà°¡ à°µ
Ġ9 9
à°¤ à°ķà°°
Âł Ġ
à°¦à°° à°ķ
à°Ĩ à°¤
Ġ1 20
à°·à°£ à°¨
Ġà°¬à°² à°ªà°¡
à°¡ à°µà°¨
à°¬ à°£
à°İ à°Ł
à°¡à°¡ à°®
à°² à°®à°¨
à°Ĺà°² à°¡
à°µà°° à°¸
à°¯à°Łà°¨ à°ķ
Ġ4 1
à°ľà°¨ à°ķ
Ġà°ĵ à°¬
Ġà°ħà°² à°ľà°¡
à°³ à°²à°¨
Ġà°ķà°² à°Ĺ
-- --
Ġà°¨à°¡ à°ķ
à°¯ à°¤à°°à°Ĺà°¤
Ġà°§ à°¨à°µ
à°Łà°¬ à°¦
Ġà°· à°¬
à°°à°ķ à°¡
à°¯à°µ à°¦
Ġà°Ĳ à°İ
Ġà°ľ à°Ĺà°¤
Ġà°¯ à°µ
Ġà°« à°ķ
à°° à°Ĺà°²
Ġà°īà°ª à°Ĺ
à°Ľ à°Ĺ
Ġà°ľ à°ķ
à°°à°ķ à°®
Ġà°µà°° à°¦à°²
à°İ à°°
Ġà°¦ à°¶à°ķ
Ġà°ĩ à°ľ
Ġ5 2
à°£ à°¶
Ġà°ªà°¦ à°¹
à°®à°¨ à°ķ
e n
à°¯ à°¬à°Ł
à°¸ à°¨à°®
1 50
à°Ł à°µà°ļ
042015 10
Ġà°¸à°¹ à°ľà°®
Ġà°Ĭà°° à°Ł
3 201738
à°Ĺà°² à°°
Ġ20 08
à±Ģ. "
Ġà°ľà°² à°µà°¨à°°
à°¤à°® à°Ĺ
Ġ! !
Ġà°ľà°¯ à°ļ
à°¿ à±į
Ġà°ľ à°²à°ª
à°¦à°° à°²
Ġà°ħà°¤ à°£
à±į (
Ġ4 6
à°Ĵ à°ķà°°
à±Ĥ.. ...
0420162 3
à±Ĩ !
Ġà°İ à°ľ
e s
à°¹ à°¨à°¦
à°Ī à°²
à°µà°¤ à°²à°¨
ĠÂłĠÂł Ġ
à°Ĩ à°¹
8 20162
à°¾ (
à°Łà°µ à°¶
à°°à°¤ à°¤
1120163 3
Ġà°¸ à°¡à°¨
à°¤à°¨ à°²
à°Ĺà°° à°²
à°ļà°¨ à°²à°¤
à°ª à°²à°¨
Ġà°ªà°¡ à°¨
Ġà°īà°ª à°¶à°®à°¨
à°Ĥ âĢĻâĢĻ
Ġà°Ĺ à°¨à°ķ
Ġà°§ à°µà°¨
Ġà°ħ à°²à°ķ
Ġà°¦ à°¨
Ġà°¤à°° à°µ
à°²à°Ĺ à°¡
à°± à°ķ
7 00
à°¥ à°µ
Ġà°İ à°®à°°
08 201630
0620162 5
à°µà°¹ à°°
Ġà°¸à°Ń à°¨
Ġ6 00
ĠÂłĠÂłĠÂł Ġ
Âł ĠÂłÂłÂłÂłĠ
Ġà°ĵ à°¨à°°
à°°à°Ĺ à°Ł
à°° à°·à°¨
Ġà°¸ à°¡à°²
Ġà°ľ à°¯à°ª
Ġà°ı à°ķà°Ĺ
Ġà°ħ à°¹à°²
à°İ à°¯
à°°à°µ à°ķ
à°¾... ?
à°Ĵà°ķ à°µ
Ġà°ª à°ķà°¡
Ġà°¸ à°¤à°®
Ġà°ĵ à°¯
Ġà°®à°¹ à°¦
Ġà°¨ à°¸
Ġà°Ĩ à°Ĺà°²
à°ļà°¨ à°¤
Ġ w
à°¦ à°ªà°²
à°ª à°§
à±Ĩ à±ĸ
Ġà°ħ à°¦à°°à°Ĺ
à°¦à°° à°ªà°¡
à°¦à°¨ à°²à°¨
Ġ4 9
Ġà°Ĩà°Ĺ à°¡
ĠÂłĠÂłĠÂłĠÂłĠÂłĠÂłĠÂłĠÂłĠÂłĠÂłĠÂłĠÂłĠÂłĠÂłĠÂłĠÂł ĠÂłĠÂłĠÂłĠÂłĠÂłĠÂłĠÂłĠÂłĠÂłĠÂłĠÂłĠÂłĠÂłĠÂłĠÂłĠÂł
t i
Ġ âĢĵ
1020163 2
052015 11
Ġ0 5
Ġ1 08
à°¤ à°ªà°²
à°¨ à°ķà°²
à°²à°Ĺ à°ª
à°² à°ªà°¡
à°£ à°®à°¨
à°¨ à°ķà°¨
Ġà°ł à°ķ
ÂłÂłÂł čĊ
Ġà°ıà°® à°µ
à°ħ à°¹
Ġà°ħà°° à°¬
Ġ c
Ġà°Ń à°°à°£
Ġà°¹ à°ľ
Ġà°¨ à°µà°¨
à°¿) ,
Ġà°ħà°µ à°¡
à°°à°¹ à°®
Ġà°ľ à°¯à°¦
à°ķà°° à°®à°¨
4 2015
à°¨ à°ªà°²
à°Łà°¡ à°®
à°Ĺ à°¬à°¡
Ġà°ķà°² à°Ĺà°²
à±ĩ.. !
01 201736
2 201620
11 201516
Ġ b
à°° à°²à°¤
à°¯à°ķ à°®
Ġà°¸ à°«
Ġ20 04
2 20158
à±Ī ..
à°¶ à°Ńà°ķ
à°®à°¨ à°°
Ġà°ħà°µ à°¤à°°
à±ģ! !
o u
à°¤ à°¬à°¡
à±ģ à°ģ
à°ļ à°Łà°®
Ġ" ....
à°¯à°¨ à°®
à°ľà°¨ à°®
Ġà°¶ à°¬à°°
à°¨à°® à°¸
à°¿. -
Ġà°Ĩ à°·
à°Ĳ à°ı
à°¨à°ķà°° à°¨
à°¾) :
Ġà°ķ à°¥à°ķ
Ġà°Ĩà°¶ à°¤
ĠĠĠĠĠĠĠĠ ĠĠĠĠĠĠĠĠ
à°¤ à°°à°ķ
Ġà°¦à°¯ à°ļ
Ġà°® à°¸à°ķ
à°Ĳ à°Ĩà°°
à°° à°¯à°²
Ġà°ķà°¦ à°²à°ķ
ÂłÂłĠÂłÂłÂłĠ ÂłÂłÂłÂłÂłÂłÂłÂłÂłÂłÂłÂłÂłÂłÂłÂł
à°°à°¸à°° à°«à°°
Ġ5 6
Ġà°¤à°ª à°¨
à°¿.. ?
Ġà°Ł à°ļ
à°Ł à°ľ
à°ª à°µà°°
à°¿! !
Ġ à±į
à°ªà°¡ à°²
à°¯à°µ à°¤
ÂłÂłÂłĠÂłÂł ĠÂłĠÂłĠÂłĠÂłĠÂłĠÂłĠÂłĠÂłĠÂłĠÂłĠÂłĠÂł
Ġà°°à°ľ à°¤
à°°à°® à°²à°ķ
Ġà°· à°Ł
Ġà°ĸ à°ľ
Ġ5 8
ÂłÂłÂł ĠÂłčĊ
9 201630
à°² à°¶
Ġà°« à°°à°µ
Ġà°¤à°® à°¦
Ġà°® à°¦à°°
à°¨ à°²à°¨
03 201737
à±Ĥ ..."
Ġà°§à°° à°²à°¨
à°¬ à°²à°ķ
Ġà°Ĩà°¶ à°Ĺ
à°¸à°¨à°¸ à°Ńà°²
Ġà°Ķ à°¨
Ġà°ħ à°°à°£
0520162 4
Ġ8 5
7 2015
Ġ `
Ġà°¦ à°¬
à°¯à°¸ à°®
à°¤à°µ à°®
à°° à°ĺ
ÂłÂłĠ ÂłÂłÂłĠÂłÂłÂłĠ
Ġà°ķ à°¡à°¤
Ġà°ľ à°µà°¹à°°
à°¤ à°ªà°°
Ġà°® à°¬
à°¶ à°¦
Ġ5 1
Ġà°ª à°Ĺà°Ł
à°¥ à°¸
Ġ20 07
Ġà°ħà°° à°Ł
à°²à°µ à°ķ
Ġà°ı à°¦à°¨
à°¾.. !
à°¡à°µ à°¦
ÂłÂłĠÂłÂłÂł ĠÂłčĊ
à°¾! '
à°µà°¨ à°®
à°Ĥ ..."
à°ķ à°®à°¨
à°ı à°°
Ġà°µà°° à°¦à°°
Ġà°¬ à°¬
à°¨à°¦ à°®
à°¸à°® à°¸
à°°à°¸ à°¨à°²
à°ı à°Ł
Ġ20 00
à°¹ à°¤à°²
Ġà°ķà°² à°µà°¡
Ġà°ľà°Ĺ à°ªà°¤
Ġà°İà°¨ à°²
Ġà°ªà°¦ à°®
Ġ ...."
à°³ à°ľ
à°ł à°®
Ġà°Ĩà°Ĺ à°ķ
Ġà°ħà°¸ à°®à°°
Ġà°İ à°Ĺà°µ
à°Ń à°ªà°¡
Ġà°Ł à°ª
| |
Ġ A
à°µ à°¦à°°
à°µà°° à°¤
Ġà°ľà°° à°Ĺà°¦
à°ľ à°¬
à°Ń à°µà°¤
Ġà°§ à°°à°¨
à±Ĥ. "
Ġà°ľ à°¹
à°¨ à°Ń
à°¬ à°¡à°²
à°¹ à°ª
à±Ģ /
à°ľ à°¯à°°
à°ķà°¨ à°ª
Ġà°¨à°¡ à°µà°¡
Ġà°ı à°İà°¸
Ġà°ĩ à°ķà°¨
à°Ĩ à°ªà°°
à°¹à°¦ à°ªà°¡
à°¯à°ķà°° à°®
à°· à°²à°¤
à°Ĵ à°ķà°Ł
Ġà°®à°¨ à°¨
Ġà°®à°¨ à°µà°¡
à°ĵ à°¸
Ġ m
à°Ĩ à°§
à°ªà°¡ à°®
Ġ p
0820174 5
à°µ à°¯à°¸
à°² à°¦à°¨
à°ļ à°¦à°Ĺ
à°« à°¸
à°¨ à°°à°ķ
à°Łà°ķ à°®
Ġà°· à°®
à±ĭ ...."
à°¨à°ª à°¦
Ġà°ķà°³ à°ķ
à°Ĺ à°²à°ķ
à°¤à°® à°°
à°°à°¦ à°®
à°¯à°® à°ķ
Ġth e
à°Łà°ªà°¡ à°¤
à°¨ à°¶
à°°à°¤ à°°
Ġ ÂłÂłÂłÂłÂłÂłÂłÂłÂłÂłÂłÂłÂłÂłÂłÂłÂłÂł
à°¡à°µ à°Ĺ
à°ª à°¤à°¨
Ġà°¤ à°³
Ġ12 5
à°¨ à°ªà°°
à°ª à°¦à°²
à°¦à°¨ à°Ĺ
à°ļà°¨ à°²à°ķ
à°ĩ à°·
à°¯à°¨ à°Ł
Ġ7 2
à°ĵ à°ķ
Ġà°Ĩà°ļ à°°à°£à°²
Ġà°ľ à°¯à°°
à±Ĥ '
à°ī à°²
Ġà°¦ à°¦
à°¨à°ª à°¨
2 201736
Ġà°¦ à°¹
9 00
Ġà°ª à°¥
à°Ĭ à°¹
i l
à°· à°¤à°Ĺ
ÂłÂłĠ ÂłÂłÂłĠÂłÂłÂłĠÂłÂłÂłÂłÂłÂłÂłÂłÂłÂłÂłÂłÂłÂłÂłÂłÂłÂłÂłÂłÂłÂłÂłÂłÂłÂłÂłÂłÂłÂłÂłÂł
Ġ h
Ġà°¦ à°¸
Ġà°ī à°¯
à°°à°ľ à°¨
0820162 9
à°¾ à°ĥ
à°² à°µà°¨
à±ĩ ......
à°°à°ķ à°¨
Ġ t
Ġà°Ĵà°ķ à°³
Ġà°Ĳ à°ľ
à°Ł à°®à°¯
à°ħ à°¶
Ġà°ķà°² à°¯
à±į ......
à°¦à°¨ à°¤
Ġ6 4
à°Ń à°Ĺ
Ġà°¤à°® à°ª
à°¯à°Ł à°®
à°¿ ;
Ġà°µà°° à°²à°ķ
à°ı à°®à°¨
à°Ńà°µ à°®
à°Ĺà°° à°¨
Ġà°Ĩà°¶ à°ªà°¡
Ġ8 00
Ġà°Ĩ à°¬
à°µà°¸ à°°à°®
Ġà°¤à°Ł à°ªà°Ł
Ġà°®à°Ĺ à°ª
à°Ĩ à°¯
à°Ĳ à°İà°²
1 201619
à°¾ âĢĮ
à±ĩ )
à°°à°µ à°®
Ġà°¨à°¡ à°µ
Ġ6 3
à°°à°® à°®
Ġà°µ à°²à°²
Ġ5 4
Ġ âĢĻ
à°· à°¦
Ġà°ľà°¨ à°Ĺ
à°¾.. ..."
à°¸ à°¦
Ġà°ı à°ķà°ªà°ķ
à°ļà°Ĺà°² à°°
à°¸ à°²à°ķ
à±Ģ ...."
a s
à°¤ à°Ń
Ġà°Ĩ à°³
Ġà°Ĳ à°µ
Ġà°ı à°Ĳà°¸
à°Ĩ à°¡
à°¦à°² à°Ĺ
à°ī à°®
à°ı à°¬
à°¥ à°²à°¤
à°ĸ à°²à°ķ
à°ł à°¨
2 50
Ġà°ħà°¨ à°Ł
à°°à°£ à°®à°µ
Ġà°īà°ª à°¦
Ġà°ĩà°¤ à°°à°¤
à°Ł à°Ĺà°Ł
Ġà°Ń à°¸
Ġà°ıà°¡ à°µ
Ġ9 5
.... ....
à°ĩ à°°
à°¨ à°·
à°ķà°¡ à°²
à°¤ à°¬à°¸
Ġà°ĵ à°·à°§
Ġ5 3
Ġà°µà°¨ à°ľ
à°ļ à°¤
Ġà°ħà°µà°¸à°°à°® à°¯
Ġà°ĩ à°¯
Ġà°ªà°° à°¶
Ġà°¤à°² à°ªà°¡
Ġà°Ĩ à°¨à°ķ
à°§ à°¨à°®
Ġà°¹ à°¡à°²
à°¸ à°«
à°Ī à°Ī
à°¨ à°ľ
à°ı à°®à°¯
à°¯à°Ĺà°² à°°
à°ĸ à°²à°¨
105 20162
à°¤ à°¥
062015 12
0720151 3
2 201737
à°² à°Łà°°
Ġà°µ à°¡à°¦
à°§ à°¨à°¨
Ġà°ħà°ª à°¹à°°
à±Ģ ),
à°¨à°µ à°ļ
à°²à°® à°§
ÂłÂłĠÂłÂłÂłĠ ÂłÂłÂłÂłÂłÂłÂłÂłÂłÂłÂłÂłÂłÂłÂłÂłÂłÂłÂłÂłÂłÂłÂłÂłÂłÂłÂłÂłÂłÂłÂłÂł
Ġà°Ĺ à°ļ
à°¿ à°ĥ
à°Ĳ à°ľ
à°¡à°Ĺ à°¡
à°µà°° à°¯
Ġ5 7
Ġà°° à°«
à°Ĵ à°ķà°¸
à°¯à°Ĺ à°²à°¨
108 20174
à°¦ à°ľà°²
à°§ à°°à°£
à°ļà°Ł à°Ĺ
________ ________
à°¨à°¤ à°¸
Ġà°¬ à°Łà°¨
âĢĻ ,
Ġà°µà°° à°ª
à°µ à°¶à°ķ
à°¬ à°µà°³
Ġà°¯ à°¦
Ġà°īà°¦ à°¯à°®
Ġà°ªà°° à°ªà°¤
à°Ĳ à°µ
à°°à°µ à°¨
Ġà°¬ à°²à°°
à°ª à°µà°²à°¸
am p
Ġ6 7
à±į âĢ
à°¤ à°Ĺà°¤
à°Łà°® à°µ
à°¯ à°¤à°ķ
à°ª à°³
Ġà°Ĩà°¸ à°¨
à±ģ.. ?
Ġà°ķà°³à°ķ à°³à°²
Ġà°Ł à°®
à°° à°ķà°°à°£
à±ģ. '
à°Ĺà°® à°£
à°¶ à°¸
à°¸ à°°à°®
Ġà°Ĺ à°µ
Ġà°ī à°µ
à°¾à°Ĥ ?"
à°ļà°° à°²
Ġà°Ĳ à°«
Ġà°ĩ à°Łà°²
Ġà°Ĺ à°²à°µ
Ġà°ħ à°²à°²
à°¶ à°ķà°¨
à°¶ à°¨à°ķ
Ġ1 500
à°ĵ à°°
Ġà°ķà°¨ à°¬à°¡à°²
à°³ à°®à°¨
110 20174
Ġà°ħà°¡ à°Ĺà°Ł
Ġà°īà°ª à°ķà°°
Ġà°ĸ à°²
à°¯à°¤ à°Ĺ
Ġ6 6
à°ķà°°à°£ à°ª
à±įâĢĮâĢĻ ,
à±įâĢĮâĢĻ .
Ġà°¤ à°®à°°
à°Ĥ ...."
Ġà°¸à°® à°¯à°®
à°¾? âĢĻ
à°¶à°¨ à°®à°¨
à°¥ à°¤à°ķ
à°¯à°£ à°Ĺ
Ġà°ªà°¡ à°ķà°²
à°·à°£ à°Ĺ
à°°à°µ à°£
Ġà°°à°®à°£ à°®
Ġà°Ĩà°Ł à°µ
à°· à°ľ
à°¾à°Ĥ ?
0420162 30
à±Ĥ )
à°Ń à°Ĺà°µ
Ġà°ļà°¦ à°µà°Ł
à°¦ à°¯à°®
à°¨ à°³
à°¯à°Ĺà°² à°¡
Ġ T
à±ģ. ......
Ġà°ľ à°¯à°¸
Ġà°¨à°¯à°¨ à°¤
à°Ĺ à°ªà°Ł
à°°à°® à°ªà°¡
à°ķà°² à°µ
à°ľà°¯ à°²à°ķ
Ġà° ³
Ġà°¸à°® à°¤
Ġ20 06
à°ªà°£ à°²à°ª
Ġà°ľà°² à°¦à°°
à°£ à°°
Ġà°µ à°¡à°Ĺ
à°ªà°£ à°²à°¨
à°Ĺ à°Ńà°¦
Ġà°Ĺà°¡ à°ļ
112 20151
à°ľ à°®à°¨
à°³ à°²à°ª
Ġà°² à°µà°°
à°¨ à°ķà°ª
à±ģ. -
Ġà°Ĳ à°¨
Ġà°Ĩ à°®à°¨
à°¨à°ķ à°¬à°¡
à°¾! ?
à°¦à°µ à°¶
à°¯ à°ħà°¤
à°°à°µ à°§
Ġ of
Ġ20 05
à°ļà°² à°µ
à°¤ à°µà°°
Ġà°® à°®à°ķ
Ġà°¦ à°²
à°¥ à°Ĺ
Ġà°Ī à°Ł
à°Ī à°°
Ġà°µ à°²à°¯
Ġà°Ĳ à°°à°¨
Ġà°İà°¦ à°Ĺ
Ġ5 9
Ġà°¬à°² à°ªà°°
107 20174
à°¯à°¬ à°¦
Ġà°¨à°°à°¸ à°°
à±įâĢ İ
Ġà° Ĥ
Ġà°İ à°Ĺà°¤
à°²à°ķ à°¡à°Ĺ
Ġà°¸à°µà°° à°£à°²
à°Ł à°¹
à°ļ à°²à°ķ
Ġà°ªà°° à°µà°¶
Ġà°ĵ à°µ
à°°à°ľ à°²à°¤
à°ħ à°ľ
Ġà°Ĭà°¹ à°²
Ġà°¤à°® à°¤
Ġ7 4
- "
Ġà°ī à°¹
à°ķà°¡ à°®
à°²à°¤ à°²
Ġ9 8
Ġà°ħà°¨ à°§
Ġ f
à°¾ __
Ġà°ª à°³à°¨
Ġà°ľ à°¨à°¨
Ġà°¸à°¹ à°¸
à°ķà°°à°£ à°¨
à°¤ à°¸à°°
Ġà°Ī à°¤
à°ħ à°ĸ
à°²à°µ à°¦
Ġà°® à°Ń
à°ķ à°®à°²
Ġà°¨ à°¤
Ġà°° à°¤à°¨
Ġà°Ĩ à°¨à°²
112 2017
Ġà°¦ à°«
à°¯à°¤ à°¤
à°°à°¹ à°¸
Ġà°ħà°¸ à°¤
à°¥ à°¨à°²
à°°à°¨ à°Ĺà°°
à°¾ à°ģ
à°ļ à°ªà°°
à°¡à°² à°®
à°·à°£ à°¤
Ġà°īà°ª à°®
Ġ6 2
0420162 34
à°³ à°¹à°¸
à°¹ à°¶
Ġà°ªà°° à°®à°¹
à°¯à°£ à°®
à°ķ à°¤à°²
Ġà°Ĺ à°³
Ġà°µà°ļ à°¨
à°ļà°Ĺ à°²à°¨
111 20174
Ġà°Ĩ à°ªà°¦
Ġà°ķà°² à°Ĺà°ķ
Ġà°ħà°¡ à°ķ
108 20151
à°¶ à°ªà°°
à°°à°£ à°®à°¯
à°ľ à°¯à°¨
Ġà°Ĩà°¯à°¨ à°²
à°°à°¹ à°£
à°ľà°® à°¹
Ġà°Ĵà°ķ à°®
Ġà°ħà°® à°²à°µ
Ġà°Ĩ à°µà°²
Ġà°İ à°¬
Ġà°Ĳ à°²à°¯
105 20174
à°¦à°° à°¯
à°¢ à°®
Ġà°Ķ à°Łà°°
à°§ à°µà°¨
à°¡ à°¨à°Ł
à°¯à°¨ à°ķ
à°İ à°Ĺ
à°ļà°Ĺà°² à°¦
1 201735
i t
l o
à°¯à°¸ à°¨
à°ļà°Ĺà°² à°¡
.. !
à±Ī -
Ġà°¦à°¶ à°°à°¥
à°¸ à°İ
à°Ĺà°° à°µ
Ġà°ħà°µà°ķ à°¤à°µ
à°ĸà°° à°°
à°°à°¤ à°ª
Ġà°ªà°¡ à°µà°²
à°¾? ...
Ġ3 50
i c
à°Ł à°Ĺà°¦
Ġà°¡ à°²
à°°à°ķ à°ª
Ġà°§à°° à°²à°ķ
à°ī à°Ĺ
Ġà°ķ à°°à°µ
Ġà°Ĩ à°ªà°²
à°Ĩ à°¡à°ª
à°°à°µ à°ļ
in g
à°¡ à°ªà°²
02 20162
.. ..."
à°¡ à°¬à°Ł
Ġà°ħà°µ à°Ł
0620174 3
Ġà°ı à°ķà°ķ
Ġà°Ĳ à°²
) .
à°¡ à°µà°ķ
Ġà°ªà°° à°ķ
à±ģ? '
Ġà°ĺà°Łà°¨ à°ķ
à°ķà°Ł à°°à°®à°£
à°ĵ à°µà°°
Ġà°Ķ à°¤
à°°à°® à°Ĺ
à°¨à°ķ à°®
à°ł à°¸
à°¹ à°µ
ÂłÂłÂłĠÂłÂł ĠÂłĠÂłĠÂłĠÂłĠÂłĠÂłĠÂłĠÂłĠÂłĠÂłĠÂłĠÂłĠÂłĠÂłĠÂłĠÂł
à°ĺ à°µà°¯
99 9
a t
à°¸ à°®à°¨
Ġà°Ĩ à°²à°ķ
à°ªà°Ł à°²
Ġà°ħà°Ń à°¯
à°¡ à°²à°¤
Ġà°Ĩ à°²à°ª
à±Ī âĢĻ
à°§ à°¨à°°
Ġ6 9
à°Ĵ à°ķà°ª
Ġà°ķà°¨à°¬à°¡ à°Ł
à°¤ à°¦à°¨
7 50
à°¶ à°°à°¤
Ġà°ķà°³ à°²
à°ªà°Ĺ à°²à°¨
Ġ d
201 4
à°¦à°° à°¨
à°Ł à°²à°²
à°ľ à°¯à°®
Ġà°Ĭ à°¬
02 2015
à°¦ à°Ń
à°£ à°Ń
Ġ1 30
Ġà°ª à°ķà°ªà°ķ
Ġ8 6
à°°à°ķ à°¦
à°ł à°²
à°¿? '
20162 7
à°¡à°¤ à°¡
à°§ à°µà°²
à°Ľ à°¤
Ġà°Ńà°Ĺ à°µà°¤
Ġà°¬ à°³
à°°à°¤ à°®
à°¾.... ?
à°¾- "
à°ģ "
Ġà°¨ à°³
à°£ à°ļ
à°¦à°¨ à°ª
à°° à°¦à°¨
à°¦ à°Ĺà°¤
Ġà°¸ à°¡
à°Łà°° à°¨
à°¦à°Ł à°Ĺ
à°ªà°Ĺà°² à°°
à°Ĥ /
à°¸ à°ļ
à°®à°² à°®
à°¸ à°°à°¸
Ġà°¨ à°ª
ÂłÂłÂłĠ ÂłÂłÂłÂłÂłÂł
à°µà°¨ à°ķ
Ġà°®à°§ à°¨
105 2015
à°Ĺ à°Ń
Ġà°¤ à°¸
Ġ* **
à±ĩ.. ..."
Ġà°ı à°İ
à°°à°³ à°¯
à°¶ à°¨à°Ĺ
à°ħ à°ļ
à±ĩ âĢĻâĢĻ
Ġà°® à°ł
à°Łà°² à°µ
ÂłÂłÂłĠÂłÂłÂłĠÂłÂł ĠÂłĠÂłĠÂłĠÂłĠÂłĠÂłĠÂłĠÂł
Ġ o
Ġ www
Ġà°¤à°® à°µ
Ġ6 8
à°Ł à°ķà°°
Ġà°µà°°à°¸ à°Ĺ
3 50
à°¶ à°²à°ķ
à°¯à°¨ à°¨
à°¯à°£ à°ª
à°¦ à°¶à°²
Ġà°Ł à°µà°²
Ġ__ "
à°¤à°ķ à°®
à°°à°ľ à°²à°ª
Ġà°ħà°Ĺ à°¸
ÂłÂłÂłĠÂłÂłÂłĠ ÂłÂłÂłĠÂłÂłÂłĠ
920151 5
à°Ĥ ......
à°ļ à°¨à°Ł
à°İ à°µà°¡
à°ĩ à°¤à°°
à°ªà°¦ à°®
à°® à°°à°ķ
Ġà°¨ à°ľ
Ġà°¤ à°¦à°¨
à±į.. ..."
e d
Ġ ..."
à°¸ à°Ĳ
à°µ à°ªà°¡
âĢĻ .
Ġà°ħà°¸ à°¦
à±ģ! '
Ġà°®à°¨ à°¶
à°ĩ à°µà°¨
Ġà°īà°ª à°µ
à°ļà°Ĺà°² à°µ
1201 1
âĢĮ ,
Ġà°¡ à°¯à°²
Ġà°¸ à°¶
à°¤à°ķ à°¬
Ġ7 00
à°· à°®à°¯
à°¨à°° à°²
Ġ20 02
109 20151
à°¦ à°Ĺà°²
Ġà°ī à°Ń
à°µ à°¯à°®
Ġà°ľà°° à°ªà°¡
Ġ7 8
110 201516
à°³ à°°
à°ĩ à°¤à°¨
à°¿. '
1120174 8
Ġà°ľà°° à°Ĺà°Ł
à° ĭ
à°¤ à°ªà°¨
à°®à°¨ à°®
à°°à°¬ à°²
ÂłÂłÂłĠÂłÂłÂłĠÂłÂł ĠÂłĠÂłĠÂłĠÂłĠÂłĠÂłĠÂłĠÂłĠÂłĠÂłĠÂłĠÂł
Ġà°¸à°¤à°® à°¤à°®à°µ
à°Ń à°°à°¤
Ġà°Ĩà°° à°µ
Ġà°ªà°¡ à°¦
1020151 58
à°¹ à°Ł
à°ħ à°¬à°¦
à°Ĺà°° à°¯
1020151 59
0920151 49
à°µ à°¤à°°
à°Ĺ à°ķà°ª
à°¿âĢĻ .
Ġ à±¦
à°¨ à°²à°¤
Ġà°Ń à°¨
Ġà°¶ à°²à°µ
à±įâĢĮâĢĻ âĢĻ
à±Ĥ ...."
à±Ī à±ĸ
à°ľà°¨ à°¤
à°ĥ "
Ġt o
3 201737
à°ľ à°¤
Ġà°ķà°² à°¹
à°ĩ à°°à°µ
à°²à°µ à°Ł
à°µà°ķ à°®
Ġ20 20
à°µ à°ªà°¤
à°Ĺ à°§
Ġ9 6
Ġà°Ńà°Ĺ à°µà°¦
Ġà°¹ à°«
12 104
à°¾? âĢĻâĢĻ
0920151 56
r a
à°¦ à°¹
à°¸ à°¡
Ġà°¸ à°ĸ
Ġ /
à°£ à°¯à°®
à°Ĩ à°Ĺà°¸
Ġà°ķà°² à°Ĺà°¡
Ġ8 4
Ġà°ª à°®
Ġ1 10
Ġà°² à°·
à°®à°ķ à°¥
Ġ6 1
__ _
à°Ĩà°¯à°¨ à°ķ
ĉ ÂłčĊ
à°¨ à°Ĺà°²
à°Łà°¨ à°°
Ġà°¤à°² à°ªà°¡à°¨
à°Ī à°¨
106 20162
à°¡ à°ķà°²
ÂłÂłÂł ĠÂłĠÂłĠÂłĠÂłĠÂłĠÂłĠÂłĠÂłĠÂłĠÂłĠÂłĠÂł
Ġà°· à°ķ
110 20163
Ġà°Ĩà°ļ à°°à°£
à°§ à°°à°®
à°£ à°ªà°¤
11 201
Ġà°Ĺ à°Ĺà°¨
à°ķà°° à°¨
à°µà°¨ à°¨
à°² à°ªà°Ł
Ġà°Ĵà°ķ à°¤à°¨
à±ģ... ..."
Ġà°ĺ à°¨à°µ
Ġà°¯à°¶ à°¸
à°Łà°² à°¯
à°Ĳ à°¨
à°¿âĢĻ ,
à°¾... ?"
103 20162
Ġ.. ..."
Ġà°Ĺ à°ª
Ġ1 200
à°¬à°° à°ªà°¡
Ġà°Ĩà°¡ à°¡
Ġà°µà°² à°¸à°²
Ġ20 03
à°ī à°¸
à°Ń à°Ł
Ġà°Ĩà°ª à°¦à°²
à°¦à°¨ à°°
Ġà°®à°¨ à°µà°°
01 20158
à°½ à°¥
Ġà°® à°µ
à°·à°¨ à°ķ
Ġ8 9
Ġà°İà°Ĺ à°¬
Ġà°¸à°¬ à°¬
ÂłÂłÂłĠÂłÂł ĠÂłĠÂłĠÂłĠÂł
à°¨ à°¤à°®
à°¯ à°¹
à°Ń à°ª
à±ģâĢĻ ,
820162 9
l e
Ġà°ľ à°°à°ķ
à°Ĳ à°Ĳ
4 20174
Ġà°ª à°¹
à°¦à°° à°£
Ġà°Ĩ à°µà°¹
Ġà°Ĭ à°¸
Ġà°¨à°¡ à°ª
Ġà°Ĩà°¡ à°¬
111 20163
Ġà°¤ à°¹à°¤
Ġà°ķà°Ł à°ķà°Ł
Ġ7 3
à°ħà°µ à°¸à°°
ÂłÂłÂłÂłÂłÂłÂłÂłÂłÂłÂłÂłÂłÂłÂłÂłÂłÂłÂłÂłÂłÂłÂłÂłÂłÂłÂłÂłÂłÂłÂłÂłÂłÂłÂłÂłÂłÂłÂłÂłÂłÂłÂłÂłÂłÂłÂłÂłÂłÂłÂłÂłÂłÂłÂłÂłÂłÂłÂłÂłÂłÂłÂłÂł ÂłÂłÂłÂłÂłÂłÂłÂłÂłÂłÂłÂłÂłÂłÂłÂłÂłÂłÂłÂłÂłÂłÂłÂłÂłÂłÂłÂłÂłÂłÂłÂł
1201 2
t t
à°¸ à°²à°°
à°ķà°ª à°²
à°¤ à°²à°²
à°ļ à°İ
à°¨à°µ à°¸
à°°à°Ĺ à°ķ
à°¾à°Ĥ ....
à°ĸ à°¦
à°ı à°¨
101 201735
Ġà°ķ à°µà°ļ
à°¡ à°ķà°Ł
Ġà°İà°Ĺ à°¬à°¡
Ġà°ķà°²à°ķ à°¤
à°Ł à°¨à°Ł
112 201634
à°¨ à°µà°²
2016 35
Ġà°İà°ķ à°¨
ÂłÂłÂłÂł ĠčĊ
Ġà°¬à°¹ à°¦
à°· à°ªà°¡
à°°à°µ à°¤
à°ĵ à°ª
106 20174
à°³ à°¨à°¨
Ġà°ħà°² à°¸à°Ł
à°¬ à°µ
à°²à°ķ à°µà°°
à°ķ à°Ń
à°Ł à°¤à°ķ
ÂłÂłÂł ĠÂłĠÂłĠÂłĠÂłĠÂłĠÂłĠÂłĠÂł
à°¹ à°£
Ġà°¹ à°¸à°¨
à°¨à°® à°µ
à°ľà°¯ à°¶
à°¶ à°²à°¨
Ġà°ĵ à°¨
Ġ8 3
Ġà°¬à°¤ à°ķà°¡
à±Ī ...
20 00
à°¯à°Ĺà°² à°µ
Ġà°ķ à°¯
Ġà°Ĵ à°µ
à°¹ à°ł
Ġà°¯ à°ķ
à°Ľ à°®
à°ĺà°Łà°¨ à°¤
à±ĭ! !
Ġà°Ķ à°°
Ġà°¨à°Ĺà°° à°µ
Ġ16 0
Ġà°ķà°²à°µà°° à°ªà°¡
520162 36
Ġà°ļ à°²à°®à°¯
Ġà°ĵ à°¹
à°ĩ à°ļ
Ġ- -
Ġà°µà°¦ à°²à°ķ
Ġà°¨à°¡ à°µà°¸
Ġà°Ńà°¯à°ªà°¡ à°ķ
09 20174
Ġà°ķà°¥ à°¤
0320162 2
Ġ S
à°µà°° à°ª
à°°à°® à°£à°²
à°³à°¨ à°¤
à°ī à°°
012015 7
Ġà°¶ à°°à°¦
Ġà°Ī à°®à°§
à°ħ à°«
à±į- "
Ġà°Ĺà°ľ à°ªà°¤
à°²à°µ à°Ĺ
1120163 34
Ġà°ķà°² à°¦
Ġà°¨à°¡ à°ªà°¡
Ġ20 01
à°¦ à°ķà°ª
Ġà°² à°¯
Ġà°¤à°Ĺ à°¦à°¨
Ġà°ħà°µà°ķà°¤à°µ à°ķà°²
à°Ł à°¤à°¡
à°¸ à°²à°¨
Ġà°¤ à°°à°¤à°°
à°¿. )
Ġà°¦ à°¯à°¨
Ġà°ħà°ª à°ķ
Ġà°¤à°® à°²
Ġa nd
Ġà°¦ à°¡
Ġà°ħà°¨ à°¨
à°°à°¤ à°Ĺ
Ġà°Ĳ à°Ĩà°°
Ġà°¤à°Ĺà°² à°¡
à°µ à°®à°°
à°ħ à°µà°¨
à°ķà°Ł à°¯
Ġà°Ĩà°¡ à°ªà°¡
à°Ńà°ľà°¨ à°ķ
à°¨ à°ļà°°
à°ķ à°Ĺà°¦
Ġà°¡ à°ķ
Ġ9 2
à±ĩ- "
à°Ķ à°¨
7 20151
Ġà°¬ à°¦à°²
à°°à°¸ à°ªà°¡
Ġà°ħà°§ à°°
Ġà°ħà°¡ à°ª
Ġà°Ĳ à°¤
à°ªà°¦ à°µ
à°¾.... ?"
à°ķ à°ļà°ķ
à°²à°ķ à°Ł
à°°à°µ à°Ĺ
à°ĵ à°Ł
à°ĺà°Łà°¨ à°ķ
à°§à°ªà°¡ à°¤
à°¯ à°¦à°²
à±Ĥ âĢĻ
à°¦à°¨ à°®
50 9
9 20163
à°¥ à°¯
1120163 39
Ġà°ķà°²à°µà°° à°ª
1201 0
e l
à°¿. ......
à°¶ à°°à°¥
Ġ7 6
Ġ12 3
1120163 30
1120163 37
r o
à°« à°£
à°¯à°Ĺà°² à°¦
1120163 38
à°¾ ),
à°Ĺ à°¤à°®
à°Ī à°Ĩà°°
à±Ģ ......
Ġà°Ī à°¯
à°¦à°² à°ª
à°²à°¬ à°¸
820174 5
s t
à° Ļ
Ġà°ı à°Ń
12 20163
à°¾? :
Ġà°ªà°²à°ķ à°²
à°¡ à°°à°¨
à°¡ à°°à°²
Ġà°Ĩà°µ à°¶
Ġà°°à°µ à°³
m a
Ġ M
Ġà°ķ à°¬à°¡
Ġà°ľ à°¯à°ķ
à°¤à°° à°¹
à°¯à°ª à°°à°®
8 201630
à±Ĩ ...
Ġà°µ à°¨à°¸
Ġ7 7
Ġà°ª à°§
ÂłÂłÂłĠ ÂłÂłÂłÂłÂłÂłÂłÂłÂłÂłÂłÂłÂłÂłÂłÂłÂłÂłÂłÂłÂłÂłÂłÂłÂłÂłÂłÂłÂłÂłÂłÂłÂłÂłÂłÂłÂłÂłÂłÂłÂłÂłÂłÂłÂłÂłÂłÂł
Ġ- "
Ġà°®à°² à°ļ
520162 4
à±ĭ ......
à°Ĺ à°ªà°¡à°¤
à°¬ à°Ĺ
Ġà°¬ à°·
Ġà°®à°° à°¦à°²
à°¦à°² à°®
Ġ8 7
Ġ7 9
Ġà°ķà°¦à°² à°¡
072015 127
à°¤ à°ªà°Ł
à°Ł à°ªà°²
à°¬ à°¬
Ġ7 1
Ġà°ľà°°à°Ĺ à°ķà°ª
0720151 34
à°§ à°²à°¨
Ġ9 7
à°²à°¨ à°ª
Ġà°ı à°ļ
Ġà°ħà°¤ à°Ĺ
Ġà°¬à°² à°µà°¨
à°ĺà°Łà°¨ à°¨
Ġ in
Ġà°Ń à°³
Ġà°İà°² à°°
à°°à°Ĺ à°¬
à°ĺà°Łà°¨ à°ª
1020163 27
620174 2
à°² à°µà°°à°ķ
âĢĮ :
à°¥ à°²à°ª
ÂłÂłÂłĠ ÂłÂłÂłÂłÂłÂłÂł
Ġà°Ĩà°° à°¬
12 201
à°µà°¨ à°²
à°Ĺà°® à°§
1120151 76
062015 117
Ġà°ļ à°®à°¤
à°°à°® à°²à°¨
Ġà°¯ à°Ĺ
Ġà°ı à°ķà°®
à°ĸ à°ªà°¡
à°·à°£ à°°
à°µ à°ªà°°
à°¯à°® à°Ĺ
à°ļà°¨ à°®
0820151 38
420162 3
à°Ĺ à°µà°²
Ġà°ĩ à°«
Ġà°Ĺ à°¸
Ġ1 04
à°ķà°Ł à°¸
Ġà°ķà°® à°²à°¨
06 20151
à°¸ à°İà°²
Ġ9 4
à°ĵ à°²
1020163 19
42015 10
Ġà°ª à°§à°ķ
ÂłÂł ÂłÂłÂłĠ
à±įâĢĮ ?
à°ľ à°¯à°¸
Ġà°ı à°Ĩà°°
10 104
à°ľà°® à°£
Ġà°ĺà°Łà°¨ à°¤
à°² à°®à°²
Ġà°ĩà°µ à°¤à°²
à°¢ à°ļ
Ġ8 8
Ġà°ĭ à°ķ
Ġà°ĩà°°à°µ à°¯
à°ª à°Ń
Ġà°ħ à°½à°§
1120163 29
à°ķ à°ªà°Ł
à°Ĳ à°¤
à°Ī à°ľ
à°§à°ªà°¡ à°ķ
1020163 18
ti on
Ġà°® à°¤à°ª
Ġà°Ĺ à°¯
à°¦à°° à°¦à°¨
Ġà°ħà°ª à°¶
à°ķà°¤ à°¤
052015 107
à°¾ _
à°® à°ķà°°à°£
Ġà°ķ à°§à°²
à°¿... ?
0820174 49
à°¤ à°§
à±ĩ _
à±ĩ __
Ġà°ĩ à°Ĺ
à°£ à°®à°¯
Ġà°ı à°İà°¨
à°°à°Ĺ à°¦
à°µà°¸ à°¤
âĢĮ .
Ġà°ľ à°¨à°®
à°¥ à°²à°®
à°®à°¦ à°Ĺ
1020163 26
0720151 30
1 500
Ġ n
à°ľ à°Ł
à°¹ à°¹
Ġ8 2
à°¤à°° à°²
Ġà°¤à°Ł à°¸
Ġà°°à°£ à°§
Ġà°¸ à°µà°¤
Ġ1 01
à°¤à°° à°£à°ķ
Ġà°ħà°° à°¡
11 104
Ġà°ªà°¡ à°¬
à°Ĺà°³ à°¸
à°Ĭ à°ª
Ġà°Ń à°ľà°¨
Ġà°¡ à°ľà°¨
Ġà°Ĳ à°Łà°®
à°¤ à°ķà°²
Ġà°¦ à°µ
à°¾à°Ĥ -
Ġà°®à°¨ à°¤
à°¤à°Ĺ à°¡
Ġà°µà°¦à°² à°¡
à°ķ à°ªà°¡
Ġ1 02
à°ªà°° à°ļà°¡
05 20151
à±ģâĢĻ .
Ġà°Ĩ à°Łà°ķ
à°Ĵ à°¡
à°ª à°®à°¤
Ġà°Ī à°İ
Ġà°Ĳ à°¯
03 201739
Ġà°İà°¡ à°®à°µ
Ġà°ķ à°°à°ķ
Ġà°ĵ à°°à°Ĺ
à°°à°ľ à°²à°²
Ġà°®à°¹ à°¨
à°®à°² à°Ĺ
à°ĤâĢĻ ,
1220163 50
à°İ à°ķà°°
à°µà°² à°¤
à°°à°£ à°µ
à°Ī à°ª
à°Ľ à°Ń
à°Łà°²à°ķ à°²
à°· à°Ń
Ġà°ħà°ª à°¸
à°ı à°Ĳ
0920163 16
à°Ĺ à°ªà°¤
à°°à°¤ à°ķà°¡
Ġà°°à°® à°£à°¯
Ġà°Ĺà°² à°Ĺà°²
Ġ C
Ġà°ĩà°¨ à°¸
à±Ģ ||
Ġà°Ī à°Ĺ
Ġà°ĩà°ķ à°®
0720174 36
0620174 2
Ġ is
à°² à°·
à°¸ à°Ĩà°°
Ġà°¸à°® à°·
Ġ9 3
à°¸à°Ĺ à°£à°ªà°¤
-- -
à°Ĥ _
Ġà°ħà°¨ à°µà°¸à°°à°®
Ġà°ªà°° à°§
Ġà°ħà°® à°°à°µ
Ġà°Ĩà°¡ à°Ł
c h
à°Ł à°¸à°Ńà°²
à°¡ à°¤à°Ĺ
à°£ à°ªà°Ł
Ġ19 90
Ġà°ľà°² à°¸
Ġà°ľà°® à°ļ
à°Ĥ __
à°¡ à°µà°°
Ġà°Ĩà°° à°Ĺ
Ġà°¨à°¡ à°ļ
Ġà°ħà°£ à°Ĺ
à°² à°Ńà°®
à°ļ à°¯à°®à°¯
Ġà°¸ à°«à°²
à°ļà°² à°ªà°¤
Ġà°ħà°µà°¸à°°à°® à°µ
Ġà°µà°¨ à°ªà°°
à°Ĺ à°£à°²
Ġà°¨ à°ľà°°
à°³ à°ļ
Ġà°¦ à°¡à°¦
Ġ19 80
16 0
à°¯à°£ à°¨
Ġà°ªà°Ĺà°² à°Ĺ
à°ĸ à°ļ
à°ķà°¡ à°ªà°²
ĠÂłÂł ĠÂłĠÂłĠÂłĠÂłĠÂłĠÂłĠÂłĠÂł
à°¨ à°Ĺà°¦
à±Ĩ ..
Ġà°İ à°¡à°¤
à°ķà°² à°®
Ġà°İà°¨ à°Ń
à°Ĳ à°Ĳà°¸
420162 28
/ /
Ġà°¬ à°²à°¯
Ġà°Ĩà°¡ à°¤
Ġ9 00
à°Ī à°ĵ
Ġà°Ĵà°ķà°° à°ķ
Ġ18 00
à°¸à°Ĺ à°¢
0620162 59
12 102
à°Łà°¨ à°µ
à°ı à°İ
Ġà°Ĭ à°¦
à°ľà°¯ à°¦
Ġà°Ńà°¯ à°Ń
Ġà°ªà°°à°® à°¶
Ġà°¤à°Ĺà°² à°¬
à°¸ à°İà°¸
Ġà°ħà°¡ à°Ĺà°¨
Ġà°Ľ à°¸
à°Łà°ª à°Ĺà°²
à°ĵ à°¯
1020174 76
103 201738
à°®à°¨ à°¡
Ġ19 99
à±Ģ âĢĮ
Ġà°ħ à°¤à°²
à±ĩà°Ĥ !
à°¯à°£ à°ķ
0820174 57
a d
à°°à°¸ à°¨à°ķ
Ġà°Ĺà°¡ à°ªà°¡
Ġà°ĺà°Łà°¨ à°¨
Ġà°ķà°¨à°ªà°¡ à°²
0620174 27
à°¸ à°ķà°°
à°¾? ..
Ġà°ħà°°à°¡ à°ľà°¨
à°µ à°¬à°¡
à°Ĺ à°¬à°Ł
à°¶ à°¨à°¤
11 102
à°ľà°¨ à°µà°°
0420174 04
à°Ĺ à°£à°®
à°¬ à°³
à°ķà°¡ à°¯
Ġà°Ĩà°ķ à°¤
1120163 35
à°¨ à°ķà°¡
à°¡ à°®à°°
Ġà°Ī à°İà°¨
Ġà°ķà°² à°¤
2015 96
Ġà°Ĭ à°¤
à°Ī à°®
0520174 19
Ġà°°à°£ à°¦
à±ģ) .
3 20159
Ġà°ļà°¦ à°µà°²
1120174 86
à°¡ à°µà°¡
à°ľ à°®à°¯
Ġà°« à°²à°ķ
Ġà°ķà°¨ à°ķà°¦
à°Łà°² à°®
à°ªà°ķ à°®
Ġà°Ĩà°Ĺ à°®
à°ŀ à°²
Ġà°ķà°¨à°¬à°¡ à°ķ
à°¯ à°¶à°ķ
à°¾à°Ĥ '
à°ªà°² à°®
à°°à°§ à°®
Ġà°®à°°à°£ à°¶
à±įâĢĮ.. !
à°° à°²à°²
à°®à°¨ à°²
à°¿... ..."
à°Ĥ! !
1120174 96
0620151 20
Ġà°° à°¯
Ġà°Ĳ à°İà°¨
à°Łà°¬ à°¯à°²
0420174 00
820151 4
7 201627
à°µ à°µà°²à°¸
Ġà°ħà°µ à°¶
à°Ĳ à°¯
Ġà°īà°ª à°İà°¨
à°Ĺà°¡ à°®
Ġ18 0
à°ľ à°ľ
Ġà°Ń à°¤
à°°à°£ à°¤
à°¡à°² à°ª
Ġ19 85
Ġà°Ĩà°Ł à°¤
à°° à°ªà°°à°ļ
à°¯ à°ªà°¨
à°ĩ à°¡
à°ķà°¨ à°¬
Ġà°ķà°° à°ļ
Ġ19 98
à°Ł à°µà°°
à°· à°Łà°ª
Ġà°¤à°¨ à°ļ
Ġà°ħà°ª à°µ
Ġà°Ĳ à°¬
Ġ19 96
à°ľ à°Ĺà°¦
Ġà°¶ à°®
0820162 99
Ġ y
Ġà°¬ à°²à°ª
Ġà°ħà°² à°¸à°¤
à°¤à°² à°®
Ġà°ķà°¦ à°²à°²
1220151 88
0520162 38
1122017 50
Ġà°Ĩ à°Łà°¨
à°¿! '
à°¯à°£ à°ĸ
v e
à°·à°¨ à°¨
à°ļà°¨ à°ª
à°ķà°°à°£ à°¤
1120151 77
Ġà°¨à°Ĺ à°°à°®
0520174 08
c e
à°® à°ķà°ª
.... ...
Ġà°Ĭ à°Ł
à°°à°§ à°°
Ġ14 0
Ġà°ª à°ľ
Ġà°µ à°²à°ª
Ġà°Ĺ à°¡à°Ĺà°¡
à°Ĵ à°¸
à°®à°¹ à°²
à°° à°Ĺà°°
à±Ģ! '
à°ľ à°¹
Ġà°ı à°ķà°°
10 102
à°·à°² à°®
à°µà°¸ à°Ń
Ġà°Ĭà°¹ à°ķ
Ġà°ĭ à°£
Ġà°¨ à°Łà°°
à°¹ à°°à°£à°²
Ġà°ħà°¡ à°Ĺà°ķ
à°¤à°® à°®
Ġà°ĺ à°¡
1020163 25
0520174 15
Ġ =
à°µà°² à°ªà°°
à°°à°µ à°¯
Ġà°ĸ à°¤
Ġà°¦à°¶ à°²à°µ
à°° à°²à°®
Ġà°° à°Ł
Ġà°Ĩ à°¡à°¨
ÂłÂłÂłĠ ÂłÂłÂłÂł
Ġà°Ĩà°° à°¡
Ġà°ªà°¨ à°¯
Ġà°Ĩà°¡ à°ķ
0520162 46
Ġà°µ à°°à°®
Ġà°ħ à°ľà°°
Ġà°¡ à°®
Ġà°ĵ à°İà°¸
Ġà°ªà°¡ à°ķà°ª
s e
Ġà°ķ à°ľ
Ġà°² à°¯à°¨
à°²à°ķ à°¡
Ġà°ı à°ķà°¤
à°¦à°° à°°
à°ħ à°¡à°µ
à°Ĥ.. !
à°¸à°Ń à°ķ
1020174 77
à°ķ à°¤à°ķ
Ġà°¨ à°°à°¹à°°
à°Ń à°¯à°ªà°¡
à°°à°ª à°¦
Ġ D
Ġà°ħà°¨ à°¬à°¡
à°« à°¯
à°Łà°ªà°¡ à°Ł
à°Ĺ à°¡à°²
Ġà°« à°²à°®
à°ķà°°à°£ à°²à°ķ
ÂłÂłÂłĠÂłÂłÂłĠ ÂłÂłÂłĠÂłÂłÂłÂłÂłÂłÂłÂłÂłÂłÂłÂłÂłÂłÂłÂł
à°² à°¯à°®
Ġà°® à°ķà°°
à°İ à°²à°ķ
à°¤à°¨ à°¤
à°µà°² à°¯
4 50
o t
à°Ł à°ķà°Ł
Ġà°¯ à°¡
106 2015
Ġ B
à°¬à°² à°ªà°¤
Ġà°¨à°Łà°¨ à°ķ
à°Ł à°ªà°Ł
à°¾à°Ĥ ..."
Ġà°¡ à°ª
Ġà°¸à°° à°¯
à°ĩ à°¹
à°®à°¨ à°Ĺ
Ġà°µà°°à°ķ à°Ł
1220175 13
Ġ l
à°° à°¯à°®
à°³ à°ķà°ª
à°¹ à°Ĺ
Ġà°² à°µà°ķ
Ġà°ħà°² à°®à°Ł
à°µà°¨ à°Ĺà°°
à°Ĵ à°ª
à°¤ à°µà°ķ
à°¸ à°²à°¤
Ġà°® à°²à°ķ
à±ģ. âĢĻâĢĻ
ÂłÂłÂłĠ ÂłÂłÂłÂłÂł
à°Ĩ à°ĸà°°
Ġà°ĵ à°Ĩà°°
à°µà°¡ à°¨
Ġà°µà°° à°¦à°¨
Ġà°Ĩà°Ĺ à°¦
Ġà°Ĺà°£ à°¤
Ġà°ļà°²à°¨ à°ļ
201 3
à°Ĩ à°ķà°²
Ġà°ķà°² à°ļ
Ġà°Ĩà°¯à°¨ à°¦
à°Ĺà°² à°®
à°ı à°Ī
à°ĩ à°¬
14 0
Ġà°¨ à°µà°°
Ġà°¹ à°Ł
0820151 45
101 201619
à°ķ à°Łà°¨
à°¸ à°²à°®
Ġà°Ĺ à°²à°¦
Ġà°¸à°® à°°à°¯
à°ķà°°à°£ à°²à°¨
1120174 88
1020163 20
0420162 29
Ġ ÂłÂłÂłĠčĊ
Ġà°¸ à°Ĺà°°
Ġà°ķà°¡ à°ªà°²
à±ģ à±ģ
à°° à°¦à°²
à°¦ à°²à°²
à°® à°¯à°¤
à°® à°¶à°ķ
à°¹ à°¨à°ķ
Ġà°« à°¨
à±į.. !
ÂłÂłÂłĠÂłÂłÂł ĠÂłĠÂłĠÂłĠÂłĠÂłĠÂłĠÂłĠÂłĠÂłĠÂłĠÂłĠÂłĠÂłĠÂłĠÂłĠÂł
0720162 76
à°² à°¤à°¨
à°¿. âĢĻâĢĻ
à°ªà°¡ à°¦
20174 59
à°ªà°£ à°²à°¤
Ġà°ªà°Ĺà°² à°¬à°¡
Ġà°¨ à°°à°®
à°· à°¬
à°· à°²à°²
Ġà°®à°§ à°¨à°ªà°¡
à°¡à°µ à°ªà°¡
à°§à°¨ à°Ĺ
à°°à°ļ à°¯
à°µà°¹à°£ à°ª
0820162 98
Ġà°¤à°° à°£
à°µà°¤ à°¹
à°°à°ķà°Łà°¨ à°¨
ÂłÂłÂłĠÂłÂł ĠÂłĠÂłĠÂłĠÂłĠÂłĠÂłĠÂłĠÂłĠÂłĠÂłĠÂłĠÂłĠÂłĠÂłĠÂłĠÂłĠÂłĠÂłĠÂłĠÂłĠÂłĠÂłĠÂłĠÂł
à°¦à°° à°¬
à°« à°Ł
Ġ4 50
à°²à°¬ à°¡à°²
0920151 50
Ġà°Ĩà°¨à°ķ à°Ł
à°² à°¸à°®
Ġà°ª à°£
Ġà°² à°ĺ
à°®à°° à°ļ
Ġ9 1
Ġ14 4
g o
Ġà°ħ à°²à°¨
à°ħ à°°à°µ
0920174 7
à°Ł à°µà°²à°¸
à°¯ à°Ńà°°
à°µ à°ķà°°
à°ł à°Ĺ
Ġà°ĩà°¨ à°ļ
ÂłÂłÂłĠÂłÂłÂłĠÂłÂł ĠÂłĠÂłĠÂłĠÂłĠÂłĠÂłĠÂłĠÂłĠÂłĠÂłĠÂłĠÂłĠÂłĠÂłĠÂłĠÂł
520174 06
à°ķ à°®à°¯
à°Ł à°Ńà°¦
Ġà°ı à°Ī
Ġ1 03
Ġà°Ĩà°¶ à°²à°¨
20151 7
Ġà°Ľ à°Łà°°
Ġà°Ńà°¯à°ªà°¡ à°¤
3 20
ÂłÂłÂłÂłÂłÂłÂłÂłÂłÂłÂłÂłÂłÂłÂłÂłÂłÂłÂłÂłÂłÂłÂłÂłÂłÂłÂłÂłÂłÂłÂłÂłÂłÂłÂłÂłÂłÂłÂłÂłÂłÂłÂłÂłÂłÂłÂłÂłÂłÂłÂłÂłÂłÂłÂłÂłÂłÂłÂłÂłÂłÂłÂłÂł ÂłÂłÂłÂłÂłÂłÂłÂłÂłÂłÂłÂłÂłÂłÂłÂł
Ġ )
Ġà°ķ à°¡à°²
à°¶ à°ªà°¡
à±Ĭ .
Ġà°Ĺ à°Ń
à°ħ à°µà°ķ
à°µà°¨ à°¤
à°§à°ªà°¡ à°²
à°ĭ à°·
35 6
i d
à± §
à°ķ à°³à°ķ
à°® à°®à°¨
à°® à°¤à°²
à°£ à°²à°ķ
Ġ8 1
à°Ńà°µ à°ľ
Ġà°«à°² à°¹
à°ĵ à°¡
107 201626
Ġà°ªà°²à°ķ à°¡
à°Ĺ à°¡à°ķ
Ġà°¸ à°¬à°°
à°· à°µà°°
Ġà°ľ à°Ĺà°®
à°¦à°¨ à°²à°ķ
Ġ1 05
à°ªà°ķ à°¶à°ķ
Ġà°ķà°° à°ªà°¤
Ġà°Ĺà°ľ à°¦
à°«à°²à°® à°µ
0820151 37
à°¤ à°¤à°²
à±ĭ _
Ġà°Ĩ à°µà°ķ
Ġà°Ń à°ľ
Ġ1 06
à°Ĩ à°¡à°µ
Ġà°¬à°² à°¶
à°²à°¡ à°¯
Ġ.... ...
I I
à°ķ à°¥à°²
Ġà°ĩ à°¨à°ª
10 109
à°ĺà°Łà°¨ à°²à°¨
à°Łà°ªà°¡ à°¨
108 20162
Ġ E
à°Ĥ ;
à°Ł à°ķà°°à°®à°¨
Ġà°² à°ļ
Ġà°ķà°² à°ªà°¡
à°·à°¯ à°®à°¨
à±ģ... ?
Ġà°® à°Ĺà°¤
Ġà°° à°¸à°®
Ġà°ľ à°¯à°®
12 107
à°§à°ªà°¡ à°Ł
à°®à°°à°¸ à°®
Ġ R
à±ĭ __
Ġà°® à°°à°ķà°²
à°¡à°Ĺ à°²à°¨
Ġà°ķà°¥ à°²à°¨
Ġà°ĭ à°Ĺ
à°²à°² à°²
à°¨à°¨ à°²
36 8
lo g
1 2015
à°¦ à°µà°¤
à°Ĺ à°ªà°°
Ġà°Ĩ à°ªà°¡
à±Ī "
Ġà°¬ à°Ĺ
à°« à°ķ
à°Ĩ à°¡à°¦
à°°à°¸ à°®
13 101
à°§à°µ à°¯
: //
Ġà°µ à°¦à°¨
Ġà°ľ à°¯à°¨
Ġà°ķà°² à°Ĺà°ľ
à°°à°£ à°ª
à°¤à°ķ à°Ł
Ġà°¬à°¯à°Łà°ªà°¡ à°Ł
ÂłÂłÂłĠÂłÂłÂł ĠÂłĠÂłĠÂłĠÂłĠÂłĠÂłĠÂłĠÂłĠÂłĠÂłĠÂłĠÂł
5 14
Ġ P
Ġà°ħ à°Łà°ķ
à±Ĥ à°ģ
Ġà°Ĩ à°µà°°à°£
Ġà°¬ à°¯à°Łà°¨
à°« à°²à°ķ
à°·à°£ à°ª
à°¢ à°¨
ÂłÂłÂłĠÂłÂłÂł ĠÂłĠÂłĠÂłĠÂłĠÂłĠÂłĠÂłĠÂł
Ġà°¤à°Ĺà°² à°¬à°¡
9 2017459
à±Ĩ :
à°¶ à°®à°µ
Ġà°ī à°°à°ķà°²
à°°à°£ à°¹
à°Ĳ à°¬
01 201620
Ġ19 92
à°¯à°Łà°¨ à°¨
tt p
à°ķ à°®à°ķ
à°Ł à°¤à°¨
à°µ à°µà°²
Ġà°¦ à°£
à°¹ à°¤à°ª
20 4
Ġà°¡ à°¨
Ġà°ķà°¨ à°ķà°®
à°°à°µ à°ª
12 201635
Ġà°¨à°¡ à°µà°²
17 0
0620174 24
à±ģ âĢĵ
à°ªà°² à°ª
36 6
! '
à°¦à°¨ à°Ł
à°°à°¤ à°ķà°²
11 109
à°°à°¶ à°ķ
Ġà°İà°Ĺ à°¸
1 201736
à°® à°·
Ġà°¤ à°¥
Ġà°ľ à°¡à°²
Ġà°¶ à°ª
Ġà°ıà°¡ à°µà°¡
à±į ),
à°¤ à°¤à°¨
Ġà°Ĩ à°ªà°¨
Ġà°ĺ à°¨à°ķ
à°Ĺà°¡ à°ª
620174 29
0720162 9
à°¦à°° à°¡
à°°à°¤ à°ķà°Ł
Ġ19 93
Ġ17 0
à°ĤâĢĻ .
à°¡ à°¨à°¨
Ġà°° à°¡
à°ķà°Ł à°ķ
à°²à°¬à°¡ à°Ł
18 0
35 8
Ġ__ _
0520174 09
à°ľ à°¦
Ġà°Ĵ à°¨
Ġà°Ĵà°ķ à°ªà°ķ
à°ħ à°°à°Ĺ
Ġà°ħà°µ à°¹
Ġà°ħà°² à°¹
Ġà°ħà°² à°µà°°
Ġà°ħà°ª à°¨à°®
Ġà°ĸ à°¡
Ġà°µà°¦ à°²à°¨
Ġà°®à°¤ à°¸
à±įâĢĮâĢĮ âĢĮ
0620174 28
à±¦ à±¦
11120174 8
Ġà°« à°¡
à°¨ à°¡à°®
Ġà°ķ à°²à°¨
à°¹ à°²à°¤
Ġà°Ī à°Ī
ÂłÂłÂłĠ ÂłÂłÂłÂłÂłÂłÂłÂł
Ġà°ķà°² à°Ĺà°¨
Ġà°ħà°² à°®
à°ı à°ľ
à°Ī à°Ł
13 107
à±į" .
ĠI I
à°ļ à°¦à°²
Ġà°ļ à°¦à°°
à°£ à°Ńà°¯
Ġà°ķà°¦ à°²à°¨
720174 4
à°¤à°¨ à°¯
à°¯à°¸ à°Ńà°ķ
13 8
à±ĩ! !
Ġà°Ŀ à°²
à°® à°¦à°¨
à°³ à°µà°ļ
Ġà°¬à°¤ à°ķà°²
à°Ńà°ľà°¨ à°ª
à°¯ à°ªà°°à°ļ
à°Ĩ à°ļ
à°®à°° à°ª
Ġà°¨à°¡ à°ķà°¤
à°²à°¬à°¡ à°¤
1120174 98
à°ŀ à°¨
à°Ĵ à°²
à°ī à°·
0320162 19
ma il
à±į __
à°¤ à°¤à°ķ
à°ª à°¹
à°ľ à°Ń
à°§ à°¯
Ġ2 500
12 109
Ġà°Ĭ à°¬à°ķ
Ġà°¸à°¹ à°ľà°¸
à°ľà°¯ à°ļ
24 0
Ġ O
Ġà°¡ à°¸
à°°à°ķ à°ķ
à°¨à°µ à°ľ
Ġ- :
à°Ī à°¯à°¨
107 2015
Ġà°ķà°¨à°¬à°¡ à°¤
à±ĭ à±į
à°ħ à°ªà°°
Ġà°®à°¹ à°²
à°ļà°°à°£ à°¨
Ġà°¤à°¹à°¤ à°¹à°²
Ġ e
Ġà°ħà°¤à°¨ à°¨
Ġ19 94
14 9
à°µà°°à°£ à°¶
Ġà°ķà°¬ à°³
** **
à°ļ à°°à°¨
à°¹ à°ķà°°
à°ĸ à°¸
2015 76
108 201630
Ġy ou
c i
à°µ à°µà°ļ
Ġà°® à°¸à°²
à±ĩà°Ĥ "
Ġ19 95
13 6
13 103
Ġ. "
022015 88
à°Ĺ à°ķà°°
à±Ĩ "
Ġà°® à°¯à°¨
Ġà°¦ à°µà°¡
Ġà°² à°ĸ
à±ģ, "
10 103
Ġ19 97
16 6
Ġà°İà°¡à°® à°ļ
920151 47
62015 12
Ġà°ħ à°ľà°®
à±Ĥ ......
à°§ à°¶
Ġà°ľ à°¬à°°
Ġà°Ī à°·
à°ł à°¤
39 6
39 9
620162 5
Ġà°µ à°¨à°®
Ġà°¤ à°¡à°µ
à°§ à°ªà°°
Ġà°ħà°® à°°à°¨
Ġà°ħà°Ń à°¦
17 8
à°ªà°Ĺà°² à°µ
620174 25
à°ķà°² à°¯
à°¡à°° à°°
17 6
à°®à°Ĺ à°µ
à°²à°Ń à°¤à°°
Ġà°Ĺà°ľ à°Ĺà°ľ
à°¿ âĢĺ
à°¿. âĢĻ
Ġà°¬ à°¡à°²
à°¯à°® à°§
Ġà°ªà°¡ à°®à°Ł
à°µà°¨ à°¶
Ġ19 70
Ġà°°à°®à°£ à°°
042015 98
à°ªà°Ł à°®
ÂłÂłĠÂłÂłÂł ĠÂłĠÂłĠÂłĠÂłĠÂłĠÂłĠÂłĠÂłĠÂłĠÂłĠÂłĠÂłĠÂłĠÂłĠÂłĠÂłĠÂłĠÂłĠÂłĠÂł
r i
à°ª à°¨à°µà°¸à°°
à°¸ à°ªà°¡
Ġà°ħ à°°à°®
Ġà°Ī à°İà°¸
à°°à°¤ à°ķà°¨
à°ķà°¡ à°µ
Ġà°¤à°Ĺ à°¦
à°ŀ à°¤à°Ĺ
012015 78
ÂłÂłĠÂłÂłÂłĠÂłÂłÂłĠÂłÂłÂłÂłÂłÂłÂłÂłÂłÂłÂłÂłÂłÂłÂłÂłÂłÂłÂłÂłÂłÂłÂłÂłÂłÂłÂłÂłÂłÂłÂłÂł ÂłÂłÂłÂłÂłÂłÂłÂłÂłÂłÂłÂłÂłÂłÂłÂł
à°¾ à±Ĥ
à°² à°µà°ļ
à°Ł à°¤à°²
à°¯ à°ľà°®
à°¸ à°İà°«
Ġà°¨ à°¬
Ġà°² à°ľ
Ġà°ħà°ª à°¹
36 0
0820174 48
0520162 47
072015 126
Ġà°¤ à°«
Ġ1 19
à°ħ à°®à°²
à°ŀ à°ķ
à°³à°¨ à°²à°ķ
Ġ19 89
à°ī à°ķ
39 8
en t
à°¨ à°°à°ª
Ġà°ħ à°¦à°°
201 9
à°°à°µ à°ļà°¨
à°ĩ à°ķà°ª
à±ĭ.. !
à°¯à°®à°¨ à°¸
0420162 26
0620162 50
à°² à°°à°¦
à°¦ à°®à°µ
à±ĩ âĢĮ
à°¯ à°µà°¨
à±įâĢĮ âĢĵ
Ġà°° à°Ĺà°¡
Ġà°ı à°·
Ġà°ķà°² à°µà°¨
à°¸à°° à°³
à°³à°¨ à°ķà°°
Ġà°®à°³ à°¯
16 8
14 8
1020174 78
à°ļ à°¦à°²à°ļ
à°¨à°® à°Ĺ
Ġà°Ĩà°Ĺ à°®à°¨
Ġà°Ĺà°¡ à°ªà°²
24 6
1020151 57
v er
à±ĭ à±įâĢĮ
à°¡ à°µà°Ł
à°® à°¬à°²
à±Ĩ -
à°³ à°µà°²à°¸
à°¦à°° à°µ
à°°à°¨ à°¡
Ġ2 20
à°ĩ à°³
Ġà°¨à°¡ à°µà°Ł
Ġ19 91
Ġà°®à°¦à°¨ à°ªà°²
52015 109
à°¤ à°¬à°Ł
à±Ģ à°Ĥ,
Ġà°İ à°°à°Ĺ
à°°à°ķ à°µ
à°ľà°¨ à°Ĺ
Ġà°Ĳ à°Ĳà°İ
37 6
à°ħà°µ à°¤à°²
à°· à°ļ
ÂłÂłÂł ĠÂłĠÂłĠÂłĠÂł
Ġà°ħà°µ à°¤à°²à°ķ
Ġà°ľà°¤ à°ļ
Ġà°® à°¡à°¤
Ġà°Ĩ à°ªà°ķ
Ġà°« à°¤
à±Į à±įâĢĮ
à°Łà°ķ à°·
à°Ľ à°ķ
104 0520162
Ġà°ĭ à°ľ
0320162 15
Ġ W
à°ª à°µà°²
Ġà°ħ à°¹à°°
âĢ į
à°£ à°µà°°
Ġà°¹ à°¯à°¤
Ġà°¯ à°²
à°°à°ķ à°³
à°®à°² à°°
Ġà°ľà°°à°Ĺ à°¦à°¨
à°Ł à°µà°¦
Ġà°ª à°¯
à°ľ à°¨à°¨
Ġà°¬ à°ľà°°
à°ħ à°¨à°¸
14 2
24 8
a p
ĉ ĉ
Ġà°¸ à°ªà°°
à±Ī )
ÂłÂłĠ ÂłÂłÂłĠÂłÂłÂłĠÂłÂłÂł
à°ħ à°¹à°²
Ġà°¨à°² à°Ńà°¯
à°Łà°ª à°°à°®
1150 420162
0420162 35
---- ----
Ġb e
1150420162 29
y o
à°¨ à°¦à°²
à°ª à°²à°¤
à°£ à°ªà°¡
Ġà°Ń à°Ĺà°¤
à°ĸ à°¶
à°°à°µ à°¶
Ġà°ħà°µà°ķ à°¤à°µà°ķ
à°¾" .
1030 52016236
Ġ H
à±ĭ (
à°¡ à°ķà°¨
à°µ à°·
Ġà°Ĩ à°¡à°²
à°¤à°° à°µ
à°Ĺà°² à°¦à°¨
à°ĺ à°µà°¨
à°°à°¶ à°¸
Ġà°Ńà°µà°¨ à°²
à±Ģ.. ..."
Ġ N
à°ªà°Ł à°¡
à°¡à°² à°µ
14 4
à±ĩ... !
ĠÂłÂł ĠÂł
126 04201623
Ġà°ĩ à°°à°ķ
à°« à°°à°µ
Ġà°ħà°¡ à°Ĺà°¬
Ġà°§ à°µà°³
Ġà°ĸ à°¦
13 4
1220151 79
0620174 30
à°ķ à°¸à°²
20 8
à°¤à°° à°£à°²
Ġà°ħà°° à°µà°¡
à°¾! !
à°¡à°Ĺ à°¨
Ġ F
à°¸ à°ľ
Ġà°¤ à°³à°¤
à°¹ à°ªà°¡
Ġà°ī à°®à°°
Ġà°ī à°·à°¸
Ġ1 09
à°¿? âĢĻ
à°ªà°£ à°²à°ķ
à°¤ à°ªà°¤
Ġà°ļ à°¡
Ġà°¤ à°ļ
Ġà°ªà°¦ à°ľ
à°ĺ à°¡
à°®à°° à°²
à°¦à°ķ à°¦
17 4
36 9
à°¦à°¡ à°ª
Ġà°¬à°¯à°Łà°ªà°¡ à°¤
1130 42016228
Ġà°ķà°¨à°ªà°¡ à°ķ
720174 38
Ġà°®à°¤à°ª à°°à°®
2 30
à°Ĺ à°®à°¯
à°§ à°Ń
à°ķà°ª à°°
Ġà°¨à°Ĺà°° à°ª
13 2
13 7
28 8
à°¾.... ...
a y
Ġà° ½
à°ķ à°³à°¨
à°® à°ķà°°
à°¯à°® à°£
Ġà°§ à°¨à°¸
à°Ĵ à°Ł
Ġ15 2
Ġà°µà°°à°¸ à°²
Ġ L
à°¸ à°İà°¨
à°¬ à°²à°®
à°²à°¨ à°Ł
à°¦à°¨ à°²à°¤
à°Łà°ªà°¡ à°¡
Ġà°ħà°²à°¸ à°Łà°Ĺ
Ġà°¶ à°ķà°Ł
à°ĸ à°²à°¤
Ġà°Ĩà°® à°°à°£
Ġà°ıà°¡ à°µà°¸
à°ļà°ķ à°®
Ġà°¤à°¡ à°¬
à°¾âĢĻ ,
120 04201623
Ġà°® à°«
à±ģ. âĢĻ
Ġà°ľ à°²à°ķ
Ġ" ...
Ġà°¤à°¨ à°ķà°¨
à°ªà°¡ à°Ĺ
à°²à°¯ à°¤
à°²à°® à°¤
Ġ* *
à°®à°£ à°°
à°³à°® à°§
1050 520162
022015 86
1050520162 37
3 19
à°¦ à°µà°²
à±įâĢĮ ;
à°µà°° à°ķà°Ł
Ġà°Ĵà°ķ à°²
te r
Ġà°Ĩà°¦ à°¯
à°¯à°£ à°¸
à°¨à°¡ à°ķà°¨
à±Ĥ! '
Ġà°ķà°¨à°ªà°¡ à°Ł
72015 129
3 20158
à±ģ âĢĺ
à°¦ à°¯à°µ
à°Ł à°µà°²
à°ª à°¦à°ķ
à°ĸ à°µ
à°Łà°¨ à°·
Ġ- --
18 8
à±ĭ- "
à°Łà°° à°¯
à°°à°µ à°¸
à°¨à°¨ à°¡
à±ģ... !
17 5
14 6
à°Ĺà°¬ à°Ĺà°¬
Ġà°ķà°¦à°² à°¬
Ġà°ħà°¸à°¹ à°ľ
à±Ĩ ....
à°¹ à°ľ
à°¥ à°¶
à°ľà°¯ à°ª
Ġà°¸à°Ń à°²à°ķ
à°¹ à°¯
à°¹ à°Ń
37 0
10201516 6
Ġà°¨à°°à°ķ à°¯
42015 97
à°® à°ľà°¨
Ġà°¨ à°°à°¨
à°· à°®à°¨
Ġà°Ĺ à°¡à°Ĺ
Ġà°ľ à°®à°¦à°Ĺ
26 0
Ġà°Īà°¯à°¨ à°ķ
ÂłÂłÂłĠÂłÂłĠÂłĠÂłĠÂłĠÂłĠÂłĠÂłĠÂłĠÂł ĠÂłĠÂłĠÂłÂł
820174 46
à°² à°¹
ÂłÂł čĊ
20 6
à°İ à°µ
à°ķà°® à°Ĺ
Ġà°¨à°Ĺ à°²à°¨
o l
à±į _
à°¸ à°ĩà°²
à°Ĺ à°µà°ļ
à°¶ à°¨à°¨
27 0
Ġà°ľà°² à°ľà°²
à°¿.... ?
à°¹à°°à°£ à°Ĺ
720174 34
à°¬à°¯à°Ł à°ķ
Ġ âĢĮ
Ġà°ħ à°ķà°¡à°®
201 8
Ġà°µà°¦ à°²à°²
à°§à°¨ à°¤
à°Ĵ à°¦
13 5
18 6
35 9
38 0
à°µà°°à°£ à°®
à°² à°¸à°°
à°¯ à°°à°¨
Ġà°Ĩ à°¤à°°
à°Ĳ à°Ĳà°Ł
à°²à°® à°Ł
15 2
39 4
à°°à°ķà°Łà°¨ à°¤
Ġà°ľà°°à°Ĺ à°µà°ļ
130 042016235
à°¨ à°¤à°°
Ġà°µ à°®
Ġà°ķà°² à°¬
Ġà°Ĵà°ķà°Ł à°µ
37 8
à°Ĥ.. ..."
à±ĭ.. ..."
1120174 97
3 24
u b
à°Ĺ à°ªà°²
à±Ģ _
Ġà°ķà°² à°µà°²
à°ĩ à°®
à°°à°Ĺ à°¸
13 9
17 7
Ġà°Ĩà°Ł à°ª
48 6
à°®à°Ł à°¤
ÂłÂłĠÂłÂłÂł ĠÂłĠÂłĠÂłĠÂłĠÂłĠÂłĠÂłĠÂłĠÂłĠÂłĠÂłĠÂłĠÂłĠÂłĠÂłĠÂł
052015 106
ÂłÂłÂłĠÂłÂłĠÂłĠÂłĠÂłĠÂłĠÂłĠÂłĠÂłĠÂł ĠÂłĠÂłĠÂł
3 26
à°µ à°Ĺà°¤
Ġà°ķ à°°à°¤
à°¹ à°ªà°°
à±ĩà°Ĥ ,
à°¤à°° à°ķà°°
à°ŀ à°¤à°¤
56 6
à±į' ,
Ġà°ľà°°à°Ĺ à°µà°²à°¸
10 201
à°ķà°Ł à°°à°¤
Ġà°ĩà°ļ à°Ł
Ġà°ľà°¨ à°ľ
1120151 78
0620162 58
5 50
à±Ī '
à°³ à°²à°¤
à°¶ à°¬à°°
à°¶ à°¨à°°
à°§ à°°à°£à°ķ
ÂłÂłÂł ĠÂłĠÂłĠÂłĠÂłĠÂłĠÂłĠÂłĠÂłĠÂłĠÂłĠÂłĠÂłĠÂłĠÂłĠÂłĠÂł
Ġà°Ł à°¬
à°µà°¡ à°®à°¨
à°ľà°¨ à°Ńà°°
à°ĺ à°²
Ġà°¤à°Ĺ à°²à°ķ
19 0
à°¾... !
39 2
ĠĠĠĠĠĠĠĠĠĠĠĠĠĠĠĠ ĠĠĠĠĠĠĠĠĠĠĠĠĠĠĠĠ
3 18
à°Ĺ à°²à°¤
à°§ à°°à°¨
à°²à°ķ à°®à°¨
à±ĩà°Ĥ ...
à°ħ à°µà°¸à°°à°®
Ġà°®à°¨ à°ª
35 7
39 0
Ġà°¦à°¶ à°°à°§
0620174 26
u l
à°ķ à°ķà°ª
ĠÂł ĠÂłÂłÂł
à°¤à°¨ à°ª
Ġà°· à°£
118 042016230
u n
à°Ł à°ªà°¨
à°¯ à°¦à°²à°ļ
à°¸ à°®à°°
à°ļ à°²à°¤
à°¿. ,
Ġà°° à°¶
à°¶ à°Ń
à°°à°¤ à°°à°¤
Ġà°ªà°¡ à°Ĺà°²
à°¾? !
Ġà°¨à°µ à°®
Ġà°¨à°µ à°²à°¨
à°Ī à°ķ
à±ģ.. âĢĻâĢĻ
16 7
à±ģ' '
à°Ĺà°£ à°ªà°¤
à°¸ à°ı
Ġà°µ à°Ĺà°°
à°ľ à°«à°°
à°ķà°° à°¯
Ġà°ħà°® à°²à°¯
Ġà°ħà°° à°¨
30 6
Ġà°Ĭ à°¤à°®
Ġ12 8
29 0
Ġ30 00
01201735 8
Ġà°¯à°® à°§à°°
g mail
à°ª à°¨à°¨
à°¹ à°°à°¨
à°ķà°² à°¦
Ġà°ħà°° à°²
à°Ī à°İà°¸
Ġ20 22
Ġà°Ĺà°¡ à°ªà°Ł
Ġà°®à°¤ à°¤à°¤
128 042016234
7 96
à°¸ à°Łà°Ĺ
à°Ĺ à°°à°¤
à°« à°¨
à°ĩ à°ľ
50 8
Ġ19 75
16 2
44 4
1120174 87
Ġà°ķà°£ à°ľ
à°¨ à°¨à°Ł
à°ķ à°¤à°ª
à°¤ à°·
à°ļ à°¯à°®à°µ
Ġà°® à°°à°ķ
Ġà°¦ à°§
Ġà°ī à°¬à°²
Ġà°ªà°° à°µ
à°®à°¨ à°¦
Ġ1 15
Ġà°Ĭ à°ļà°ķ
Ġà°İà°¦ à°Ĺà°¡
à°¤à°µ à°Ĺ
Ġà°Ĺà°¡à°Ĺ à°¡à°²
" .
Ġ g
à°· à°°à°¤
Ġà°ĩ à°µà°¤à°²à°ķ
Ġà°Ī à°¤à°ķ
à°¢ à°¤
à°µà°¦ à°¤
28 0
0420162 27
à°Ĺà°²à°¨ à°¨
3 38
à°¨ à°¯à°¨
à°Ĺ à°°à°®
à±Ĩ '
à±Ī à°Ĥ,
à°¦à°° à°ķà°ª
à°ļà°² à°®
à±ģ? âĢĻ
Ġ7 50
Ġà°Ķ à°¦
ÂłÂłÂłĠÂłÂłÂłÂłÂłÂłÂłÂłÂłÂłÂłÂłÂłÂłÂłÂł ÂłÂłÂłÂłÂłÂł
a b
à±Ĩà°Ĥ :
20 2
Ġà°Ł à°ªà°Ł
Ġà°ĵ à°®
à°¯à°® à°®
Ġà°Ĳ à°¦à°µ
à°Ĵ à°ķà°¨
16 4
à°µà°¯ à°ķà°°
Ġ17 5
Ġà°ķà°¨à°¬à°¡ à°¡
u s
Ġ re
à°ª à°ķà°¨
à°¸ à°Ī
à°°à°¸ à°°à°£
à°°à°µ à°Ł
à°²à°¡ à°®
à°Łà°ªà°¡ à°²
h e
t s
à±Ĩ âĢĻ
à±Ĥ __
à°¾à°Ĥ ...."
Ġà°ħà°² à°µà°¡
Ġà°Ĩà°¯à°¨ à°Ĺ
Ġà°Ĩà°² à°¶
à°ľà°¯ à°Ń
à°Ĵ à°³
14 7
Ġà°Īà°¸ à°¡
à°ľà°¯à°¦ à°¶à°®
3 25
à°¥ à°¬
Ġà°ı à°ľà°¨
à°°à°® à°£à°ķ
Ġ4 20
17 2
Ġà°Ĵà°° à°µà°¡
6 50
à± Ħ
Ġà°¤ à°¹à°¶
Ġà°¬ à°¤à°ķà°¨
Ġà°¶ à°ªà°¥
Ġà°ªà°° à°¬
10 10520162
à°¯à°¤ à°ª
à°¡à°µ à°¯
à°ļà°Ł à°ªà°¡
36 4
49 9
à°Łà°ªà°¡ à°ķ
à°¯ à°¤à°®
à°ª à°µà°¦
ÂłÂł ĠÂłĠÂłĠÂłĠÂłĠÂłĠÂłĠÂłĠÂł
à°ķà°¨ à°ķ
Ġà°¨à°µ à°ľ
à°¢ à°¨à°®
14 5
Ġà°ķà°¨à°ªà°¡ à°¨
Ġw h
ĠII à°¶
3 34
Ġà°ķ à°°à°¸
Ġà°ķ à°§à°¨
Ġà°ļ à°¦à°²à°µ
Ġ1 07
Ġà°ħà°¤à°¨ à°²
à°Ĺà°² à°Ĺ
Ġà°¨à°¡ à°ķà°²
Ġà°ľà°¯ à°§
ÂłÂłÂłĠÂłÂłĠÂłĠÂłĠÂłĠÂłĠÂłĠÂłĠÂłĠÂł ĠÂłĠÂł
ÂłÂłÂłĠÂłÂłĠÂłĠÂłĠÂłĠÂłĠÂłĠÂłĠÂłĠÂł ĠÂłĠÂłÂł
3 30
Ġà°ľ à°¤à°²
Ġà°² à°ª
à°µà°° à°¹
à°°à°¯ à°ªà°¡
à°°à°ª à°¨
à°ķà°Ł à°ª
Ġà°Ĩà°¶ à°²à°¤
à°²à°Ĺ à°ķ
Ġà°ĺ à°¨à°®
Ġ19 84
à°Ĺà°® à°®
17 9
à°Ĺà°¬ à°¦
à°± à°®
Ġà°ªà°¤à°¨ à°®
à°µ à°¦à°¨
à±Ī !
Ġà°² à°µà°£
à°¥ à°¨à°¨
ÂłÂłÂłĠ ÂłÂłÂłÂłĠ
Ġ19 83
à±ĩ! '
18 4
à°§à°° à°°
062015 116
Ġ +
à°ª à°¨à°ª
Ġà°° à°ľà°ķ
Ġà°ı à°Łà°µ
Ġ1 100
Ġà°Ĺà°¤ à°µ
15 4
à°Ľ à°²
18 2
28 4
à°² à°Ĺà°²
Ġà°¨ à°¹
Ġà°Ĺ à°¤à°¨
Ġà°« à°Ł
12 11020174
Ġà°ķà°¦ à°®
Ġà°¨à°° à°°
25 6
35 4
Ġà°ľà°² à°¦
à°¿.... ?"
116 112016334
0 50
i r
à°² à°ªà°¤
à°¤ à°ľà°¨
à°Ł à°ªà°°à°ļ
à°µ à°¦à°²
à°°à°¤ à°²à°ķ
à°Ĺà°° à°ªà°¡
à°µà°² à°®
Ġà°¤à°² à°¸à°°
à°ł à°ª
à°ľà°¯ à°Ĺà°°
à°Łà°ķ à°ķ
Ġ19 60
36 5
à°Ĥ" .
Ġà°ļ à°µà°ķ
à°¯à°¨ à°¡
Ġ2 30
Ġà°§ à°°à°®
à°¿... !
Ġ19 71
16 5
15 6
24 9
28 6
36 7
104 04201739
Ġà°¨à°°à°¨ à°°
à±ĩ (
Ġà°İ à°µà°¨
Ġà°ı à°ı
Ġ1 11
à°²à°ª à°¤à°¨
13 11020174
34 0
0520174 07
02201736 6
8 50
i g
à°¨ à°ªà°Ł
à°¤ à°ķà°¡
à°¬ à°²à°µ
à°³ à°Ĺà°²
Ġ19 86
1120174 99
ÂłÂłÂłĠÂłÂł ĠÂłĠÂłĠÂłĠÂłĠÂłĠÂłĠÂłĠÂłĠÂłĠÂłĠÂłĠÂłĠÂłĠÂłĠÂłĠÂłĠÂłĠÂłĠÂłĠÂł
in e
Ġs t
Ġà°¸ à°¦à°¨
Ġà°¤ à°¬
ÂłÂłÂł ĠÂłĠÂłĠÂłĠÂłĠÂłĠÂłĠÂłĠÂłĠÂłĠÂłĠÂłĠÂłĠÂłĠÂłĠÂłĠÂłĠÂłĠÂłĠÂłĠÂł
Ġà°Ĵ à°£
Ġà°ħà°Ĺ à°®
26 6
36 2
45 6
Ġà°ĩà°³ à°¯à°°
à°¿' '
Ġà°ĭ à°Ń
1230 4201623
a nd
Ġ ĠčĊ
à°ļ à°³
Ġà°ķ à°Łà°ķ
ÂłÂłÂł ĠÂłĠÂłĠÂłĠÂłĠÂłĠÂłĠÂłĠÂłĠÂłĠÂłĠÂłĠÂłĠÂłĠÂłĠÂłĠÂłĠÂłĠÂłĠÂłĠÂłĠÂłĠÂłĠÂłĠÂł
Ġà°ı à°µà°Ĺ
Ġà°®à°° à°ª
Ġà°¤à°° à°³
à°ķà°ª à°°à°®
à°µà°¨ à°ª
à°Ī à°¶
à±į! '
48 8
Ġà°¬à°¯à°Łà°ªà°¡ à°¡
à°Ńà°ľà°¨ à°¤
117 11201749
à°ģ !
120 0
à°¾..... ?
à°¤ à°Ńà°¤
à°¦ à°µà°°
à°¦ à°¡à°®
à°ª à°¦à°²à°ļ
à°¸ à°ĩ
Ġà°® à°Łà°¨
à°· à°°à°®
Ġà°ľ à°²à°µ
Ġà°ħà°¨ à°¤
Ġà°Ĵ à°¸
Ġà°ªà°° à°µà°³
à°®à°¨ à°µà°®
Ġà°ķà°² à°¶
à°¤à°° à°«
19 8
49 0
à±ĩ" .
99 0
12201634 9
ÂłÂłÂłÂłÂłÂłÂłÂłÂłÂłÂłÂłÂłÂłÂłÂłÂłÂłÂłÂłÂłÂłÂłÂłÂłÂłÂłÂłÂłÂłÂłÂłÂłÂłÂłÂłÂłÂłÂłÂłÂłÂłÂłÂłÂłÂłÂłÂłÂłÂłÂłÂłÂłÂłÂłÂłÂłÂłÂłÂłÂłÂłÂłÂł ÂłÂłÂłÂłÂłÂłÂłÂłÂłÂłÂłÂłÂłÂłÂłÂłÂłÂłÂłÂłÂłÂłÂłÂłÂłÂłÂłÂłÂłÂłÂłÂłÂłÂłÂłÂłÂłÂłÂłÂłÂłÂłÂłÂłÂłÂłÂłÂł
ÂłÂłÂłĠÂłÂłÂłÂłÂłÂłÂłÂłÂłÂłÂłÂłÂłÂłÂłÂł ÂłÂłÂłÂł
115 11201749
62015 118
Ġà°İ à°¡à°ª
à°Ń à°ķà°°
à°²à°ķ à°¤
Ġà°§ à°°à°¤
à°²à°® à°µ
37 5
22 2
ĠĠĠĠ Ġ
062015 119
% ,
Ġ Ă
à°ķ à°§
à°¯ à°¤à°°à°¹
Ġà°° à°Ńà°¸
ÂłÂłÂł ĠÂłĠÂłĠÂłĠÂłĠÂłĠÂłĠÂłĠÂłĠÂłĠÂłĠÂłĠÂłĠÂłĠÂłĠÂłĠÂłĠÂłĠÂłĠÂłĠÂłĠÂłĠÂłĠÂłĠÂłĠÂłĠÂłĠÂłĠÂł
à°¹ à°¸à°®
Ġà°Ĵ à°®à°°
Ġà°ĵ à°¡à°²
Ġà°§ à°¨à°¦
à°Ĳ à°İà°¨
25 2
37 9
38 8
47 8
à°Ńà°ľà°¨ à°²
Ġà°°à°¸ à°µà°¤
112 12201750
07201626 7
a tion
e f
e t
Âł ĠÂłĠÂłĠÂłĠÂł
à°ª à°ķà°°
à°® à°¸à°®
Ġ1 17
à°ĺ à°¸
Ġ19 47
Ġ12 6
15 8
24 2
126 10201748
à°¾..... ?"
à°¿__ _
à°¶ à°§
Ġà°ªà°° à°ļà°¡
à°ħ à°¡à°Ĺ
à°Ĺà°² à°ª
Ġà°· à°¨
50 6
Ġà°ıà°¡ à°µà°ķ
Ġà°Ĩà°¶ à°ķ
Ġ19 78
Ġà°Ĭà°° à°¡
23 2
à±ģ.... ?
118 11201749
ÂłÂłĠÂłÂłÂł ĠÂłĠÂłĠÂłĠÂłĠÂłĠÂłĠÂłĠÂłĠÂłĠÂłĠÂłĠÂłĠÂłĠÂłĠÂłĠÂłĠÂłĠÂłĠÂłĠÂłĠÂłĠÂłĠÂłĠÂł
ĠÂłĠÂłÂł ĠÂł
s p
à°² à°ĸ
à°¦ à°¸à°°
Ġà°Ĩ à°£
à°ķà°° à°¸
à°İ à°Ĳ
à°Ĩ à°²à°¸
à±ĭà°Ĥ ,
Ġà°ĵ à°°à°ķ
à°°à°¹ à°Ĺà°¤
Ġ19 69
16 9
17 3
à°Ĭ à°³
114 11201749
Ġà°®à°¡ à°¤à°²
Ġà°ħà°µà°¯à°µ à°®
Ġà°ªà°ł à°¨
Ġà°¸ à°Ĺà°®
à°ľ à°¸à°®
à°ľ à°¯à°²à°²
Ġà°¶ à°¨à°Ĺ
Ġà°¡ à°°
à°¾? ..."
Ġà°īà°ª à°ľ
24 4
Ġà°Ĩà°Ł à°ªà°Ł
39 5
à±ĩ... ?
à°¡à°¬ à°¦
ÂłÂłĠÂłÂłÂłĠÂłÂłÂł ĠÂłĠÂłĠÂłĠÂłĠÂłĠÂłĠÂłĠÂłĠÂłĠÂłĠÂłĠÂłĠÂłĠÂłĠÂłĠÂłĠÂłĠÂłĠÂłĠÂłĠÂłĠÂłĠÂłĠÂł
à°¦ à°Ľ
à°¸ à°ªà°¤
à°® à°²à°ª
Ġà°ħ à°¶à°ķ
Ġà°¯ à°°
Ġà°ķà°³ à°¨
à°¿? ...
à°¿... ?"
Ġ19 87
19 6
56 8
117 042016230
Ġà°ªà°Ĺ à°¬à°Ł
0720174 45
ÂłÂłÂłĠÂłÂłÂłĠÂłÂłÂłÂłÂłÂłÂłÂłÂłÂłÂłÂłÂłÂłÂłÂłÂłÂłÂłÂłÂłÂłÂłÂłÂłÂłÂłÂłÂłÂłÂłÂł ÂłÂłÂłÂłÂłÂłÂłÂłÂłÂłÂłÂłÂłÂłÂłÂł
ÂłÂłÂłĠÂłÂłĠÂłĠÂłĠÂłĠÂłĠÂłĠÂłĠÂłĠÂł ĠÂłĠÂłĠÂłĠÂłÂł
420174 02
Ġà°ľ à°µà°¦
20 9
à°ªà°¡ à°¬
Ġà°Ĩà°¯à°¨ à°µ
à°¦à°² à°¶
à°ªà°° à°²
à°ķà°Ł à°µ
à°¦à°ķ à°¤
à°Ľ à°°
28 2
à°¦à°¯ à°ļ
34 2
47 9
Ġà°ħà°£ à°Ĺà°¦
130 112017499
Ġà°¸à°Ĺ à°Ń
ÂłÂłÂłĠÂłÂłÂłÂłÂłÂłÂłÂłÂłÂłÂłÂłÂłÂłÂłÂł ÂłÂłÂłÂłÂł
l y
à°Ĺ à°²à°²
à°Ĺ à°¨à°µ
Ġà°¸ à°°à°ķ
Ġà°¶ à°¤à°µ
à°ķà°° à°ĺ
à°°à°ľ à°ķ
à°¤à°² à°Ĺ
28 9
27 2
39 7
à°ļà°Ĺ à°²à°¨à°¨
114 102017476
0720174 37
12104 20162
Ġà°¦à°¡à°¦ à°¡à°²
a c
à±Ģ __
ÂłÂłÂłÂł ĠÂłčĊ
Ġà°®à°° à°£à°®
Ġà°ķà°² à°²à°¨
12 1
à°®à°² à°®à°¡
Ġà°ıà°¡ à°µà°Ł
Ġà°ĺ à°¨à°¸
à±ģ? âĢĻâĢĻ
24 5
27 8
35 2
à°¸à°µ à°®
ÂłÂłÂłĠÂłÂł ĠÂłĠÂłĠÂłĠÂłĠÂłĠÂłĠÂłĠÂłĠÂłĠÂłĠÂłĠÂłĠÂłĠÂłĠÂłĠÂłĠÂłĠÂłĠÂłĠÂłĠÂłĠÂłĠÂłĠÂłĠÂłĠÂłĠÂłĠÂł
620162 57
________________ ________________
Ġà°ķ à°ªà°Ł
Ġà°¸ à°¨à°¤
à°ľ à°²à°¨
à°¶ à°²à°ª
à°§ à°¤à°¨
à°ķà°° à°Ĺ
à°¯à°ķ à°¨
à°¿) .
Ġ19 50
Ġà°¸à°¦ à°Ń
Ġ13 2
Ġ50 00
104 0820174
ÂłÂłÂłĠÂłÂłÂłĠÂłÂłÂłÂłÂłÂłÂłÂłÂłÂłÂłÂłÂłÂłÂłÂł ÂłÂłÂłÂłÂłÂł
11201516 8
à°® à°²à°¯
à°¦à°¨ à°²à°ª
Ġà°ªà°° à°¦
Ġà°ħà°ª à°ľà°¯
à±ģ... ?"
Ġ19 0
13 1
à°®à°£ à°¸
27 5
127 042016234
1230 9201746
ÂłÂłÂłĠÂłÂłÂłĠÂłÂłÂłÂłÂłÂłÂłÂłÂłÂłÂłÂłÂłÂłÂłÂł ÂłÂłÂłÂłÂłÂłÂł
09201746 9
Ġf or
à°¤ à°«
Ġà°ľ à°¨à°ķ
Ġà°¹ à°·
Ġà°¹ à°¤à°®à°¯
Ġà°ķà°² à°¶à°®
Ġà°ªà°Ł à°ªà°Ł
à±ģ.. âĢĻ
15 9
Ġà°ıà°ķ à°§
Ġà°¬à°¯à°Łà°ªà°¡ à°²
126 072016276
à°Ĥ- "
105 11201516
à°µ à°Ńà°ķ
à°ļ à°µà°¨
Ġà°ª à°µà°®
à°³ à°¦à°Ĺ
Ġà°Ĵ à°®
à°¯à°¨ à°ª
à°ħ à°£
à°Ĩ à°²à°¯
Ġà°¤à°² à°ªà°Ł
à°¾? ....
30 4
à°ķà°Ł à°Ĺ
03 2015
18 9
34 8
Ġà°¦à°¯ à°µà°²
ÂłÂłÂłĠÂłÂłÂłĠÂłÂłÂłÂłÂłÂłÂłÂłÂłÂłÂłÂłÂłÂłÂłÂł ÂłÂłÂłÂłÂłÂłÂłÂł
12201518 7
Ġà°¨à°Łà°¨ à°¤
01201735 9
à±ģ__ _
o d
Ġ on
à±į /
à°ļ à°¯à°¸
Ġà°Ĩ à°²à°¨
20 5
Ġà°ľà°° à°ªà°¨
à°¨à°µ à°¹à°ķ
à°¿.. âĢĻâĢĻ
Ġ19 56
24 7
35 5
45 8
56 0
59 9
107 12201750
128 10201748
12201634 6
à°ªà°Ĺà°² à°¡
4 25
à°¾à°Ĥ .....
11 103201738
Ġà°İà°ķ à°¨à°®
06 201626
à°¡à°¦ à°Ĺ
à°¯à°ªà°¡ à°²
à±Ģ- "
à°° à°³à°ķ
à±Ĥ :
Ġà°Ī à°Ĺà°²
à°¦à°° à°¸
à°°à°® à°ª
à°¤à°¨ à°¡à°ķà°¨
Ġ6 50
29 6
Ġà°Ĭà°° à°Łà°¨
à°ĵ à°¬
107 04201739
v a
Ġ ÂłÂłÂłĠ
à°¦ à°ªà°°
Ġà°¦ à°Ń
Ġà°¶ à°µà°®
à°ªà°ķ à°³
à°¿? âĢĻâĢĻ
55 5
à°¸à°¹ à°ľ
119 042017400
102 12201750
115 10201516
123 1220175
à±ģ__ "
12015 77
10103 201737
à°Ł à°°à°®
à°¡ à°¬à°²
Ġà°ª à°Ĺà°¤
à°· à°²à°ª
à°§ à°ķà°®
Ġà°ľ à°ªà°¨
Ġà°¶ à°ķà°²
Ġ" .....
Ġ1 35
à°ħ à°¨à°µà°¸à°°
Ġà°ķà°² à°Ĺà°Ł
à°ı à°Ĩà°°
à°¨à°µ à°¯à°¸
30 2
50 00
à°°à°² à°µ
à°ŀ à°¸
Ġà°Ĩà°¡ à°®
13 3
15 3
26 2
ÂłÂłÂłĠÂłÂłÂłĠ ÂłÂłÂłĠÂłÂłÂł
Ġà°ķà°µ à°²à°²
à°§à°ªà°¡ à°¡
à°°à°ķà°Łà°¨ à°ķ
33 3
110 092015150
104 112017486
0920151 48
62015 116
à°¿ `
à°ķ à°®à°µ
à°® à°¥à°¨
à±Ī ....
Ġà°¦ à°ª
Ġà°Ĺ à°ľà°²
à°¥ à°Ł
Ġà°ı à°Ĳà°Ł
Ġà°¡ à°Ĺ
à°Ĳ à°°
à°¨à°¸ à°²
13 10820174
Ġ12 2
Ġà°ļà°² à°¸
116 02201737
ÂłÂłÂłĠÂłÂłÂłĠÂłÂłÂłÂłÂłÂłÂłÂłÂłÂłÂłÂłÂłÂłÂłÂł ÂłÂłÂłÂłÂłÂłÂłÂłÂłÂłÂłÂłÂłÂłÂł
04201739 9
02201736 7
1040820174 47
1310820174 58
Ġ âĢĻâĢĻ
Ġ ÂłÂłÂłÂłÂłÂłÂłÂłÂł
à°¸ à°¨à°¨
à°® à°ļà°°
Ġà°İ à°¸à°°
20 7
à°ħ à°²à°µ
à°²à°² à°¯
à°µà°¤ à°Ĺ
Ġà°ļà°¦ à°µà°¸
110 01201735
127 1220175
à°¾à°Ĥ.. !
820162 96
2 10
2 20162
7 86
Ġà°¤ à°§
à°ľ à°²à°ķ
Ġà°¤à°® à°²à°ª
Ġà°Ĳ à°·
à°°à°¹ à°ķ
19 2
à°ī à°¯
34 6
Ġà°İà°° à°Ĺà°¨
48 0
116 03201738
125 112015176
920151 54
Ġà°ħà°µà°ķà°¤à°µà°ķ à°²à°ķ
a k
à°¨ à°°à°¯
à°Ł à°¶à°ķ
à°¸ à°¨à°ķ
à°ļ à°µà°°
Ġà°ķ à°¡à°Ĺ
Ġà°ı à°ķà°ª
201 2
Ġà°¸à°® à°¯à°¸
à°ªà°¡ à°µ
à°²à°² à°®
à°°à°µ à°¦à°¨
11 112201750
à°¨à°ķ à°µ
Ġà°ľà°² à°ľ
48 7
à°Łà°ªà°¡ à°°
109 0120157
Ġà°ķà°¦à°² à°Ł
1130 4201739
1150 7201626
ÂłÂłÂłĠÂłÂłÂłÂłÂłÂłÂłÂłÂłÂłÂłÂłÂłÂłÂłÂł ÂłÂłÂł
125 10201748
820151 36
à°¾ ......"
à°° à°¡à°®
à°¸ à°Ĺà°Ł
à°Ĺ à°µà°¨
Ġà°ľ à°ł
à°²à°¨ à°¡
Ġà°¯ à°°à°ªà°¤
Ġà°Ĭ à°ļà°²
Ġ19 88
16 3
Ġà°°à°µ à°£
14 3
à°ī à°¡
26 4
à°¦à°Ĺ à°®à°¨
27 4
108 102015159
117 10201516
130 06201626
à°µà°¹à°£ à°¨
0720174 44
à°¡à°Ĺà°² à°°
Ġà°Ŀ à°²à°ķ
12010 201516
Ġà°ļ à°²à°®
Ġà°¬ à°¦à°°
Ġà°ĩ à°¦à°¨
à°²à°ķ à°¬
201 1
11 10920151
Ġà°ļà°° à°ļà°°
à°ī à°ļ
37 2
47 0
105 12201750
105 102015158
Ġà°¨à°Łà°¨ à°²
1211020174 79
à°¨ à°µà°²à°¸
à°® à°¯à°®
à°§ à°²à°¤
à°¥ à°ªà°¡
Ġà°Ī à°ļ
Ġ1 12
à°¸à°° à°¨
Ġà°¨à°¡ à°ªà°¨
Ġà°Ĩà°Ĺ à°Ł
29 8
107 03201737
106 12201750
à°ģ ....
86 6
1020 52016236
102 102015157
ĠÂłĠÂłĠÂłĠÂłÂł ĠÂł
113 10201516
3 17
h ttp
à°Ł à°¶
à°· à°¶
Ġà°Ĩ à°Ĺà°¨
Ġà°ħà°µ à°¦
10 110
à°¸à°° à°¦
11 10820174
Ġ2 40
à°¤à°® à°ķ
à°ı à°İà°¨
50 4
25 8
Ġ14 00
46 0
46 8
108 12201750
à°·à°¸ à°¤
1150 4201739
12201 201736
à°¥ à°ªà°°
à°µà°° à°¦
Ġ" ......
12 11120174
à°ļà°¡ à°®à°¨
à°¨à°ķ à°Ł
Ġà°Ĩà°¡ à°®à°¨
Ġ19 77
13 110201516
à±ģ.... ?"
Ġà°®à°°à°£ à°µ
à°ļà°Ĺà°² à°®à°¨
116 0520174
114 03201738
114 04201739
à°°à°ªà°¡ à°ķ
1230 3201738
ÂłÂłÂłĠÂłÂłÂłÂłÂłÂłÂłÂłÂłÂłÂłÂłÂłÂłÂłÂł ÂłÂł
ĠÂłĠÂłĠÂłÂł ĠÂł
' ,
a te
i th
à°¤ à°µà°¨
à°ª à°®à°Ĺ
Ġà°® à°¸à°Ĺ
Ġà°Ī à°Ĩà°°
ĠÂłĠÂł ĠÂłÂłÂł
à°ĸ à°¡
Ġ1 18
Ġà°Ĵà°ķ à°Łà°¨
19 4
à°²à°¬à°¡ à°¡
29 4
37 4
129 122017513
124 10201748
120 062017428
à°¡à°Ĺà°² à°¡
115 12201518
042015 99
ci al
à°¾ /
à°¦ à°µà°¯
Ġà°ħ à°Łà°²
à°Ń à°°à°®
à°¥ à°²à°²
ÂłÂłÂłĠ ÂłÂłÂłÂłÂłÂłÂłÂłÂłÂłÂłÂłÂłÂł
Ġà°· à°µà°°
Ġà°Ĩà°¶ à°¨
Ġ3 60
ÂłÂłÂłĠÂłÂłÂłĠ ÂłÂłÂłĠčĊ
46 6
57 6
109 11201633
104 01201735
126 03201738
à°¯à°¯à°¨ à°ķ
Ġà°ĺà°¨ à°¤à°¨
Ġà°ħà°°à°µ à°¬
2 500
à°Ĥ âĢĵ
à°³ à°¸
à°¤à°° à°¬à°¡
12 103201738
20151 57
15 5
25 4
18 5
Ġà°Ľ à°²
29 2
27 6
37 7
129 092015156
124 112017496
1230 2201737
1220 9201746
1220 3201738
10104 201739
10110 2015157
g e
à±ģ âĢĮ
à°¡ à°¨à°ķ
à°¡ à°µà°¸
Ġà°ķ à°µà°²
à°· à°ªà°¤
à°¬ à°ļ
à°£ à°¶à°ķ
à°¹ à°²à°ķ
Ġà°ī à°¡à°ķ
à°ķà°² à°°
Ġà°ķà°¨ à°¡
Ġà°īà°¦ à°¹à°°
à±ģ- --
49 4
108 092015149
à°¨ à°¤à°ķ
à°¯ à°¥
à°¸ à°¶
Ġà°ķ à°Ń
Ġà°¸à°® à°®
à°ħ à°¯à°¨
à°²à°ª à°¨
38 4
46 2
Ġà°ķà°¨à°¬à°¡ à°¨
116 10201516
119 12201750
Ġà°ªà°Ĺ à°²à°ķ
1020 2201736
1020 82017446
09201746 6
52015 108
12011 20174
12011 20163
11104 201739
3 2015
à°® à°¤à°®
à°Ń à°¯à°®
à°®à°¨ à°µ
Ġ1 13
Ġ1 300
à°ªà°¡ à°µà°ļ
10 11220151
Ġà°§ à°¨à°ª
à°·à°£ à°¶
Ġà°¤à°® à°¤à°®
Ġà°¨à°µ à°ķ
à°¹à°¨ à°¤
à°°à°Ĺ à°¡à°®
à°§à°¨ à°²à°¤
26 5
38 2
49 6
110 1120174
124 02201737
124 09201515
1130 9201746
ÂłÂłÂłĠÂłÂłÂłĠÂłÂłÂłÂłÂłÂłÂłÂłÂłÂłÂłÂłÂłÂłÂłÂł ÂłÂłÂłÂłÂł
1050 7201626
à°¿__ "
09201630 6
ÂłÂłĠÂłÂłÂłĠÂłÂłÂł ĠÂłĠÂłĠÂłĠÂłĠÂłĠÂłĠÂłĠÂłĠÂłĠÂłĠÂłĠÂłĠÂłĠÂłĠÂłĠÂł
1101120174 89
2 34
Ġ it
à°¨ à°Ĺà°¨
à±Ģ âĢĻâĢĻ
Ġà°ķ à°«
à°Ń à°ľà°²
Ġ1 14
12 10620162
à°¤à°ķ à°£
à°¾? !"
50 2
à°¯à°° à°¶
18 7
29 9
à°¯à°Ĺ à°²à°¨à°¨
48 4
à°®à°¸ à°Ńà°²
Ġà°İà°¡ à°®à°ķ
107 01201735
109 12201750
Ġà°®à°Ĺ à°¤à°¨
à°ľà°¸ à°®à°¨
129 102016327
124 03201738
114 07201626
Ġà°°à°®à°£ à°ķ
1250 520162
1030 1201735
1030 72017434
ÂłÂłÂłĠÂłÂłÂłĠÂłÂłÂłÂłÂłÂłÂłÂłÂłÂłÂłÂłÂłÂłÂłÂł ÂłÂłÂłÂłÂłÂłÂłÂłÂłÂłÂłÂłÂłÂł
1120 520174
1120 4201739
à°Ńà°µà°¨ à°²
ĠÂłÂłĠÂłĠÂłĠÂłĠÂł ĠÂłĠ
à±į ......"
à°¿ âĢĮ
à°² à°ĺ
à°¤ à°µà°²
Ġà°İ à°¥
à°ķà°° à°®à°¯
10 10920151
à°Łà°² à°¸
30 8
Ġà°Ĳ à°ıà°İ
à°Ĳ à°¶
13 108201630
Ġ12 7
Ġà°Ĩà°ķ à°³
26 8
49 8
à±Ĥ.. ..."
à±į' .
110 12201750
106 07201626
1220 2201737
1020 3201737
113 12201750
52015 11
go v
2 20
i nd
à±į âĢĻâĢĻ
à°¡ à°¦à°²
.. ?
Ġà°ľ à°ªà°®
Ġà°Ĵ à°Ĺ
à°®à°µ à°¦
Ġà°§à°° à°²à°ª
15 7
Ġ16 00
à°¯à°ªà°¡ à°¤
à±Ģ.. !
108 11201633
110 04201739
128 112017498
114 12201634
1020 7201626
0420174 03
0720162 7
12012 201634
12010 20163
12107 201627
1211120174 9
Ġà°ħ à°Ĺà°¤
à±įâĢĮ `
Ġà°¤ à°£
à°§ à°²à°ķ
à°£ à°¹à°¤
à°°à°® à°¸
à°ľà°¨ à°°à°²
à°·à°£ à°²à°¨
à°¨à°µ à°®
à°ī à°ľ
38 6
38 7
Ġ14 5
57 8
106 01201735
104 03201737
Ġà°®à°Ĺ à°¬
126 112016338
117 03201738
124 04201623
ÂłÂłÂłĠÂłÂłÂłĠÂłÂłÂłÂłÂłÂłÂłÂłÂłÂłÂłÂłÂłÂłÂłÂł ÂłÂłÂłÂłÂłÂłÂłÂłÂł
123 112016337
820174 55
ar t
à°² à°µà°²à°¸
Ġà°ķ à°¹
à°£ à°®à°µ
à°ħ à°°à°ķ
à°ħ à°²à°°
12 110201516
Ġà°¤à°² à°¦à°¨
à°¬à°¡ à°¤
Ġà°¨à°¡ à°µà°¬
13 1122017
à°¤à°µ à°®à°¨
à°µà°Ĺ à°²à°¨
18 3
48 2
57 0
107 102015159
106 0720174
106 10201747
116 07201626
126 042017403
118 102017478
114 042016229
1030 52017406
ÂłÂłÂłĠÂłÂłÂłĠÂłÂłÂłÂłÂłÂłÂłÂłÂłÂłÂłÂłÂłÂłÂłÂł ÂłÂłÂłÂłÂłÂłÂłÂłÂłÂłÂłÂł
1050 820174
112 10201516
103 11201748
à°¡à°Ĺà°² à°¦
0620162 55
ÂłÂłÂłĠÂłÂłĠÂłĠÂłĠÂłĠÂłĠÂłĠÂłĠÂłĠÂł ĠÂłÂł
131122017 514
Ġ G
à°¨ à°°à°¸à°°
ÂłÂł ĠÂłĠÂł
Ġà°Ĩ à°Ń
à°²à°¨ à°¤
Ġà°¶ à°¤à°°
Ġà°Ī à°²à°²
Ġà°¤à°¨ à°ªà°Ł
Ġà°ĵ à°İ
Ġà°ħà°¡ à°Ĺà°°
11 11220151
12 112201634
à°¨à°² à°Ń
à°Ī à°İà°²
Ġà°ļà°¦ à°µà°ķ
à°¨à°¤ à°²à°¨
16 1
17 1
à°¦à°¯ à°ª
Ġà°ľà°¯ à°²à°ķ
59 0
118 052017415
1250 3201738
1250 1201736
1050 4201739
103 12201634
12201518 9
111 201517
à°¿ à°ģ
à°° à°µà°²à°¸
à°¤ à°ļà°°
à°¡ à°¶
à°Ĺ à°µà°ķ
Ġà°¨ à°¯à°®
à°§ à°ļ
ÂłÂłÂłÂł čĊ
Ġà°ĵ à°¡à°°
à°°à°µ à°Ń
11 101
12 11120163
Ġ0 40
Ġà°¨à°µ à°¯
à°¿.. âĢĻ
à°Ĵ à°¤
34 4
à°ļà°Ĺà°² à°Ĺ
107 12201634
Ġà°Ńà°¯à°ªà°¡ à°Ł
Ġà°§à°¨ à°²à°ķ
118 112016335
128 042017404
Ġ27 0
130 10201748
1250 420174
1130 7201626
1130 72017438
ÂłÂłÂłĠÂłÂłÂłĠÂłÂłÂłÂłÂłÂłÂłÂłÂłÂłÂłÂłÂłÂłÂłÂł ÂłÂłÂłÂłÂłÂłÂłÂłÂłÂł
à°®à°µà°° à°ª
62015 11
820162 97
à°ķ à°·à°¨
à°® à°§à°¨
Ġà°ħ à°°à°¸
à°¿à°Ĥ ,
à°³ à°¡à°®
à°²à°ķ à°¨à°Ĺ
10 10820174
à°¸à°° à°²
Ġà°µà°° à°µà°°à°°
à°·à°£ à°²à°ķ
à°ŀ à°µà°²
45 9
107 10201747
110 10201747
106 112016330
118 02201737
ĠÂłĠÂłĠÂł ĠÂłÂłÂł
Ġ.... ....
à°Ĥ) :
âĢĵ -
11101 201576
à°¦ à°Ĺà°¡
à°® à°Łà°¨
à±Ĩ à±į
Ġà°µ à°¨à°µ
à±įâĢĮ '
Ġà°İ à°İ
Ġà°ĵ à°£
10 112
à°ķà°Ł à°®
à°²à°Ĺ à°Ł
Ġ15 1
45 2
à°ĥ .
49 2
58 0
116 12201750
119 10201516
124 10201516
124 08201630
1030 9201630
à°£à°¨ à°·
1120 7201626
Ġà°ķà°²à°µà°° à°ªà°°
115 10201632
Ġà°µà°²à°¸ à°¦
0420174 05
à°Ĥ ġ
à°¸ à°³
Ġà°® à°¤à°®
Ġà°¸ à°µà°¨à°®
Ġà°Ī à°¬
Ġà°Ĳ à°®
04 0
20174 01
à°¹à°° à°ļà°¨
14 1
à°§à°¤ à°¤
108 112017488
109 052017409
106 11201516
104 092015148
117 11201517
124 0520174
ÂłÂłÂłĠÂłÂłÂłÂłÂłÂłÂłÂłÂłÂłÂłÂłÂłÂłÂłÂł ÂłÂłÂłÂłÂłÂłÂł
12104 2017401
12012 2017
0520151 10
Ġà°Łà°ªà°Ł à°ª
10112 20174
o w
Ă Ă
à°ķ à°µà°¨
Ġà°¦ à°¶à°¨
à°£ à°¬
Ġà°ħà°¦ à°²
11 10820162
à°¤à°² à°µ
à°¨à°¦ à°Ł
Ġ19 82
Ġà°ıà°ķ à°µà°ļà°¨
Ġà°ľà°°à°Ĺ à°Ĺ
108 012015
110 10201516
à±ģ..... ...
119 03201738
ÂłÂłÂłĠÂłÂłÂł ĠÂłĠÂłĠÂłĠÂłĠÂłĠÂłĠÂłĠÂłĠÂłĠÂłĠÂłĠÂłĠÂłĠÂłĠÂłĠÂłĠÂłĠÂłĠÂłĠÂłĠÂłĠÂłĠÂłĠÂłĠÂłĠÂłĠÂłĠÂł
ÂłÂłÂłĠÂłÂłÂłĠÂłÂłÂłÂłÂłÂłÂłÂłÂłÂłÂłÂłÂłÂłÂłÂł ÂłÂłÂłÂłÂłÂłÂłÂłÂłÂłÂłÂłÂł
ÂłÂłÂłĠÂłÂłÂłÂłÂłÂłÂłÂłÂłÂłÂłÂłÂłÂłÂłÂł ÂłÂłÂłÂłÂłÂłÂłÂłÂłÂł
ÂłÂłÂłĠÂłÂłÂłÂłÂłÂłÂłÂłÂłÂłÂłÂłÂłÂłÂłÂł ÂłÂłÂłÂłÂłÂłÂłÂłÂłÂłÂł
ÂłÂłÂłĠÂłÂłÂłĠÂłÂł ĠÂłĠÂłĠÂłĠÂł
012015 76
Ġb y
1111220151 8
1110820162 96
à°Ĺ à°¦à°¨
à±Ĥ _
à°¬ à°¯à°²
Ġà°ı à°Ĳ
ÂłÂłÂłĠ ÂłÂłÂłÂłÂłÂłÂłÂłÂłÂłÂłÂłÂłÂłÂłÂłÂłÂłÂłÂłÂłÂłÂłÂłÂłÂłÂłÂłÂłÂłÂłÂłÂłÂłÂłÂłÂłÂłÂłÂłÂłÂłÂłÂłÂłÂłÂłÂłÂłÂłÂłÂłÂłÂłÂłÂłÂłÂłÂłÂłÂłÂłÂłÂł
Ġà°¤à°¨ à°µà°²
à°Łà°² à°¦
12 10620174
Ġà°¸à°Ń à°²à°¨
34 7
45 4
48 9
108 12201518
108 072015127
110 01201576
104 0620162
127 03201738
127 042017404
128 01201736
130 0520174
à°¬à°¦ à°¬
120 05201511
ÂłÂłÂłĠÂłÂłÂłĠÂłÂłÂłÂłÂłÂłÂłÂłÂłÂłÂłÂłÂłÂłÂłÂł ÂłÂłÂłÂłÂłÂłÂłÂłÂłÂłÂłÂłÂłÂłÂłÂłÂł
103 102016318
à°¯à°Ń à°Ł
115 112016334
u r
Ġ ;
Ġ ......"
à°ķ à°µà°ļ
Ġà°Ĩ à°¡à°Ĺ
Ġà°ªà°° à°ª
à°ľà°¨ à°¸
Ġà°ĸ à°¨à°¨
Ġà°µà°² à°¸à°ª
Ġ12 4
à°¯à°£ à°¤
28 5
Ġà°ľà°°à°Ĺ à°¨à°Ł
108 04201739
107 09201746
107 052017408
109 082017449
99 8
126 10201516
126 102016326
118 03201738
128 02201737
129 07201629
à±įâĢĻ ,
1150 720174
Ġà°µà°²à°¨ à°¨
1020 92017459
0820174 56
122 1220175
0920163 10
à°Ķ à°Ł
ÂłÂłĠÂłÂłÂłĠÂłÂłÂł ĠÂłĠÂłĠÂłĠÂłĠÂłĠÂłĠÂłĠÂłĠÂłĠÂłĠÂłĠÂł
10109 201630
3 36
e c
i f
à°¨ à°®à°²
à°² à°¦à°Ĺ
à°ķ à°ļà°°
à°ª à°£à°ķ
Ġà°ļ à°°à°®à°Ĺ
à°· à°®à°µ
à°¬ à°ª
à°°à°¤ à°²à°¨
à°°à°® à°Ł
Ġ1 16
à°¤à°¨ à°µ
11 11020174
11 10720174
Ġà°· à°«
15 1
à±įâĢĮ) .
à±ģ- -
à±ĭ! '
108 03201737
106 082015137
116 09201515
99 6
119 12201634
119 07201744
129 112016339
120 07201744
ÂłÂłÂłĠÂłÂłÂłĠÂłÂłÂłÂłÂłÂłÂłÂłÂłÂłÂłÂłÂłÂłÂłÂł ÂłÂłÂłÂłÂłÂłÂłÂłÂłÂłÂł
105 10201747
103 10201747
Ġà°°à°£ à°°
115 12201750
062015 124
320162 2
es s
à°ķ à°µà°²
à±ĩ ......"
à°Ł à°¬à°Ł
Ġà°ķ à°¦à°°
Ġà°® à°Ĺà°¡
à°³ à°ªà°¤
Ġà°ľ à°¤à°ķà°Ł
Ġà°² à°Ĺà°¡à°ª
10 107201626
à°ªà°° à°°
Ġà°¤à°ª à°¨à°¤
Ġà°¨à°µ à°¦
à°°à°¦ à°Ĺ
à°°à°¹ à°¸à°¨
Ġ19 81
à°ķà°°à°£ à°²à°¤
Ġà°¬à°° à°¬à°°
à°°à°ķà°Łà°¨ à°ª
108 072017436
à±ģ) :
110 072017437
116 09201746
116 082016298
128 0720162
124 0920163
à°ļà°²à°¨ à°®
86 8
1130 1201577
1150 2201737
0520174 16
01201619 7
02201620 8
ÂłÂłĠÂłĠÂłĠÂłĠÂł ĠÂłĠÂł
7 98
à°° à°²à°ª
à°¦ à°®à°°
à±ģ. âĢĺ
à°¹ à°¨à°®
Ġà°Ń à°µà°¤
à°¿, "
à°Ĩ à°¦à°°
te l
à°ķà°¡ à°¤
à°µà°¡ à°¦
à°ı à°¹
Ġà°Ĭ à°°à°ķ
08 0
à°¨à°¸ à°¬
Ġà°Ĩà°ķ à°¸à°®
à±Ĩ. "
46 4
Ġà°Ĺà°µà°° à°¯
127 122016350
118 12201750
130 052016247
105 102016319
1050 1201735
102 12201634
Ġà°ªà°¡à°ķ à°Ĺà°¦
125 112016338
520174 17
2201620 6
13107 20151
à ¤
à°¯ à°ªà°²
à°¡ à°ļà°°
à°® à°Ĺà°°
Ġà°¹ à°°à°Ĺ
à°®à°¨ à°¨
10 11120163
Ġà°ħà°° à°µà°ķ
12 101201735
30 5
à°²à°® à°Ĺ
à°¤à°µ à°¯à°¸
29 5
108 09201746
107 07201626
109 12201634
109 09201746
110 03201738
116 042016229
128 092016316
114 12201750
1120 9201746
Ġà°°à°ļà°¨ à°²à°¨
13103 201739
Ġ x
à°ķ à°¦à°¨
Ġà°¦ à°¬à°¦à°¬
20 3
Ġà°Ĳ à°İà°«
Ġ19 62
19 9
Ġ8 000
24 3
29 7
à±ģ: -
49 5
108 12201634
Ġà°ķà°¨à°¬à°¡ à°¦
110 12201634
106 09201746
104 0820151
116 12201518
117 062017427
114 02201736
Ġà°°à°¸ à°®à°¯
1050 920151
1050 3201737
à±Ĥ- "
ÂłÂłÂłĠÂłÂłÂłÂłÂłÂłÂłÂłÂłÂłÂłÂłÂłÂłÂłÂł ÂłÂłÂłÂłÂłÂłÂłÂłÂł
052015 114
113 11201749
9201630 8
4 26
Ġ [
à°¨ à°¡à°ķ
à°¤ à°¹à°¸
à°¦ à°µà°²à°¸
à°¡ à°¬à°¡
à°£ à°°à°¤
Ġà°² à°¤à°ķ
à°« à°¯à°°
Ġ1 38
à°ķà°² à°Ĺ
à°°à°¯ à°µ
à°Łà°¨ à°ķ
à°®à°ķ à°¤
à°£à°¯ à°®à°¨
19 3
25 1
34 9
44 2
108 082017449
107 092015149
à°¸à°Ń à°²à°ķ
Ġà°¬à°¯à°Łà°ªà°¡ à°ķ
104 0720174
128 062016259
117 12201518
à±ĩ.... ...
88 0
1230 62017429
Ġà°ħà°µà°¤à°² à°µ
1150 9201746
u g
à°® à°¦à°°
à°® à°ªà°°
Ġà°² à°°
Ġà°² à°¯à°¬à°¦
Ġà°Ĵ à°ļ
à°İ à°¹
à°¯à°ķ à°³
10 112201634
11 201634
11 10520174
Ġ2 10
2015 79
Ġ19 65
19 5
34 5
Ġ14 8
109 07201626
106 102016319
104 12201750
104 112016329
126 0520174
126 02201737
118 07201744
129 08201630
130 12201635
130 11201634
1230 920163
1030 3201737
ÂłÂłÂłĠÂłÂłÂłĠÂłÂłÂłÂłÂłÂłÂłÂłÂłÂłÂłÂłÂłÂłÂłÂł ÂłÂłÂłÂł
1020 8201629
103 12201750
ÂłÂłÂłĠÂłÂłĠÂłĠÂłĠÂłĠÂłĠÂłĠÂłĠÂłĠÂłĠÂłĠÂłĠÂłĠÂł ĠÂł
2201736 9
1052015 11
' .
Ġà°® à°ĸ
Ġà°¨ à°µà°°à°¤
Ġà°¦ à°¶à°®
à°¹ à°¨à°¨
11 107201626
Ġà°ªà°¡ à°°
à°µà°¨ à°¦
Ġà°¤à°² à°İà°¤
à°·à°£ à°²à°¤
30 3
Ġ19 48
Ġ19 52
à°®à°¹ à°¦
35 3
45 7
47 4
108 07201626
108 082015138
128 092015156
117 072015130
114 09201515
114 11201633
130 072017445
120 0820174
120 0920163
1120 9201515
115 12201634
123 11201749
1200820174 54
à°¡ à°²à°²
Ġà°µ à°¡à°ª
à°Ĩ à°ľ
10 10620162
11 10820151
12 10820151
Ġà°īà°ª à°ķà°°à°£
25 5
28 1
27 9
39 1
à°¯à°ªà°¡ à°Ł
108 052015107
108 102016320
109 11201517
110 062017424
106 0520162
118 062017427
119 08201745
128 06201743
117 06201625
129 082017457
130 08201630
1230 720151
1250 820174
1050 720174
1120 52015108
102 10201747
Ġà°¸à°µà°°à°£ à°ķ
11201 201735
11102 201736
11109 201746
1250820174 56
Ġà°° à°¹à°®
à°¹ à°²à°¨
Ġà°ħà°¨ à°Ĺà°²
ÂłÂłÂłĠ ÂłÂłÂłÂłÂłÂłÂłÂłÂł
à°¯à°¨ à°Ĺ
10 11020163
10 10620174
10 111201748
11 101201735
Ġà°İà°¨ à°ķ
30 9
à°®à°ķ à°¸
à°¾.. âĢĻ
13 112
25 9
28 7
Ġà°®à°² à°¬à°¦
107 082015137
ÂłÂłÂłÂłÂł ĠÂłčĊ
126 07201744
120 06201512
1130 9201515
1150 520174
112 12201518
1120151 74
Ġà°ķà°£ à°¤à°²
it y
à°Ńà°¯à°ªà°¡ à°ķ
13112 201635
5 38
à°¡ à°ªà°Ł
Ġà°Ĩ à°¯à°®
ÂłÂłÂłĠ ÂłÂłÂłÂłÂłÂłÂłÂłÂłÂłÂłÂłÂłÂłÂłÂłÂł
ÂłÂłÂłÂł ÂłÂłĠÂłčĊ
Ġà°ķà°¨ à°ªà°¡à°¤
11 10620162
à°¨à°¦ à°¯
à°¨à°¤ à°¤
27 1
27 3
35 1
47 5
58 8
108 01201735
109 12201518
109 04201739
124 1220175
1230 82017455
1250 420162
1250 8201630
105 112017486
Ġà°Ńà°°à°¤ à°¨
in an
o p
Ġ à±
à°¦ à°¦à°¯
à±ĭ à°ģ
à°® à°¥
à°Ĺ à°®à°µ
Ġà°ª à°Ĺà°¡
Ġà°ļ à°¯à°¨
Ġà°Ĺ à°³à°®
à°µà°° à°ªà°²
ÂłÂłĠ ÂłÂłÂłĠÂłÂłĠÂłĠÂłĠÂłĠÂłĠÂłĠÂłĠÂłĠÂłĠÂłĠÂłĠÂłĠÂłĠÂłĠÂłĠÂłĠÂłĠÂłĠÂłĠÂłĠÂłĠÂłĠÂłĠÂłĠÂł
à°¤à°¨ à°Ĺà°°
Ġà°ľà°° à°Ĺà°°
à°¸à°° à°Ł
11 10520162
Ġà°ħà°ª à°ļ
50 7
Ġ19 72
à°²à°¬à°¡ à°Ĺà°²
39 3
59 8
à°¤à°¤ à°¤
109 01201735
à°İà°µà°° à°¨
106 082017448
126 112017497
118 10201516
124 01201736
130 112015178
1020174 74
1250 2201737
1030 2201736
1150 620174
1020 4201739
Ġà°Ŀ à°³
122 112016337
12109 20163
à°ķ à°¨à°µà°¸à°°
à°µ à°¨à°Ł
à°§ à°¨à°ª
à°ĸ à°²à°¯
à°ĸ à°ķà°µ
à°« à°Ĺ
10 101201735
à°Łà°¨ à°Ĺà°°
Ġà°§ à°®
Ġà°ļà°¦ à°µà°¨
Ġ19 79
25 7
Ġ17 2
47 2
109 062017424
110 09201746
126 0920163
126 062016258
119 082016299
129 06201743
129 082015145
124 08201745
114 09201746
105 12201518
112 11201749
1020 52017406
1020 92015147
122 12201634
ĠÂłÂłĠÂłĠÂłĠÂłĠÂł ĠÂłĠÂłĠ
12011 201517
2 38
à°² à°¬à°°
à±ĭ âĢĮ
à°¸ à°²à°¯
Ġà°ħ à°ļà°Ł
Ġà°® à°¡à°ķ
à°¹ à°ªà°¤
Ġà°ħà°¨ à°µà°¸
à°ķà°° à°¤
12 10720174
Ġà°ªà°¡ à°ķà°®
à°¨à°ª à°°à°®
Ġà°īà°ª à°ĸ
à°Ī à°İ
à°Ī à°ı
07 6
à±ģ.. "
à°¢ à°µ
Ġ19 67
à°ªà°¦ à°¹
25 3
à±ĭ.. ?
109 112017488
à±į.... ...
117 12201750
129 062016259
124 0620162
124 07201513
1250 720151
112 12201634
1020 6201742
07201626 8
Ġà°ħà°µà°¯à°µ à°¦
Ġà°ķà°¨à°¬à°° à°ļ
62015 119
13101 201736
sp ot
? '
i on
à°ķ à°¬à°Ł
à°ª à°¶à°°
Ġà°µ à°°à°£
à°Łà°² à°µà°°à°ķ
11 1052015
11 110201516
Ġà°· à°·
Ġà°Ĩà°¶ à°²à°ª
à°²à°µ à°¬
Ġà°ĩà°¨ à°«
à°¦à°® à°¸
Ġà°¬à°¸ à°ļ
18 00
48 5
à°ĺà°Łà°¨ à°²à°ķ
57 4
59 2
109 072015127
110 11201517
106 112017487
Ġà°īà°° à°«
à°¿' ,
116 102017477
129 072015134
129 12201635
124 07201744
124 062017430
114 05201624
130 05201511
1250 920151
Ġà°ķà°¨à°ªà°¡ à°¡
Ġà°Ĳà°ķ à°®à°¤
........ ........
inan cial
111052015 108
1250920151 55
7 99
à°¿ à±ģ
âĢĮ à±ĥ
Ġà°¬ à°«
Ġà°¶ à°°à°Ń
Ġà°« à°²à°ª
Ġà°Ĵà°ķ à°ķ
à°ħ à°ķà°¸
à±ĭà°Ĥ .
10 10720174
30 7
ÂłÂłÂłÂłÂłÂłÂłÂłÂłÂłÂłÂłÂłÂłÂłÂł ÂłÂłÂłÂłÂł
à°²à°µ à°®
09 0
à±ģ! !!
05 6
05 7
01 2016
à°Ĵ à°¬
13 10520162
Ġ12 1
26 7
47 6
46 5
109 03201737
110 08201629
106 12201634
ĠĠĠĠ ĠĠĠ
126 1220175
126 01201736
127 08201514
129 09201747
124 09201746
86 0
1250 9201746
1130 62017425
1030 6201742
1050 520174
1220 92015154
103 20159
113 12201634
0920163 17
ĠÂłÂłĠÂłĠÂłĠÂłĠÂł ĠÂłĠÂł
ro log
11109 201630
2 14
= =
à°Ł à°Ĺà°¡
à°® à°ĺ
à°¬ à°°à°®
Ġà°² à°¸
10 10520174
12 10520162
Ġà°ħà°ª à°¹à°°à°£
à°Ĺà°² à°®à°¨
à°Ĳ à°Ĳà°²
à°®à°ķ à°¥à°²
à°¡à°¨ à°Ĺ
à°°à°Ĺ à°µà°ļ
106 03201737
104 07201626
104 102016318
129 042016234
114 10201516
130 10201516
1230 62016257
1130 5201624
1150 3201738
th ef
125 122015188
ÂłÂłÂłĠÂłÂłĠÂłĠÂłĠÂłĠÂłĠÂłĠÂłĠÂłĠÂł ĠÂł
ÂłÂłĠÂłÂł ĠÂłĠÂłĠÂłĠÂłĠÂłĠÂłĠÂłĠÂłĠÂłĠÂłĠÂłĠÂłĠÂłĠÂłĠÂłĠÂł
52015 10
ĠÂłÂłĠÂłĠÂłĠÂłĠÂł ĠÂł
220158 7
1201120174 94
1250420174 03
rolog er
3 10
à°° à°ļà°°
à°¯ à°¬à°°
à±Ī à±ģ
... !
Ġà°ķà°² à°Ĺà°¦
Ġà°ľà°° à°Ĺà°µ
à°¤à°° à°¨
11 1072015
à°¿! !!
à±ģ? ...
à±į! !
13 10520174
27 7
37 1
108 06201742
106 04201739
116 09201630
127 08201630
114 0720174
1120174 85
120 03201738
1230 8201630
1130 520174
112 11201633
à°¦à°ķà°° à°®à°¨
Ġà°¸à°¤à°® à°¤à°®
12102 201737
à°ĸà°ķà°µ à°³
1210720174 4
111072015 128
4 08
i m
à°¦ à°·
à°ļ à°Ń
201 0
10 10820151
11 111201748
12 10920151
à°¯à°¡ à°®à°¨
à°Łà°ķ à°¶
Ġ15 3
18 1
22 1
58 7
57 5
ĠĠĠĠ ĠĠ
118 12201518
118 062015120
119 11201749
119 02201737
119 08201514
128 08201630
128 072015134
128 122016350
1250 620162
1130 1201735
1050 9201746
1220 920163
103 112016329
1120 82016296
Ġà°¨à°°à°ķ à°®
à±¦à±¦ à±¦
thef inancial
1250620162 58
Ġ v
à±ĩ /
à°ª à°¥à°ķ
ÂłÂł ÂłÂłÂłĠčĊ
Ġà°Ĩ à°ªà°Ł
20 07
à°µà°° à°£à°²
Ġà°¹ à°°à°¨
à°¦à°° à°ªà°¡à°ķ
10 1072015
Ġà°Ĩà°° à°¨
Ġà°¤à°² à°°
Ġà°ĸ à°¯
Ġà°¨à°µ à°²à°ķ
Ġà°Ĭ à°¤à°ª
Ġà°¤à°Ĺ à°¨
Ġ3 20
Ġà°Ĩà°Ĺ à°Ĺ
Ġ5 50
à°§à°¨ à°²à°ª
19 1
à°Ĥ! '
109 022017367
à±ģ' ,
128 052016246
ÂłÂłÂłĠÂłÂłÂł ĠÂłĠÂłĠÂłĠÂłĠÂłĠÂłĠÂłĠÂłĠÂłĠÂłĠÂłĠÂłĠÂłĠÂłĠÂłĠÂłĠÂłĠÂłĠÂłĠÂłĠÂłĠÂłĠÂłĠÂłĠÂłĠÂłĠÂłĠÂłĠÂłĠÂłĠÂłĠÂł
117 02201737
117 08201745
130 042017405
à±įâĢĻ .
1250 520174
1220 62017429
10102 201736
Ġà°¤à°³à°¤ à°³
ub e
H E
à°¤ à°ªà°¦
à°¿. !
à°¦à°° à°¹
Ġà°¡ à°µ
Ġà°ªà°° à°²
à°ħ à°Łà°µ
à°¸à°° à°¡
à°²à°¯ à°ľ
Ġ: ---
03 201596
56 4
à°ļà°Ĺà°² à°°à°¨
à°İà°µà°° à°¦
106 12201518
127 06201743
118 10201632
129 10201516
114 09201630
1030 92017459
1150 52015109
1020 72015
ÂłÂłÂłĠÂłÂłÂłĠÂłÂłÂł ĠÂłĠÂłĠÂłĠÂłĠÂłĠÂłĠÂłĠÂłĠÂłĠÂłĠÂłĠÂł
123 102016325
à°Ńà°ľ à°¨à°¨
re s
ÂłÂłĠÂłÂłÂłĠÂłÂłÂłĠÂłÂłÂłÂłÂłÂłÂłÂłÂłÂłÂłÂłÂłÂłÂłÂł ÂłÂłÂłÂłÂłÂłÂłÂłÂłÂłÂłÂł
ÂłÂłĠÂłÂłÂłĠÂłÂłÂłÂłÂłÂłÂłÂłÂłÂłÂłÂłÂłÂłÂłÂł ÂłÂłÂłÂłÂł
à±ĩ à°ģ
à°¡ à°ľ
Ġà°ħ à°¥à°°
Ġà°¤ à°°à°®
à°Ń à°£
à°ķà°° à°ª
Ġà°Ł à°«
à°« à°¤
ut ube
Ġà°ķà°² à°µà°Ł
Ġà°®à°¨ à°¬à°¡
10 10320162
à°¯à°¤ à°Ĺà°²
Ġà°ķà°° à°¡
à°Ī à°Ĺ
05 8
Ġ20 30
à°®à°£ à°®
29 1
29 3
23 3
46 7
à°ļà°Ĺà°² à°®
109 052015107
110 12201518
à°Ĺà°ľ à°ªà°¤
116 11201517
129 01201736
124 0420174
130 09201747
76 0
1030 7201626
0820162 95
042015 104
as t
yo utube
Ġ ÂłÂłĠ
à°² à°Ĺà°°
à°¸ à°°à°ķ
Ġà°µ à°¡à°²
à°· à°µà°²à°¯
à°§ à°°à°²
Ġà°ĩ à°¤à°Ĺ
à°¥ à°¡
Ġà°¶ à°Ń
à°« à°²à°¯à°¤
Ġà°ķà°² à°µà°ķ
à°ĩ à°Ĺ
à°¤à°ķ à°³
Ġà°Ĩà°¶ à°ª
Ġà°¬à°¯à°Ł à°µ
07 0
Ġà°Ĩà°Ĺ à°·
à°°à°Ĺ à°Ĺ
à°¯à°µà°¸ à°°à°®
Ġà°§à°° à°²à°¤
Ġà°Ĺà°¦ à°®
à±ĩ.. ?
ÂłÂłÂłĠÂłÂłÂłĠ ÂłÂłÂłĠÂłÂłÂłÂłÂłÂłÂłÂłÂłÂłÂłÂłÂłÂłÂłÂłÂłÂłÂłÂłÂłÂłÂłÂłÂłÂłÂłÂłÂłÂłÂłÂł
45 5
à±ģ' .
110 0520162
Ġà°ħà°ľ à°¹à°°
116 0720174
127 02201737
127 052016246
1220 520162
1020 620162
102 122015179
09201630 7
Ġà°¸à°¤à°® à°¤à°®à°¯
11004201739 6
4 06
à°¿ âĢĵ
à°¤ à°¤à°°
à°ª à°®à°ķ
Ġà°¨ à°ĸ
à°¹ à°®à°¨
Ġà°¶ à°²
Ġà°¶ à°¯à°¨
ÂłÂłÂłĠ ÂłÂłÂłÂłÂłÂłÂłÂłÂłÂłÂłÂłÂłÂłÂł
à°ħ à°¨à°ķ
11 10620174
Ġà°İà°¦ à°Ĺà°²
Ġ3 65
Ġ4 000
07 4
09 8
19 7
22 3
59 6
Ġà°ķà°µ à°³
107 12201518
109 062015117
110 07201626
126 08201630
127 072017444
118 09201746
118 042017400
128 112016339
86 7
120 02201737
Ġà°¨à°Łà°¨ à°¨
à°ħà°¸ à°¹à°¨
Ġa n
123 10201748
an g
1110820151 39
8 76
à±Ģ à±ģ
à°°à°® à°¹
Ġà°¯ à°²à°®
11 11120163
à°¤à°² à°¬
à°ŀ à°¯
13 10720174
36 3
108 11201517
109 082015138
110 02201620
106 01201619
118 062016255
130 03201739
120 0420174
à±Ĥ? '
1230 5201511
105 112016330
1050 8201629
125 1220175
122 122015187
Ġà°®à°Ĺà°¤ à°Ĺ
1010820174 46
N D
b log
à°¤ à°°à°¸
à°¡ à°Ń
à°ª à°ªà°¡
Ġà°® à°¥
à°¹ à°³
Ġà°ľ à°²à°Ĺ
à°µà°° à°ķà°²
Ġà°Ĵ à°²à°ķà°¬
Ġà°Ł à°¯
à°®à°¨ à°Ł
à°¯à°ķ à°¤à°¨
10 10820162
Ġà°¤à°² à°Ĺ
à°¨à°¨ à°¨
à°ķà°¨ à°ķà°®
Ġ3 71
à°ľà°® à°µ
Ġ14 2
49 7
55 4
107 11201748
106 06201742
104 02201736
104 11201516
99 7
118 08201514
114 062017426
130 07201629
1030 4201739
1150 9201630
à°Ńà°¨ à°·
113 10201632
à°µà°Ĺà°² à°°
Ġc h
12109 201746
1250420162 33
Ġ à±ģ
à±ģ à±įâĢĮ
à°ª à°ľà°¯
Ġà°ª à°¹à°°
à±įâĢĮ âĢĺ
Ġà°ļ à°Łà°°
Ġà°¦ à°²à°ļ
à°¹ à°¨à°²
20 09
à±ĩà°Ĥ ..
Ġà°ķà°² à°¤à°²
Ġà°ħà°° à°µà°Ł
12 112201750
Ġà°ªà°¡ à°µà°¨
Ġà°¸à°¹ à°µ
03 2
à±ģ? :
à°¡à°ķ à°²à°²
13 11220151
Ġ12 9
à±įâĢĮ) -
à°¦à°¯ à°Ĺ
38 5
à°ĵ à°Ĩà°°
119 04201623
129 03201739
à±į) :
Ġa l
420162 32
ÂłÂłĠÂłÂłÂłĠÂłÂłÂłĠÂłÂłÂłÂłÂłÂłÂłÂłÂłÂłÂłÂłÂłÂłÂłÂł ÂłÂłÂłÂłÂłÂłÂłÂłÂłÂłÂł
Ġà°µà°¡à°Ĺ à°³
Ġ ā
Ġ ă
à°¤ à°¶à°ķ
à°Ł à°¦à°¨
Ġà°ķ à°°à°®
Ġà°Ĩ à°ĺà°®
à°ĸ à°Ĺ
à°µà°¡ à°²
à°µà°¨ à°¸
30 1
à°¨à°ª à°³
à°¾! âĢĻ
04 20159
à°³à°¨ à°²à°¨
38 3
38 9
23 1
Ġ17 1
46 9
54 2
à°ļà°Ĺà°² à°¦à°¨
109 02201620
106 072015126
124 07201627
77 7
1250 7201627
72015 128
12107 20151
blog spot
? ?
Ġ ÂłÂłÂłÂłÂłÂłÂłÂłÂłÂłÂłÂłÂłÂłÂłÂłÂł
Ġ or
à°¨ à°¤à°°à°¹
à°¦ à°¶à°ķ
à°Ł à°Łà°®
à°® à°°à°¨
à°Ĺ à°¨à°®
à°£ à°ķà°²
à°¹ à°¡
Ġà°ħà°¨ à°ķà°ª
à°Ń à°ªà°°
20 08
à°¤à°² à°¦
à°¬à°¡ à°Ł
à°®à°° à°¥
09 9
à°¦à°ķ à°®
Ġà°¸à°² à°¸à°²
58 4
106 062016250
118 05201624
128 102016327
ÂłÂłÂłĠÂłÂłÂł ĠÂłĠÂłĠÂłĠÂłĠÂłĠÂłĠÂłĠÂłĠÂłĠÂłĠÂłĠÂłĠÂłĠÂłĠÂłĠÂłĠÂłĠÂłĠÂłĠÂłĠÂłĠÂłĠÂłĠÂł
130 012016
Ġà°¬à°²à°® à°¯
1030 320162
1050 2201736
1120 820151
1120 6201625
1120 62017425
à°ªà°Ĺà°² à°¦
072015 12
Ġc on
12201 201619
13107 20162
32015 94
3 35
à°¦ à°ķà°¡
à°Ĺ à°¨à°ķ
à±Ģ âĢĵ
à±Ĩ ?
Ġà°µ à°ķà°Ł
à±ģ. ,
à°²à°ķ à°£
11 112201634
Ġà°ªà°¡ à°®à°°
Ġà°ħà°Ń à°¯à°®
à°§à°¨ à°¶
Ġ19 76
28 3
Ġ13 1
109 06201625
109 092015150
Ġà°Ķ à°·
104 09201630
104 102015158
119 112016335
114 12201518
130 092015156
130 122017513
à°µà°²à°¨ à°¨
120 07201513
98 0
1030 92015147
Ġ| "
Ġà°ħà°¡à°Ĺ à°Ĺ
122 10201516
à°Łà°Ĺà°² à°°
Ġà°ľà°¤ à°ķà°²
Ġw ith
Ġà°®à°¸à°ķ à°¬
i a
l d
Ġ V
à°¯ à°ªà°¦
à±Ĩ à±ģ
Ġà°¸ à°£
Ġà°¦ à°¯à°¤à°²
à°°à°§ à°¨
Ġà°¨à°¡ à°ªà°Ł
à°ŀ à°µ
06 0
Ġà°¬à°² à°µà°°
34 1
Ġ13 3
à°¦à°¤ à°¡
107 062016250
à°¾.... !
110 052017409
127 092016316
118 12201634
117 072016267
à°¾âĢĻ .
1250 920163
1130 3201738
1050 62015116
1220 720151
97 0
à°¡à°Ĺà°² à°µ
à°¨à°¬à°¡ à°Ł
125 102016326
om e
620162 49
320158 9
ĠÂłÂłÂłĠ ÂłÂłĠÂłÂł
101072015 12
Ġ ÂłÂłÂłÂłÂłÂłÂłÂłÂłÂłÂłÂł
à°¤ à°ªà°°à°ļ
Âł ĠÂłĠÂłĠÂłĠÂłĠÂłĠÂłĠÂłĠÂł
à°¯ à°Ĩà°°
à°ª à°ķà°°à°£
à°Ĺ à°µà°²à°¸
Ġà°Ĺ à°°à°µà°¯
Ġà°ľ à°µà°¸à°¤
Ġ2 25
à°µà°¨ à°µ
30 00
Ġà°¨à°¡ à°ķà°¦
Ġà°ľà°¨ à°ļ
37 3
48 3
107 01201619
106 02201620
104 12201634
127 06201512
127 112015177
127 072016276
117 04201510
114 0520174
78 0
1230 1201736
1230 42017402
1130 8201745
1130 72015129
1020 9201630
à°ķà°ļ à°ļ
à±ģ_ "
1310720151 35
à°² à°¬à°Ł
Âł ĠÂłĠÂłĠÂłĠÂłĠÂłĠÂłĠÂłĠÂłĠÂłĠÂłĠÂłĠÂł
à°ª à°°à°ķ
Ġà°¬ à°®
Ġà°İ à°ļ
à°Ń à°§
Ġà°Ń à°ľà°¨à°²
Ġ1 39
Ġà°ħà°¯ à°¸
Ġà°ħà°¦ à°¯
Ġà°ªà°¡ à°¸
à°µà°¨ à°ªà°°
Ġà°§ à°¨à°°
Ġà°ĸ à°Ĺ
02 7
02 8
Ġ20 50
Ġà°Ĩà°¹ à°µà°¨
à±ĩ... ?"
à°ĵ à°ı
47 3
58 2
58 9
57 9
104 02201620
116 08201514
116 122016346
119 1220151
1120174 95
1220 8201745
1120 3201738
125 112017496
Ġa re
Ġà°ľà°¨à°¸ à°®
320162 17
ÂłÂłĠÂłÂłÂłĠÂłÂłÂłÂłÂłÂłÂłÂłÂłÂłÂłÂłÂłÂłÂłÂł ÂłÂłÂłÂłÂłÂłÂł
11201 201619
12102 2015
10103201737 6
1201120163 36
1311220151 9
Ġà°µ à°¶à°®
âĢĮ `
à°· à°¸à°°
à°§ à°µà°ķ
Ġà°¦ à°¯à°¤
à°£ à°Ĺà°£
à°²à°¨ à°®
à°¦à°° à°Ł
Ġà°· à°°à°ª
à°¨à°ķ à°³
à°µà°¹ à°ķ
Ġà°Ĭ à°¦à°°à°Ĺ
à°³à°ķ à°¦
24 1
26 3
36 1
49 1
56 2
56 7
47 1
à°¿' .
117 09201746
124 0220162
1230 9201515
1130 52015109
79 0
ÂłÂłĠÂłÂłÂłĠÂłÂłÂł ĠÂłĠÂłĠÂłĠÂłĠÂłĠÂłĠÂłĠÂłĠÂłĠÂłĠÂłĠÂłĠÂłĠÂłĠÂłĠÂłĠÂłĠÂłĠÂłĠÂł
12112201634 8
4 04
à°¨ à°¡à°¨
à°¦ à°µà°¡
à°µ à°ľà°¸
à°® à°¹à°°
Ġà°ħ à°®à°¨
à°ľ à°°à°¸
Ġà°ı à°¤
à°¤à°¨ à°¦
Ġà°ĵ à°ľ
à°¸à°° à°ª
12 11220151
à°µà°¤ à°¤
à°ĩ à°ķà°¨
50 5
Ġ3 500
09 6
06 6
06 9
Ġà°ħà°Ĺ à°ļ
57 7
Ġà°Ńà°¯à°ªà°¡ à°²
127 01201736
127 052017419
118 11201517
128 01201620
124 06201512
114 1020163
114 08201745
76 8
88 8
1130 820151
1130 1201619
1050 820151
1120 72015128
ÂłÂłÂłĠÂłÂłÂłĠÂłÂłÂłÂłÂłÂłÂłÂłÂłÂłÂłÂłÂłÂłÂłÂłÂłÂłÂłÂłÂłÂłÂłÂłÂłÂłÂłÂłÂłÂłÂłÂł ÂłÂł
0820162 94
123 11201517
Ġà°Ĺà°Ĺà°¨ à°¤à°²
10511201516 9
11404201739 8
à°¨ à°¥
à°¤ à°ķà°ª
à°¦ à°¸à°²
à°µ à°ķà°¨
Ġà°ķ à°ľà°ķ
Ġà°® à°¤à°²à°¬
Ġà°ļ à°°à°®
Ġà°Ĺ à°£à°®
12 10320162
à°Ĺà°¨ à°Ĺ
09 2
Ġà°¬à°¸ à°µà°¯
26 9
58 6
Ġ28 0
126 07201513
119 042016230
124 08201514
124 112015176
114 06201625
130 01201736
88 9
1150 8201514
1220 42016232
Ġà°ľà°²à°® à°¯à°®à°¯
er s
ĠÂłÂłĠÂłĠÂłĠÂłĠÂł Ġ
0 30
4 28
à°µ à°ķà°²
à°® à°Ĺà°²
à°Ĺ à°®à°²
Ġà°ķ à°¸à°²
à°· à°¹
Ġà°Ĩ à°¯à°¤
à°¬ à°°à°¤
à°¶ à°²à°¤
20 04
Ġà°¶ à°¯
Ġà°Ĵà°ķ à°¤
Ġà°§ à°Ĺ
à°ı à°¦à°¯
à°ªà°² à°µ
à°ĺ à°¨à°ķ
Ġà°¸à°®à°¯ à°ª
à°ľà°¯ à°®à°¨
à°¡à°µ à°µ
Ġ19 74
Ġ14 7
59 4
à°°à°ķà°Łà°¨ à°²à°ķ
107 11201517
109 102016320
110 0820174
Ġà°Ńà°¯à°ªà°¡ à°¨
104 062015116
116 042017399
119 05201511
77 8
78 9
à±ĢâĢĻ ,
1050 52015
0320162 18
ou r
à°¸à°°à°¸ à°²
12012 20151
10109 20174
120122017 509
1191220151 86
105052015 106
Ġ @
Ġ Y
à°¾ ;
à°° à°°à°¤
à°Ĥ âĢĺ
à±ĩ à±ģ
Ġà°µ à°°à°¸à°ķ
à°· à°Ł
Ġà°Ĺ à°²à°Ĺ
à°ĸ à°°à°¨
à°ĸ à°²à°ª
à°°à°ķ à°ķà°ª
à°ªà°¡ à°ķà°ª
à°¤à°° à°ļ
Ġà°ħà°° à°µà°¯
Ġà°ħà°¡ à°²
à°µà°¤ à°µ
Ġà°· à°¹
à°Ĺà°¤ à°ľ
Ġà°ªà°² à°®à°¨
Ġ3 30
02 5
à°°à°Ĺ à°µ
Ġà°¨à°² à°¬
Ġ19 45
Ġ15 8
à°ħà°µ à°®
45 3
Ġà°¶à°¤ à°ľà°¯
108 02201736
108 06201625
107 082017448
127 09201515
117 02201620
Ġ26 0
1250 220162
Ġà°ł à°ª
1150 5201624
1050 420162
1220 8201630
1220 6201512
102 112017485
052015 109
Ġà°°à°ļà°¨ à°ķ
13103 201596
11204201739 7
1240920163 14
7 76
Ġ k
à°ļ à°¤à°²à°ª
à±Ĩ )
à±Ĩ !"
à±Ĥ (
à±ģ. ......"
Ġà°ī à°®à°¨
Ġà°¶ à°µà°ª
à°ħ à°ľà°¯
à°ĩ à°Łà°²
à°¨à°² à°¡
26 1
Ġà°Ĺà°Ł à°Ĺà°Ł
46 3
57 1
57 2
107 112016330
118 072015130
119 112015174
114 01201735
1250 1201619
à°¶à°¨à°® à°¯
11507201626 6
108012015 75
7 20162
à°¦ à°Ńà°°
à°¯ à°ªà°Ł
à±Ģ à°ģ
Ġà°ķ à°°à°ª
à±įâĢĮ ....
à°§ à°ķà°¤
à°¹ à°¨à°µ
Ġà°ı à°¹
à±ĩà°Ĥ ....
Ġà°ħà°µ à°¤à°°à°£
Ġà°ĵ à°Ŀ
Ġà°¸à°° à°³à°ķ
12 11020163
à°Ĺà°² à°°à°¨
à°¨à°ķ à°Ĺ
Ġà°Ĳ à°¨à°µ
à°²à°µ à°ķà°ª
05 9
03 4
à°ªà°¦ à°Ĺ
à°ªà°¦ à°®à°¨
à°Ĵ à°¨
34 3
Ġ14 6
à°ĵ à°Łà°®
à°£à°® à°§
56 5
47 7
58 5
à°Ĺà°¸ à°Ńà°²
107 022017366
109 10201516
Ġà°Ĩà°ļ à°°à°£à°ķ
127 10201516
127 05201511
114 0320162
Ġà°ĩà°® à°¡à°²
1030 72015
1050 72015
115 11201517
à°¿_ "
al l
10104 20162
Ġà°¦à°¡à°¦ à°¡
10201 201735
12303201738 6
1210520162 4
105072015 126
" ....
3 16
9 18
l ine
à±ĭ /
à°¯ à°ªà°ķ
âĢĮ âĢĮ
à°£ à°§
à°¾à°Ĥ -"
Ġ" -
à°°à°ķ à°¬
à°°à°µ à°³
12 10520174
à°ļà°¨ à°²à°²
à°ľà°¨ à°µ
à°¨à°µ à°¦
à°¿.. "
02 4
01 6
à°¿! ?
à°°à°¬ à°Ł
à°¡à°¦ à°µ
à°¡à°ķ à°®
13 10820151
55 2
108 052017408
110 06201625
à°İà°µà°° à°¯
116 10201632
116 072015130
119 05201624
128 052017419
86 3
120 09201515
1030 220158
1030 1201619
112 10201747
à°¯à°¤à°¨ à°Ĺà°°
79 2
ÂłÂłĠÂłÂłÂłĠÂłÂłÂłĠÂłÂłÂłÂłÂłÂłÂłÂłÂłÂłÂłÂłÂłÂłÂłÂł ÂłÂłÂłÂłÂłÂłÂłÂłÂłÂłÂłÂłÂł
Ġh ttp
à°¸à°Ĳ à°Ĳà°¸
1311020174 84
032015 95
3 39
9 50
à°¨ à°¸à°°
à±ĭ ),
à°¡ à°¦à°Ł
à°® à°°à°¯
Ġà°ķ à°°à°ķà°Ł
à°¹ à°°à°®
Ġà°² à°¤à°²
à°¥ à°ķà°®
Ġ1 37
Ġà°¤à°¨ à°ĸ
à°ħ à°·
à°¯à°² à°µ
Ġ3 70
à°²à°Ĺ à°¬
à°ķà°¤ à°²à°¨
Ġ17 00
108 052016238
à°¸à°¹ à°ķ
127 112016339
à°°à°®à°£ à°¦
96 0
77 0
à°ļà°¬à°¡ à°¤
1150 72015129
1150 62015119
1050 1201619
Ġà°ħà°¨à°µà°¸à°° à°ª
th y
113 12201518
10601201735 4
o s
u m
u nd
à°¨ à°°à°¨
à±ĭ âĢĻâĢĻ
à°Ł à°ķà°¨
à°¯ à°¦à°Ĺ
à°¸ à°«à°°
à±ģ. Ă
Ġà°¬ à°ł
Ġà°Ĩà°® à°¡
Ġà°ķà°¨ à°ªà°°
à°Łà°¨ à°ª
Ġà°īà°ª à°¶
Ġà°¨à°¡ à°µà°¨
02 6
01 9
Ġà°Ńà°¯ à°Ńà°ķ
Ġà°Ĩà°ª à°®à°¨
Ġà°īà°¦à°¯ à°Ń
48 1
49 3
56 9
108 032016215
109 052016238
126 02201588
1050 320162
1020 320162
1120 42016228
1120 62015118
ÂłÂłÂłĠÂłÂłÂłÂłÂłÂłÂłÂłÂłÂłÂłÂłÂłÂłÂłÂł ÂłÂłÂłÂłÂłÂłÂłÂł
Ġà°°à°£ à°¬
1150720174 39
2 16
u p
Ġ X
à°ķ à°µà°¡
à°¤ à°µà°¡
à°Ł à°¸à°Ń
à°ª à°°à°¸
Ġà°Ĺ à°ľà°°
Ġà°Ł à°ķà°Łà°ķ
à°®à°¨ à°®à°¨
Ġ1 34
12 10820174
12 105201511
à°ľà°¨ à°ķà°°
Ġà°ħà°¸ à°®à°¤
à°²à°® à°¹
08 2
Ġà°¸à°®à°¯ à°®à°¨
à°Łà°ķ à°®à°¨
à°ŀ à°Ĺ
à°ŀ à°ķà°°
05 2
06 8
01 4
01 8
Ġ19 57
à°²à°¡ à°¬
Ġà°Ľ à°Ł
Ġà°ķà°¡ à°ªà°ķ
46 1
108 08201629
107 072015126
116 05201624
128 03201739
117 01201619
114 01201619
1130 82016297
1050 6201742
Ġà°µà°¶ à°ªà°°à°ļ
! ...
3 37
a v
e m
à°ķ à°¥à°¨
à°¯ à°³
à°¸ à°µà°°
à°µ à°¸à°²
ÂłÂł ĠÂłĠÂłĠÂł
ÂłÂł ĠÂłĠÂłĠÂłĠÂłĠÂłĠÂłĠÂłĠÂłĠÂłĠÂłĠÂłĠÂłĠÂłĠÂłĠÂłĠÂłĠÂłĠÂłĠÂłĠÂłĠÂłĠÂłĠÂłĠÂł
Ġà°® à°²à°µ
à±ģ. ā
à°Ń à°¶
à°µà°° à°¶
10 111
10 101201619
à°ı à°İà°«
à°¤à°ķ à°®à°£
à°®à°² à°ªà°²
à°Ĳ à°Ĺ
08 4
07 2
09 4
à±ģ! ?
06 4
à°ªà°¨ à°¤
à°°à°Ĺ à°£
à°Ĵ à°¹
à°§à°ªà°¡ à°¨
110 082015138
106 04201598
à°¯à°Ĺà°² à°°à°¨
126 0820151
126 092017469
117 102017477
à°°à°ªà°¡ à°Ł
Ġà°ķà°®à°² à°®
88 4
1230 1201619
1050 220158
ÂłÂłÂłĠÂłÂłÂłĠÂłÂłÂł ĠÂłĠÂłĠÂłĠÂłĠÂłĠÂłĠÂłĠÂłĠÂłĠÂłĠÂłĠÂłĠÂłĠÂłĠÂłĠÂł
12104 2015
11101201735 6
10111 201516
0 10
2 25
h t
Ġ Ą
Ġ ÂłÂłÂłĠÂłÂłÂłĠÂłÂłÂł
à°° à°ķà°°à°ķ
20 20
à°²à°ķ à°²à°Ĺ
Ġà°Ń à°¯à°ķ
ÂłÂłÂłĠ ÂłÂłÂłÂłÂłÂłÂłÂłÂłÂłÂłÂłÂł
Ġà°¯ à°ľà°¨
Ġà°¤à°¨ à°Ĺà°¦
à°ķà°¡ à°ªà°¡
à°°à°Ń à°µ
à°²à°¤ à°¤
12 1062015
à°Łà°¨ à°¨
Ġ( âĢĺ
à°µà°¨ à°ľ
Ġà°§ à°°à°ª
à°¨à°¦ à°Ĺ
50 1
08 8
Ġà°Ĩà°¡ à°ķà°ª
Ġ19 73
à°Ľ à°µ
Ġ16 5
59 7
106 092015149
104 07201512
128 082017457
117 09201515
129 052017419
114 08201514
86 4
à°Ĥ.... ...
78 7
1030 62016249
11201 201576
121062015 12
2 12
à°¨ à°«
à°® à°Ńà°¦
à±Ģ ;
Ġà°ļ à°²à°µ
à°¥ à°°à°¹
à°¯à°ķ à°®à°¨
à°¯à°ķ à°ļà°µ
Ġà°¤à°° à°Ĺ
à°°à°£ à°Ĺ
ÂłÂłÂłÂłÂłÂłÂłÂłÂłÂłÂłÂłÂłÂłÂłÂł ÂłÂłÂłÂł
ÂłÂłÂłÂłÂłÂłÂłÂłÂłÂłÂłÂłÂłÂłÂłÂł ÂłÂłÂłÂłÂłÂłÂłÂł
Ġ3 40
à°²à°Ĺ à°¦
03 6
Ġ19 46
Ġ19 68
Ġ8 50
16 00
à°¿- -
59 1
108 01201619
107 072017436
119 062015120
119 062017428
119 02201586
117 012017358
129 052016247
à°¯à°Łà°¨ à°ª
114 052015109
à°¿..... ?
1250 620174
1250 6201512
1250 3201622
1050 2201620
1220 320162
0920151 53
Ġà°¸à°°à°³ à°°
11102 20158
11812201750 8
1100520162 39
4 30
E R
à°² à°§
à°² à°°à°ķ
Âł ĠÂłÂłÂł
Ġà°® à°·
à±ģ. !
Ġà°° à°£à°µ
à°§ à°¹à°¸
à°¹ à°ļà°°
à°¥ à°®à°¨
à°µà°° à°ªà°¡
... ?
Ġà°ĵ à°¬à°°
à°¬à°° à°°
à°ĺ à°¨à°²
ÂłÂłÂłÂłÂłÂłÂłÂłÂłÂłÂłÂłÂłÂłÂłÂł ÂłÂłÂł
Ġà°¨à°¡ à°ķà°¨
08 6
07 8
à°¶à°ķ à°®
à°ķà°°à°£ à°²à°ª
Ġ15 9
Ġà°ķà°¥ à°²à°ķ
38 1
Ġà°īà°¦à°¯ à°ļ
à°¹à°¦ à°ªà°¡à°¤
116 08201745
118 0520151
117 082016298
129 0220162
77 4
à°¸à°¨à°¸ à°Ńà°ķ
1220 7201627
à°¨à°ķà°² à°¯
ÂłÂłÂłĠÂłÂłĠÂłĠÂłĠÂłĠÂłĠÂłĠÂłĠÂłĠÂłĠÂłĠÂłĠÂłĠÂł ĠÂłÂł
Ġà°ªà°¥ à°ķà°®
11104 2015
10201 201619
1221220175 10
10109201630 4
10803201737 9
Ġà°ħà°¨à°µà°¸ à°°à°®à°¨
1220520162 44
5 40
i v
à°ķ à°¦à°²
à°¡ à°¡à°¨
à°ª à°ł
à°ļ à°°à°£à°ķ
Ġà°® à°¶
à°ľ à°²à°®
Ġà°Ĺ à°°à°Ĺ
Ġà°ľ à°²à°¯à°ľ
Ġà°« à°ķà°°
Ġà°¤à°¨ à°Ĺ
10 1062015
à°ķà°² à°¹
Ġà°¤à°° à°Ĺà°¨
12 101201619
à°Ĳ à°İà°«
04 4
04 6
06 2
à°¿? :
Ġ19 66
Ġ14 3
107 0620174
107 052016238
106 052015106
116 02201620
119 0920163
Ġà°°à°®à°£ à°¨
86 9
1120163 33
97 4
1120 320162
à°¨à°¬ à°¡à°²
ÂłÂłÂłĠÂłÂłÂłĠÂłÂłÂł ĠÂłĠÂłĠÂłĠÂłĠÂłĠÂłĠÂłĠÂłĠÂłĠÂłĠÂłĠÂłĠÂłĠÂłĠÂłĠÂłĠÂłĠÂłĠÂłĠÂłĠÂłĠÂłĠÂłĠÂłĠÂłĠÂłĠÂłĠÂłĠÂłĠÂłĠÂłĠÂł
122 102016325
!! !
à°Łà°Ĺà°² à°¡
ĠÂłĠ ÂłÂłĠÂłÂł
Ġà°īà°Ń à°¯à°Ĺ
1100820174 50
à°¾ ||
à°¨ à°¡à°²
à°² à°µà°¡à°®
à°Ĺ à°¡à°¨
à°§ à°®à°Ĺ
Ġà°ī à°¦à°°
à°²à°¨ à°¯
Ġà°¤à°¨ à°¦à°Ĺ
Ġà°®à°¨ à°ļ
Ġà°®à°¨ à°²à°¨
à°¯à°² à°°
à°¸à°° à°µ
11 11020163
11 10320162
Ġà°ħà°ª à°¨
à°ı à°¤
Ġà°ĸ à°µ
à°Ĳ à°«
Ġà°īà°ª à°ª
Ġà°Ĩà°¶ à°²à°ķ
Ġà°µà°² à°¸à°µ
à°µà°ķ à°³
à°¾à°Ĥ. -
03 8
Ġà°Ĺà°¡ à°µ
Ġ19 51
Ġ16 3
57 3
107 0220158
99 5
126 01201619
126 062017430
128 1220175
117 09201630
à±ĩ.... ?
Ġà°¸à°¹à°ľ à°¤
1220 2201620
ÂłÂłÂłĠÂłÂłÂłÂłÂłÂłÂłÂłÂłÂłÂłÂłÂłÂłÂłÂł ÂłÂłÂłÂłÂłÂłÂłÂłÂłÂłÂłÂł
ÂłÂłÂłĠÂłÂłÂłĠÂłÂłÂłÂłÂłÂłÂłÂłÂłÂłÂłÂłÂłÂłÂłÂłÂłÂłÂłÂłÂłÂłÂłÂłÂłÂłÂłÂłÂłÂłÂłÂł ÂłÂłÂł
à°Ĳà°İ à°İà°²
Ġth at
ÂłÂłĠÂłÂłÂłĠÂłÂłÂłÂłÂłÂłÂłÂłÂłÂłÂłÂłÂłÂłÂłÂł ÂłÂłÂłÂłÂłÂł
11012201750 4
Ġà°ıà°Ĳ à°ıà°¡
à°ª à°®à°µ
Ġà°¸ à°Ł
à°ľ à°µà°°
Ġà°Ĺ à°«
20 05
à°ħ à°¦à°¨
Ġà°ĵ à°İà°¨
à°°à°ľ à°²à°®
11 111201517
Ġà°ªà°¡ à°µà°²à°¸
à°°à°¦ à°¤
04 8
03 5
02 2
02 9
Ġ8 500
Ġ9 44
à±įâĢĮâĢĻ !
à°¸à°® à°Ĺ
ÂłÂłÂłĠÂłÂłÂłĠ ÂłÂłÂłÂłÂłÂłÂłÂłÂłÂłÂłÂłÂłÂłÂłÂłÂł
Ġà°īà°¦à°¯ à°Ĺ
Ġ16 6
45 1
à±į... ?"
44 1
Ġà°µà°¡ à°¯
108 062015117
107 042016226
106 082016294
116 04201510
117 08201514
à°ģ ...
129 0120158
114 0220158
86 2
Ġà°ªà°°à°® à°ªà°¦
120 02201586
à°Ĥ) .
ĠÂłÂłĠÂłĠÂłĠÂłĠÂł ĠÂłĠÂłĠÂłĠ
ÂłÂłĠÂłĠÂłĠÂłĠÂł ĠÂłĠÂłĠÂł
il l
12110201516 4
11509201630 9
1141020163 22
7 88
h ra
à°¦ à°µà°¦
à°µ à°µà°¦
à°® à°ł
à°Ĺ à°®à°¤
à°ļ à°Ĺà°¡
Ġà°° à°ľà°¸
Ġà°Ĺ à°°à°²
20 02
à°İ à°İ
Ġà°¸à°® à°ª
à±ĩà°Ĥ !"
Ġà°®à°¨ à°µà°³
à°¤à°° à°ªà°¡
Ġà°ħà°² à°Ĺ
Ġ2 14
12 108201630
Ġà°¤à°² à°¯
Ġà°Ĩà°¦ à°®à°°à°ļ
Ġà°Ĭ à°¡à°¦
05 1
Ġà°ĺ à°ľ
Ġ20 5
à°Ľ à°ª
à°ĵ à°İà°¸
107 08201629
104 0320162
104 01201619
119 032016219
à°Ĥ? '
129 12201518
124 122016349
1030 8201629
105 12201634
1020 4201597
66 6
à°¨à°ªà°¡ à°Ł
ÂłÂłĠÂłÂłÂł ĠÂłĠÂłĠÂłĠÂłĠÂłĠÂłĠÂłĠÂłĠÂłĠÂłĠÂłĠÂł
11212201750 5
12503201738 7
4 20
j yo
à°¸ à°¹à°¸
à°Ĺ à°µà°¦
Ġà°® à°¥à°¨
à°¿. (
à°ľ à°ªà°°
à°¶ à°°à°£
à°§ à°¦
ÂłÂłÂł ĠÂłĠÂł
Ġà°¦ à°¡à°ª
Ġà°ı à°¬à°¦
Ġà°µà°ļ à°¨à°®
à°Ĺà°° à°£
Ġà°¸à°° à°³à°®
Ġ2 99
à°ªà°² à°°
à°²à°µ à°¬à°¡
Ġà°Ĺà°¡ à°ªà°ķ
ÂłÂłÂłĠÂłÂłÂłĠ ÂłÂłÂłÂłÂłÂłÂłÂłÂłÂłÂłÂłÂłÂłÂłÂłÂłÂłÂłÂłÂłÂłÂłÂłÂłÂłÂłÂłÂłÂłÂłÂłÂłÂłÂłÂłÂłÂłÂłÂłÂłÂłÂłÂłÂłÂłÂłÂłÂłÂłÂłÂłÂłÂłÂłÂłÂłÂłÂłÂłÂłÂłÂłÂł
à°ĵ à°Łà°°
109 01201619
109 072017436
104 0620174
104 08201629
à°¯à°Ĺà°² à°¦à°¨
116 062015119
127 0220162
118 04201510
ÂłÂłÂłĠÂłÂłÂł ĠÂłĠÂłĠÂłĠÂłĠÂłĠÂłĠÂłĠÂłĠÂłĠÂłĠÂłĠÂłĠÂłĠÂłĠÂłĠÂłĠÂłĠÂłĠÂłĠÂł
76 4
Ġà°°à°¸ à°ľ
1230 7201627
1030 820174
1020163 23
97 5
103 11201516
125 12201634
125 10201516
122 112017495
820151 43
Ġn ot
1201020163 24
11612201750 7
1010620162 48
2 13
2 15
e p
à°¨ à°§
à°° à°¥à°ķ
à°¤ à°£
à°Ł à°µà°¡
à°Ł à°ķà°°à°®
ÂłÂł ĠÂłĠÂłĠÂłĠÂłĠÂłĠÂłĠÂłĠÂłĠÂłĠÂłĠÂłĠÂłĠÂłĠÂłĠÂłĠÂł
Ġà°ķ à°®à°¨
Ġà°® à°½à°§
à°³ à°¬à°¡
Ġà°Ĺ à°¤à°®
à°¯à°¨ à°Ń
10 1052015
Ġà°ªà°¡ à°µà°ļ
à°°à°¹ à°¦
05 4
05 5
01 3
Ġà°Ĩà°ª à°¸
Ġà°Ĩà°ª à°Ĺà°²
Ġà°Ĵà°ķà°° à°ķà°®
ÂłÂłÂłÂłÂłÂłÂłÂłÂłÂłÂłÂłÂłÂłÂłÂłÂłÂłÂłÂłÂłÂłÂłÂłÂłÂłÂłÂłÂłÂłÂłÂł ÂłÂłÂłÂłÂłÂł
à°¯à°ªà°¡ à°¡
à°İà°µà°° à°¤à°¨
104 0220158
104 052017407
118 0320159
114 11201517
120 02201620
120 082016299
1050 9201630
1220 4201623
an a
Ġà°Ĩà°¬ à°Ĺ
Ġà°īà°Ń à°¯à°¸à°Ńà°²
12209201746 7
u c
Ġ lo
à°ķ à°ł
à°¦ à°¦à°¨
à°ª à°°à°¨
Ġà°ļ à°®à°Ł
à±ģ. (
à°¿. ......"
à°· à°Ńà°®
à°¶ à°ªà°¡à°ķ
Ġà°İ à°Ĺà°¦
Ġà°İ à°ļà°Ł
Ġà°ī à°³
Ġà°ī à°¦à°°à°®
à±Ĩà°Ĥ -
11 1062015
à°¡à°² à°°
Ġà°ĸ à°¤à°°
à±ģ! ...
à°ŀ à°ļ
à°ŀ à°Ń
à°ŀ à°¤à°¨
Ġà°ļà°¦ à°µà°Ĺ
Ġ19 40
Ġ15 6
ÂłÂłÂłÂłÂłÂłÂłÂłÂłÂłÂłÂłÂłÂłÂłÂłÂłÂłÂłÂłÂłÂłÂłÂłÂłÂłÂłÂłÂłÂłÂłÂł ÂłÂłÂłÂłÂłÂłÂłÂł
59 5
110 0
110 0320159
110 02201736
110 10201632
116 0220158
128 07201744
1030 82015136
à±į? '
123 12201518
720174 42
à°µà°Ĺà°² à°µ
ÂłÂłĠÂłĠÂłĠÂłĠÂł Ġ
ÂłÂłÂłĠÂłÂłĠÂłĠÂłĠÂłĠÂł ĠÂłĠÂłĠÂłĠÂłÂł
ast rologer
111062015 118
. )
i k
à°° à°½à°§
à°¤ à°¡à°¬
à°Ł à°Ĺà°¤
à°¯ à°ļà°°à°£
à°® à°Ĺà°¡
à°ļ à°°à°®
Ġà°ķ à°µà°¯
à±ģ. âĢĺâĢĺ
à°¬ à°·
à°³ à°µà°²
à°³ à°ķà°¨
à°¦à°° à°ĸ
Ġà°¡ à°ļ
à°¨à°Ł à°®
à°²à°² à°µ
à°°à°£ à°Ń
à°°à°µ à°¬
Ġ( +
à°¾? ?
à°¨à°ķ à°ķ
Ġà°ķà°³ à°Ĺ
à°¨à°¸ à°¤
Ġà°Ĩà°Ł à°ķà°Ł
Ġ16 2
à±į... !
54 1
110 042016227
116 11201749
118 022016208
124 112016337
88 2
Ġ__ ________________
97 2
à°Ĺà°ªà°¡ à°¨
on line
à°µà°Ĺà°² à°¦
ÂłÂłĠÂłĠÂłĠÂłĠÂł ĠÂł
à°ķà°®à°ķ à°ªà°¡
thefinancial astrologer
- âĢĵ
. -
3 32
4 40
8 78
à±ģ à±į
à°° à°ļà°¨
à°¦ à°ªà°¨
à°Ł à°«
Ġà°ľ à°¯à°¤
Ġà°¶ à°°à°¨
ÂłÂłÂłĠ ÂłÂłÂłÂłÂłÂłÂłÂłÂłÂł
Ġà°Ĵ à°®à°¨
Ġà°« à°¯
à°¯à°² à°¯
à°°à°¸ à°¨à°¨
12 101
à°µà°¤ à°ª
à°ªà°¤ à°¯
à°¨à°µ à°¹
Ġà°Ĳ à°ļ
à°®à°ķ à°¦
à°ľà°¯ à°¬
à°ľà°¯ à°ªà°¥
à±Ģ! !
Ġ18 2
Ġ30 4
106 052017407
116 0320159
127 082017456
119 07201513
à°ģ !"
130 072015134
1230 62015
1130 220158
1030 2201620
1220 620162
1020 2201620
103 122015179
er e
Ġà°īà°Ń à°¯à°¦
1110820174 50
3 27
5 10
5 30
5 24
9 20
Ġ U
Ġ âĢ
à°ķ à°ķà°Ł
à°¦ à°±
à°¡ à°¨à°²
à°¶ à°¤à°®
Ġà°Ĵ à°¯
à°°à°ķ à°¥
Ġà°®à°¨ à°®à°§
Ġà°ħà°¤ à°¡à°¨
à°¤à°ķ à°ķ
00 8
07 9
à±ģ.. :
Ġà°Ĺà°¡ à°µà°ķ
à°¢ à°ļà°°
Ġ19 2
à°¿- --
à°¤à°¯ à°Ĺ
Ġ16 1
Ġ16 9
à°Ĥ.. ?
Ġ17 4
Ġ30 2
44 3
Ġà°İà°¡ à°¬
Ġà°ķà°¨à°¬à°¡ à°ķà°ª
110 01201619
127 11201749
114 04201510
à°°à°ªà°¡ à°¡
à°¿..... ?"
120 012017359
1250 720174
1250 820151
102 11201748
123 12201634
tt d
11104 20162
Ġà°®à°¡à°ķ à°¶
1250720174 43
2 28
à±į Ğ
à°¶ à°ªà°¤
à°¦à°¨ à°µà°¨
à°²à°¤ à°ķ
à°ľà°¨ à°ª
ĠÂłĠÂłĠÂłĠÂłĠÂłĠÂłĠÂłĠÂł ĠÂł
ĠÂłĠÂłĠÂłĠÂłĠÂłĠÂłĠÂłĠÂł ĠÂłĠÂłĠÂłĠÂłÂł
Ġà°Ĭ à°°à°Ĺ
à°°à°¹ à°µ
Ġà°¨à°Ł à°¸
à°ļà°ķ à°¤
à°ķà°°à°£ à°®
Ġ15 4
à°Ľ à°¸
à°®à°Ĺ à°§
à°¬à°² à°¹
Ġà°Ķ à°Łà°¯
117 0720174
117 0220158
76 6
78 2
1220 7201744
79 4
122 10201747
113 102017476
Ġà°®à°°à°® à°Ĺ
ÂłÂłĠÂłĠÂłĠÂłĠÂł ĠÂłĠ
se va
1050720174 35
130012016 201
) ..
2 24
à°¾ âĢĵ
ÂłÂł ĠÂłĠÂłĠÂłĠ
Ġà°¸ à°«à°²à°®
à°¬ à°²à°¤
à°³ à°Ń
à°¶ à°¯à°®
à°¥ à°¤à°¨
ÂłÂłÂłĠ ÂłÂłÂłÂłÂłÂłÂłÂłÂłÂłÂłÂł
Ġà°Ĩà°¯à°¨ à°®
Ġà°ħà°¤ à°¡à°²
à°¤à°® à°®à°¨
à°Ĵ à°¯
à°µà°¦ à°¹à°¨
Ġ16 4
58 3
Ġà°ľà°¯ à°ķà°°
55 1
106 042016226
à°¯à°Ĺà°² à°®à°¨
119 06201625
128 06201512
128 0220162
117 052017415
129 04201510
124 01201619
77 2
1230 7201744
1030 4201597
ÂłÂłÂłĠÂłÂłÂłĠÂłÂłÂłÂłÂłÂłÂłÂłÂłÂłÂłÂłÂłÂłÂłÂł ÂłÂłÂł
1050 620162
1220 4201510
Ġà°¸à°¦à°° à°¨
0820174 53
0820151 42
062015 123
ĠÂłÂłĠÂłĠÂłĠÂłĠÂł ĠÂłĠÂłĠÂł
11412201750 6
à±ģ `
à°¸ à°²à°²
à°ļ à°¶
à±Ĩ .....
à±ģ. ''
Ġà°¤ à°¹
à°¿. âĢĺ
à°ľ à°ļ
à°¬ à°¤à°Ĺ
Ġà°¦ à°¯à°µ
à°« à°¡
Ġà°¤à°¨ à°ªà°¨
Ġà°ªà°¡ à°¦à°¨
Ġà°İà°¨ à°¸
50 3
Ġà°¤à°Ĺ à°µ
04 2
Ġ19 64
à°¯à°£ à°¦
Ġ18 1
Ġ18 5
à°ĵ à°¨
Ġà°¬à°¡ à°¬
56 1
59 3
106 102015159
104 0420162
99 2
126 05201511
126 122015188
128 102015166
129 07201744
130 1220151
Ġ.... ?
ÂłÂłÂłĠÂłÂł ĠÂłĠÂłĠÂłĠÂłĠÂłĠÂłĠÂłĠÂłĠÂłĠÂłĠÂłĠÂłĠÂłĠÂłĠÂłĠÂłĠÂłĠÂłĠÂłĠÂłĠÂłĠÂłĠÂłĠÂłĠÂłĠÂłĠÂłĠÂłĠÂłĠÂłĠÂłĠÂł
à°²à°Ń à°¨
Ġ100 00
78 4
1230 5201624
ĠĠĠĠĠĠĠĠ Ġ
Ġà°°à°¥ à°¯
Ġà°¬à°¤à°ķ à°Ł
ti c
à°¾à°ĥ "
ĠT HE
ttd seva
A N
a ve
h o
q u
à°¨ à°§à°°
à°ķ à°«
à°ķ à°¤à°Ĺ
Âł ĠÂłĠÂłĠÂłĠÂłĠÂłĠÂłĠÂłĠÂłĠÂłĠÂłĠÂłĠÂłĠÂłĠÂłĠÂłĠÂł
ÂłÂł ĠÂłĠÂłĠÂłĠÂłĠÂłĠÂłĠÂłĠÂłĠÂłĠÂłĠÂłĠÂłĠÂłĠÂłĠÂłĠÂłĠÂłĠÂłĠÂłĠÂł
à±Ī .....
à°¬ à°¹à°¦
à°§ à°®à°¤
.. "
Ġà°ĩ à°¥
à°¹ à°¤à°¨
Ġà°ħà°¨ à°¡à°®
Ġà°Ī à°¤à°Ĺ
à°¦à°° à°£à°ķ
à°« à°İ
Ġ1 36
à°¸à°° à°«à°°
Ġà°ĸ à°³
à±Īà°Ĥ :
07 5
Ġà°µà°² à°ļ
Ġ19 6
Ġ19 49
Ġ19 53
à°Ńà°µ à°ª
Ġ15 5
à°¦à°Ĺ à°ľ
ÂłÂłÂłÂłÂłÂłÂłÂłÂłÂłÂłÂłÂłÂłÂłÂłÂłÂłÂłÂłÂłÂłÂłÂłÂłÂłÂłÂłÂłÂłÂłÂł ÂłÂłÂłÂł
Ġ18 8
Ġ14 1
Ġ23 1
58 1
Ġà°¶à°¤ à°¦
...... ...
127 09201746
127 02201588
119 0320159
128 082015145
117 062015120
129 01201620
124 0220158
124 05201624
96 8
77 3
à°¾à°Ĥ" .
à±ĭ.... ...
1150 920151
1220 52015
1020 420162
102 1120163
Ġà°Īà°¯à°¨ à°Ĺ
Ġa s
Ġà°¸à°¤à°® à°¤
Ġà°µà°²à°ª à°¨
11512201518 4
11903201738 4
1150920151 52
Ġ ÂłÂłĠÂłÂł
à°¾ `
à°¨ à°ªà°°à°ļ
à°² à°«
à°ķ à°µà°²à°¸
à°¸ à°ķà°²
à°® à°ķà°²
Ġà°® à°¤à°µ
Ġà°® à°Ĺà°ľ
à°ľ à°²à°¤
à°³ à°Ĺà°ķ
à°¶ à°ļ
Ġà°¬ à°Łà°°
Ġà°ı à°ªà°¨
à°ĸ à°ľ
Ġà°Ĵ à°¨à°Ĺ
à°¯à°¨ à°²
Ġà°Ł à°²
à°İ à°¬
Ġà°Ĩà°® à°§
11 101201619
Ġà°İà°¨ à°İ
à°¤à°ķ à°³à°²
ĠÂłĠÂłĠÂłĠÂłĠÂłĠÂłĠÂłĠÂł ĠÂłĠÂłĠÂł
à°Ī à°¯
04 7
Ġà°Ĩà°Ĺ à°¦à°¨
06 5
à°¸à°² à°¹
à°µà°¸ à°®
à±ĩ! ...
Ġà°İà°Ĺ à°ľ
Ġ17 6
56 3
116 062017426
127 0120158
à°ģ .
129 062015124
114 062015119
130 0120158
Ġà°ªà°²à°ķ à°¨
96 2
77 5
98 4
1230 320162
1250 52015
1120 520162
à°¯à°µà°° à°ª
à°¦à°ķà°° à°®à°¯
Ġà°ħà°µà°ķà°¤à°µ à°ķà°²à°ª
Ġà°ķà°µà°ļ à°®
10104 201596
12409201746 8
1250520174 18
u st
à°¯ à°¹à°°
à°¸ à°¡à°¨
à±Ģ ......"
Ġà°® à°¡à°®
à°§ à°¬
Ġà°¬ à°µ
à°°à°ķ à°¦à°¨
à°°à°ķ à°µà°ļ
à±ĩà°Ĥ ."
Ġà°®à°¨ à°ķà°¨
Ġà°ĵ à°ľà°¸
à°Ĺà°² à°¡à°¨
04 5
03 3
à°¿... '
Ġà°ĩà°¸ à°ķ
Ġ19 17
Ġ19 55
à°ī à°Ł
Ġ25 1
108 10201747
109 082016295
126 112015176
127 10201748
129 092016316
Ġ29 0
98 2
1250 320159
1150 4201510
à±Ģ? '
0520162 43
ÂłÂłÂłĠÂłÂłÂłĠÂłÂł ĠÂłĠÂłĠÂłĠÂłĠÂłĠÂłĠÂłĠÂłĠÂłĠÂłĠÂłĠÂłĠÂłĠÂłĠÂłĠÂłĠÂłĠÂłĠÂłĠÂłĠÂłĠÂłĠÂłĠÂłĠÂłĠÂłĠÂłĠÂł
111 20151
Ġà°ļà°¦à°µ à°®à°¨
ÂłÂłĠÂłĠÂłĠÂłĠÂł ĠÂłĠÂłĠ
Ġà°İà°°à°Ĺ à°¨à°Ł
10804201739 5
1250720151 33
12702201737 5
1070620174 23
5 20
à°² à°°à°¨
Ġà°¨ à°Ń
à°· à°µà°®
à°ľ à°Ńà°µà°¨
à±Ī !"
à°¥ à°ªà°¤
à°¥ à°¨à°°
Ġà°Ń à°ľà°°
Ġà°ı à°Īà°µ
à°¦à°¨ à°·
ÂłÂłĠ ÂłÂłÂłĠÂłÂłĠÂłĠÂłĠÂłĠÂłĠÂłĠÂłĠÂłĠÂłĠÂłĠÂłĠÂłĠÂłĠÂłĠÂłĠÂłĠÂł
à°°à°® à°£à°®
à°·à°¨ à°ª
Ġà°ħà°® à°°à°¤
Ġ2 16
00 6
à°Łà°® à°Ł
03 9
02 3
à°¯à°ªà°¡ à°¦
à±ĭ... !
108 09201630
à°Łà°Ĺ à°²à°¨
107 0320162
à°¸à°Ń à°¨
à°İà°µà°° à°®
104 03
à°¹à°¤ à°²à°¨
119 012016197
128 0120158
114 072015
76 2
à°°à°®à°£ à°²à°ķ
à°®à°¶ à°°
1250 4201510
102 112015168
79 1
Ġà°ħà°¡à°Ĺ à°µà°ļ
à°¶à°¨à°® à°µ
à°ªà°¬à°¡ à°¤
ÂłÂłĠÂłÂłÂłĠÂłÂłÂłĠÂłÂłÂłÂłÂłÂłÂłÂłÂłÂłÂłÂłÂłÂłÂłÂł ÂłÂłÂłÂłÂłÂłÂłÂłÂłÂł
Ġà°Ĳà°İ à°İà°¸
ĠÂłĠÂłĠÂłĠ ÂłÂłĠÂłÂł
Ġh e
Ġ*** *
11102 201620
11712201518 5
1030820174 47
1250820151 44
114072015 129
5 46
? !
m ent
u d
Ġ com
à°¨ à°²à°ª
à°² à°Ĺà°¨
à°ķ à°Ĺà°²
à°¤ à°³
à°¸ à°¨à°¤
Ġà°ª à°¦à°¨
à°· à°¡
à°³ à°µà°¦
à°§ à°¤à°ķ
Ġà°İ à°¹
Ġà°İ à°°à°µ
à°ħ à°¦à°¨à°ª
Ġà°ķà°¨ à°ķà°°
Ġà°ħà°§ à°®
à°µà°¤ à°²à°¤
à°ł à°µ
à°¯à°° à°¹
à°ķà°Ł à°²à°ķ
07 7
05 3
06 7
à°¿? ..
Ġà°Ĺà°¡ à°ªà°¦
Ġ19 30
Ġà°¬à°¸ à°µ
ÂłÂłÂłĠÂłÂłÂłĠ ÂłÂłÂłÂł
Ġ18 3
Ġà°ķà°¡ à°¸
à°ĥ ,
à°®à°¸ à°¤
à°Ĺà°¸ à°Ń
à°°à°¸à°¨ à°²à°ķ
Ġà°Ķ à°ļ
Ġà°Ķ à°¨à°¨
Ġà°Ĺà°£ à°ª
116 1120174
126 0220162
127 07201513
118 07201626
118 082016299
120 032016219
1020174 83
1150 2201620
1020 6201511
à°°à°ķà°° à°®à°¨
ĠÂłĠÂłĠ ÂłÂłĠÂłÂł
and hra
1161120174 92
) -
. ,
5 44
9 44
I N
à°¾ âĢĺ
à°² à°¡à°µ
à°² à°ļà°ķ
à°¤ à°ĸ
à°ª à°®à°¯
Ġà°ĩ à°°à°Ĺà°¦
à°°à°® à°°à°£
à°ħ à°¸à°¹
Ġà°ħà°µ à°¤à°²à°¨
à°¸à°° à°¯
Ġ2 17
à°Ĥ. -
à°¡à°² à°®à°§
à°Ĳ à°¹
à°¡à°Ĺ à°ķ
à±ģ... '
04 1
à°¿? !
03 1
à°¤à°ª à°¸
à°°à°Ł à°Ĺ
Ġà°ľà°¯ à°Ń
à°®à°¸ à°Ń
à°°à°ķà°Łà°¨ à°²à°¨
à°°à°ķà°Łà°¨ à°²à°¤
109 102017474
116 01201735
118 01201735
128 0320159
à±ĩ.... ?"
124 05201511
à°¿..... ...
96 4
Ġà°¸à°¹à°ľ à°µ
1150 220158
ÂłÂłÂłĠÂłÂłÂłÂłÂłÂłÂłÂłÂłÂłÂłÂłÂłÂłÂłÂł ÂłÂłÂłÂłÂłÂłÂłÂłÂłÂłÂłÂłÂł
68 4
ÂłÂłÂłĠÂłÂłÂłĠÂłÂł ĠÂłĠÂłĠÂłĠÂłĠÂłĠÂłĠÂłĠÂłĠÂłĠÂłĠÂłĠÂłĠÂłĠÂłĠÂłĠÂłĠÂłĠÂłĠÂłĠÂłĠÂłĠÂłĠÂłĠÂł
ÂłÂłÂłĠÂłÂłÂłĠÂłÂł ĠÂłĠÂłĠÂłĠÂłĠÂłĠÂłĠÂłĠÂłĠÂłĠÂłĠÂłĠÂłĠÂłĠÂłĠÂłĠÂłĠÂłĠÂłĠÂłĠÂłĠÂłĠÂłĠÂłĠÂłĠÂłĠÂłĠÂłĠÂłĠÂłĠÂłĠÂłĠÂł
Ġà°İà°Ĺà°° à°µ
is t
Ġà°¤à°¹à°¤ à°¹
12102 201620
Ġà°¤à°³à°¤ à°³à°²
13110201516 7
1210620162 56
11912201634 7
Ġà°Ķà°· à°§à°®
1260820151 44
1040620174 22
10403 20158
à±ģ à±Ĥ
à°² à°ľà°°
à±ĩ ;
à°¡ à°®à°¯
à°® à°®à°¤
Ġà°ļ à°µà°Ł
Ġà°¨ à°¥
Ġà°Ĩ à°¨à°°
Ġà°¬ à°§
Ġà°Ĺ à°¢
à°¹ à°®à°¯
à°²à°ķ à°¯
à°ĸ à°Ń
à°ĸ à°°à°®
ÂłÂłĠ ÂłÂłÂłÂł
Ġà°¸à°® à°µ
à°ħ à°µà°Ĺ
Ġà°ķà°² à°¯à°ľ
Ġà°ľà°° à°ľà°°
Ġà°ķà°¨ à°ķà°¯
Ġ2 34
à°ĩ à°¤à°¡
à°®à°° à°ļà°°
Ġà°· à°¹à°°
Ġà°Ĩà°¦ à°®à°°
à°ł à°Ńà°°
ĠÂłĠÂłĠÂłĠÂłĠÂłĠÂłĠÂłĠÂł ĠÂłĠÂłÂł
Ġà°ıà°¡ à°µà°²
09 5
à°ŀ à°¤à°ķ
06 1
02 1
à°°à°¬ à°¦
à°¸à°¨ à°ķà°°
13 10320162
à°¿âĢĻ ..
Ġà°ķà°¥ à°²à°¤
Ġà°Ĭà°¹ à°²à°ķ
à±ĭ... ?
54 3
à°¾.... !"
Ġà°®à°Ĺ à°§
116 052015110
126 0920151
119 092017466
128 112015177
114 0820162
130 082017457
76 3
86 1
86 5
120 05201624
1220 420174
1220 8201514
102 102016318
ÂłÂłÂłĠÂłÂłÂłĠÂłÂłÂłÂłÂłÂłÂłÂłÂłÂłÂłÂłÂłÂłÂłÂłÂłÂłÂłÂłÂłÂłÂłÂłÂłÂłÂłÂłÂłÂłÂłÂł ÂłÂłÂłÂł
02201620 4
or g
10102 20158
à°§à°¶ à°¤à°ķ
1250520162 45
12703201738 8
10303201737 7
11007201626 4
1010420162 24
ttdseva online
4 10
a g
à°° à°ªà°²
à°¦ à°ķà°¨
âĢ Ŀ
Ġà°° à°§
à°ľ à°¯à°¤
à°¬ à°ķà°°
à°³ à°§
Ġà°¦ à°°à°¹
à°¾à°Ĥ )
20 03
à°°à°® à°ªà°¦
à°Ĩ à°¸à°ķ
Ġà°ľà°° à°ªà°ķ
à°²à°² à°ļ
12 11120151
à°ĩ à°¤
à°¿! ...
Ġ7 500
Ġà°¢ à°®
ÂłÂłÂłÂłÂłÂłÂłÂłÂłÂłÂłÂłÂłÂłÂłÂłÂłÂłÂłÂłÂłÂłÂłÂłÂłÂłÂłÂłÂłÂłÂłÂł ÂłÂłÂłÂłÂłÂłÂłÂłÂłÂłÂłÂł
Ġ14 9
Ġà°ıà°ķ à°¬
Ġà°ıà°ķ à°®à°¯
Ġà°ĺà°Łà°¨ à°²à°ķ
109 032016215
106 062015116
à±Ģ) .
118 082017453
128 03201622
120 09201746
98 9
1230 8201514
à±ĢâĢĻ .
1120 820174
1120151 72
ÂłÂłÂłĠÂłÂłÂłĠÂłÂłÂłÂłÂłÂłÂłÂłÂłÂłÂłÂłÂłÂłÂłÂłÂłÂłÂłÂłÂłÂłÂłÂłÂłÂłÂłÂłÂłÂłÂłÂł ÂłÂłÂłÂłÂł
113 11201517
Ġ...... ...
Ġ".... ....
ÂłÂłĠÂłÂłÂłĠÂłÂłÂłÂłÂłÂłÂłÂłÂłÂłÂłÂłÂłÂłÂłÂł ÂłÂłÂłÂłÂłÂłÂłÂł
11412201634 5
2 26
3 12
4 34
4 27
4 32
5 39
E S
Ġ K
à°° à°Łà°®
à°¦ à°«
à°¦ à°¯à°ķ
à°ļ à°²à°¯
ÂłÂł ĠÂłĠÂłĠÂłĠÂłĠÂłĠÂłĠÂłĠÂłĠÂłĠÂłĠÂłĠÂł
Ġà°¨ à°ķà°²
Ġà°¨ à°ĸà°¶
à°¶ à°°à°§
à°¹ à°¨à°¸
Ġà°¶ à°°à°®
Ġà°ı à°®à°°
Ġà°Ī à°ıà°ª
à°İ à°¡à°®
Ġà°®à°¨ à°µà°²
Ġà°ĵ à°ļ
à°°à°µ à°ķà°ª
Ġ2 43
Ġ( -
à°ªà°¤ à°ķ
à°ªà°° à°¹
à°Ĳ à°ıà°İà°¸
Ġà°ķà°® à°²à°ķ
04 9
à°ľà°¯ à°Ĺ
à°Łà°ķ à°¤
à°ŀ à°¶
Ġà°ĺ à°¨à°ª
03 7
Ġà°¬à°¸ à°µà°°
à±ģâĢĻ ..
Ġà°®à°² à°¬
ÂłÂłÂłÂłÂłÂłÂłÂłÂłÂłÂłÂłÂłÂłÂłÂłÂłÂłÂłÂłÂłÂłÂłÂłÂłÂłÂłÂłÂłÂłÂłÂł ÂłÂłÂłÂłÂłÂłÂł
à°µà°°à°£ à°¹
à°¶à°¨ à°¶
Ġà°ľà°² à°§
à°¸à°Ń à°²à°¨
110 04201599
Ġà°®à°® à°¤à°²
117 04201739
129 112017498
124 0320159
114 02201620
130 0620174
130 092016317
120 0320159
1020174 72
1130 320159
Ġà°Ńà°Ĺ à°Ń
Ġà°Ńà°Ĺ à°Ńà°Ĺ
1030 420162
à°¾?' '
à°Ķ à°°
ÂłÂłĠÂłÂłÂłĠÂłÂłÂłÂłÂłÂłÂłÂłÂłÂłÂłÂłÂłÂłÂłÂł ÂłÂłÂłÂł
st ar
12201 201579
13101 2016
1311020174 8
Ġà°īà°¡à°ķ à°¬
13010201516 7
1050320162 14
5 45
6 20
9 24
n tel
Ġ &
à°¨ à°¯à°®
à±ĩ ),
à°Ł à°£à°®
à°ª à°²à°²
Ġà°ħ à°¹à°®
à°£ à°¤à°¨
Ġà°ħà°¨ à°µà°ļ
à°¥ à°¤à°¤
20 06
à°Ĩ à°³
Ġà°ĵ à°µà°²
Ġ2 15
à°µà°¨ à°¯
à°¡à°² à°¯
Ġà°ªà°¦ à°¯
Ġà°ªà°¦ à°¡
à°®à°ķ à°¤à°¨
09 3
à°¾.. :
Ġ20 25
Ġà°Ńà°¯ à°®à°¨
Ġ19 4
à°Ĵ à°ķà°¡
13 11020163
Ġ18 6
107 0320159
à°¯à°Ĺà°² à°¡à°¨
119 012017359
à°¯à°Łà°¨ à°²à°ķ
124 102016325
130 03201622
Ġà°ķà°¨à°ªà°¡ à°¦
ÂłÂłĠÂłÂłÂłĠ ÂłÂłÂłÂłÂłÂłÂłÂłÂłÂłÂłÂłÂłÂłÂłÂłÂłÂłÂłÂłÂłÂłÂłÂłÂłÂłÂłÂłÂłÂłÂłÂłÂłÂłÂłÂłÂłÂłÂłÂłÂłÂłÂłÂłÂłÂłÂłÂł
1120 92016308
Ġ_ "
68 2
Ġà°ħà°²à°¸ à°Łà°¤
Ġà°µà°¶ à°ªà°°
Ġc an
ÂłÂłÂłĠÂłĠÂłĠÂłĠÂłĠÂłĠÂłĠÂłĠÂłĠÂłĠÂłĠÂłĠÂł ĠÂł
Ġà°¶à°°à°Ń à°¯
2 18
2 37
à±į à°ĥ
à°Ł à°Ń
Ġà°ª à°¸à°°
Ġà°ª à°¸à°²
à°£ à°ľ
Ġà°İ à°¦à°²
Ġà°ı à°Ĳà°İ
à°İ à°®à°°
Ġà°ķà°² à°²à°ķ
Ġà°ľà°° à°ªà°²
à°Łà°² à°µà°²
à°¯à°® à°¸
Ġ2 56
à°¦à°² à°µà°¡
Ġà°īà°¦ à°¯à°ķ
à°ı à°ı
à°¾? -
Ġà°ĸ à°¬à°¡
13 1052015
Ġà°Ĵà°ķà°Ł à°¯
à±ģ..... ?"
Ġà°¦à°¶ à°¦
130 06201512
130 03201596
120 01201619
120 052017416
78 5
1130 62015118
1150 1201619
à°ļà°°à°£ à°ª
à°¨à°¬à°¡ à°¡
à°¨à°¬à°¡ à°Ĺ
ÂłÂłĠÂłÂłÂł ĠÂłĠÂłĠÂłĠÂłĠÂłĠÂłĠÂłĠÂłĠÂłĠÂłĠÂłĠÂłĠÂłĠÂłĠÂłĠÂłĠÂłĠÂłĠÂłĠÂłĠÂłĠÂłĠÂłĠÂłĠÂłĠÂłĠÂłĠÂł
Ġà°ªà°¯à°¨ à°®
Ġs e
ÂłÂłÂłĠÂłÂłÂłÂłÂłÂłÂłÂłÂłÂłÂłÂłÂłÂłÂłÂłÂłÂłÂłÂłÂłÂłÂłÂłÂłÂłÂłÂłÂłÂłÂłÂł ÂłÂłÂłÂłÂł
ÂłÂłÂłĠÂłÂłÂłÂłÂłÂłÂłÂłÂłÂłÂłÂłÂłÂłÂłÂłÂłÂłÂłÂłÂłÂłÂłÂłÂłÂłÂłÂłÂłÂłÂłÂł ÂłÂłÂłÂłÂłÂł
Ġà°¶à°°à°µ à°£à°¨
10402201736 5
5 12
5 25
8 40
r y
à°Ł à°¤à°°
à°¯ à°£à°²
à°¸ à°ªà°°
à°® à°¤à°¨
à°® à°ªà°¤
à°Ĺ à°ľà°²
Ġà°¸ à°«à°²à°®à°¯
à°¿. ?
Ġà°Ĩ à°Łà°®
à°³ à°ªà°²
à°¶ à°¤à°ķ
à°§ à°°à°¹
ÂłÂłÂł ĠÂłĠÂłĠÂłĠÂłĠÂłĠÂłĠÂłĠÂłĠÂłĠÂłĠÂłĠÂłĠÂłĠÂłĠÂłĠÂłĠÂłĠÂłĠÂłĠÂłĠÂłĠÂłĠÂłĠÂłĠÂłĠÂłĠÂłĠÂłĠÂłĠÂłĠÂłĠÂł
Ġà°ľ à°¨à°µ
Ġà°¶ à°ªà°§
Ġà°¤à°¨ à°µà°¦
à°ħ à°°à°¬
Ġà°ĵ à°¨à°®
à°µà°¡ à°Ĺ
Ġà°¸à°° à°³à°¨
à°¯à°® à°¤
à°ĩ à°«
à°¨à°ª à°ķ
00 2
Ġà°¨à°¡ à°ªà°²
08 1
à°¡à°µ à°³
Ġ19 5
à°Ĺà°³ à°°
à°¾... '
Ġ18 4
Ġà°¥ à°®à°¨
55 3
à°Ĥ... !
107 062015117
Ġà°ķà°¨à°¬à°¡ à°Ĺ
106 0320162
106 02201736
106 0220158
à°¯à°Ĺà°² à°Ĺ
116 0620162
à°ªà°£ à°ĸ
117 01201578
96 5
1250 4201623
1130 32016217
1020 520162
Ġm o
1310820151 46
jyo thy
. '
5 22
6 80
à°¤ à°Ĺà°²
à°¡ à°¸à°²
à°® à°¥à°°
à±Ĩ ?"
Ġà°ķ à°¡à°¦
Ġà°¨ à°¯à°®à°µ
à°· à°°à°£
à±Ī ..."
à°³ à°µà°°à°ķ
à°³ à°¬à°Ł
Ġà°¶ à°ļ
Ġà°Ī à°¤à°°
ÂłÂłÂłÂł ÂłÂłĠčĊ
à°¿, .
Ġà°Ĵ à°¹
à°« à°İà°¸
Ġà°« à°²à°µ
à°ħ à°²à°ķ
... ?"
Ġà°ħà°° à°µà°¸
à°Łà°¨ à°²
à°¡à°² à°¸
Ġà°¤à°² à°Ĺà°¡
à°ĩ à°¯
à°ķà°¨ à°¬à°¡
ÂłÂłÂłÂłÂłÂłÂłÂłÂłÂłÂłÂłÂłÂłÂłÂł ÂłÂłÂłÂłÂłÂł
00 1
08 5
07 3
04 3
06 3
à°¾à°Ĥ. âĢĻ
01 5
01 7
à°¨à°¤ à°µ
Ġ19 54
19 99
à°ªà°¦ à°²à°¨
Ġà°Ĩà°Ł à°¸
à°ħà°µ à°§
à°ħà°² à°¸
Ġà°ĺà°Łà°¨ à°²à°ª
à°¿.... !
à°®à°¸ à°ķ
à°Ĥ... ?
109 04201599
110 092016307
106 102015158
à°Ĺà°£ à°®à°¨
à°ªà°£ à°¨
117 0320159
117 05201624
117 102016323
96 6
à°²à°Ń à°®à°µ
Ġ__ :
98 5
103 102015158
1120 320159
1120 72017438
à°¯à°¬à°¡ à°¤
à°°à°¬à°¡ à°Ł
à°ıà°¡ à°µà°ķ
Ġà°ħà°°à°ķ à°ª
Ġà°ĩà°¹ à°ª
en ce
at ch
andhra jyothy
5 28
6 70
Ġ ÂłÂłÂłĠÂłÂłÂł
à°° à°³à°¨
à°° à°·à°°
à°¤ à°µà°²à°¸
à°µ à°§à°°
à°Ĺ à°¡à°Ł
à°§ à°ķà°²
à°¹ à°¤à°ķ
Ġà°ľ à°Ĺà°ľ
Ġà°² à°¬à°²
Ġà°ħà°¨ à°¦
à°µà°° à°¦à°°
Ġà°ı à°µà°¯
Ġà°Ī à°¦à°°
Ġà°¹ à°¯à°Ĺ
ut v
Ġà°ªà°¡ à°Łà°®
à°ļà°¨ à°µà°¸à°°
Ġà°ķà°³ à°ķà°³
à°Ī à°¦
à°³à°¨ à°²à°¤
Ġà°ķà°¦ à°ªà°²
à°µà°ķ à°µ
Ġ19 59
Ġ9 50
à±įâĢĮâĢĻ ..
à°¯à°ªà°¡ à°ķ
à±į.. "
126 04201510
117 12201634
à°ģ ,
129 112015178
1250 7201744
1130 22017369
103 102015157
à±Ģ.... ...
1120 220158
ÂłÂłÂłÂłÂłÂłÂłÂłÂłÂłÂłÂłÂłÂłÂłÂłÂłÂłÂłÂłÂłÂłÂłÂłÂłÂłÂłÂłÂłÂłÂłÂłÂłÂłÂłÂłÂłÂłÂłÂłÂłÂłÂłÂłÂłÂłÂłÂłÂłÂłÂłÂłÂłÂłÂłÂłÂłÂłÂłÂłÂłÂłÂłÂł ÂłÂłÂłÂłÂłÂłÂłÂłÂłÂłÂłÂłÂłÂłÂłÂłÂłÂłÂłÂłÂłÂłÂłÂłÂłÂłÂłÂłÂłÂłÂłÂłÂłÂłÂłÂłÂłÂłÂłÂłÂłÂłÂłÂłÂłÂłÂłÂłÂłÂłÂłÂłÂłÂłÂłÂłÂłÂłÂłÂłÂłÂłÂłÂł
Ġà°¸à°µà°°à°£ à°²à°¨
à°Ńà°Ĺ à°µà°¦
Ġ*** ****
10612201750 2
ug utv
720162 73
Ġà°Ĺà°°à°Ĺ à°ªà°°
ntel ugutv
3 28
5 26
6 10
6 30
6 28
i re
à°Ĥ ......"
à°¯ à°°à°ķ
à°¯ à°ļà°ķ
à°ª à°¨à°®
à°¸ à°®à°¦
Ġà°¨ à°®à°¨
à°ľ à°Ĺà°¤
Ġà°ľ à°ľ
Ġà°ľ à°¤à°Ĺ
Ġà°ī à°¬à°°
ÂłÂłÂłĠ ÂłÂłÂłÂłÂłÂłÂłÂłÂłÂłÂł
ÂłÂłÂłÂł ÂłÂłÂłĠčĊ
à°ªà°¡ à°µà°¦
à°°à°¸ à°ĸ
ĠÂłĠÂłĠÂłĠÂł ĠÂłĠÂł
Ġà°¤à°ª à°®
Ġà°· à°¡
Ġ- --------
Ġà°Ĩà°² à°®à°Ł
à°¯à°¡ à°¨
ĠÂłĠÂłĠÂłĠÂłĠÂłĠÂłĠÂłĠÂł ĠÂłĠÂł
Ġà°İà°¦ à°Ĺà°¨
08 7
Ġ4 500
à°²à°Ĺ à°®à°¨
Ġà°Ĺà°¤ à°ľà°¨
Ġ20 3
Ġà°¬à°² à°¸
à°ī à°ªà°°
Ġ16 7
Ġà°Ĺà°®à°¨ à°¶
Ġà°ĺà°Łà°¨ à°²à°¨
107 092016306
104 1220151
104 102017472
à°¯à°Ĺà°² à°®
à±į.... !
128 122015189
96 1
98 7
à°ļà°¬à°¡ à°Ł
ÂłÂłÂłĠÂłÂłÂłĠÂłÂłÂłÂłÂłÂłÂłÂłÂłÂłÂłÂłÂłÂłÂłÂł ÂłÂł
1150 8201745
à°¾' ,
0520162 45
Ġà°µà°¦à°² à°°
Ġs h
Ġà°ķà°²à°Ĺ à°ķà°ª
Ġà°ħà°¦à°° à°¹
1271220175 12
12708201630 2
10409201630 5
3 22
4 18
4 22
6 60
h ome
o k
Ġà°ļ à°®à°¨
à°· à°ķà°°à°®
à±Ī à°ĥ
à°²à°ķ à°ªà°²
à°« à°µ
à°°à°ķ à°¸
à°°à°ķ à°£
à±ĩà°Ĥ -
à°Ĩ à°ķà°°
Ġà°ĵ à°¦à°¨à°®
à°¤à°° à°£à°ª
ĠÂłĠÂłĠÂłĠÂł ĠÂł
ĠÂłĠÂłĠÂłĠÂł ĠÂłĠÂłĠÂł
à°°à°µ à°®à°¨
11 10320159
à°°à°¯ à°¦
Ġ2 24
.... !
à°²à°¯ à°°
Ġà°ħà°¸ à°²à°¯
Ġà°Ĩà°² à°µ
Ġà°¨à°µ à°Ń
ĠÂłĠÂłĠÂłĠÂłĠÂłĠÂłĠÂłĠÂł ĠÂłĠÂłĠÂłÂł
à°°à°¶ à°°
00 4
Ġ4 30
Ġ: __
Ġà°ĺ à°²
à°¾à°Ĥ. âĢĻâĢĻ
Ġà°Ĺà°¡ à°µà°¡
Ġ19 3
Ġ19 63
__ "
à°§à°µ à°ª
Ġ15 7
Ġà°ķà°¥ à°Ĺ
Ġà°ħà°¬ à°²
Ġà°ľà°² à°Ĺà°²
à°ķà°Ĺ à°Ł
à°ĺà°Łà°¨ à°²à°¤
ĠÂłÂł ĠÂłĠÂłĠÂłĠ
107 052015107
110 072015
104 10201747
99 4
à±ĭ" .
120 0620162
ÂłÂłÂłĠÂłÂłÂłÂłÂłÂłÂłÂłÂłÂłÂłÂłÂłÂłÂłÂł ÂłÂłÂłÂłÂłÂłÂłÂłÂłÂłÂłÂłÂłÂł
Ġà°ªà°¤à°¨ à°®à°¯
on e
à°Łà°Ĺà°² à°¦
à°ĩà°Ĵ à°Ĺ
ÂłÂłÂłĠÂłÂłÂłÂłÂłÂłÂłÂłÂłÂłÂłÂłÂłÂłÂłÂłÂłÂłÂłÂłÂłÂłÂłÂłÂłÂłÂłÂłÂłÂłÂłÂł ÂłÂłÂłÂłÂłÂłÂł
Ġà°Īà°İ à°¨à°¸
101052015 105
110072015 128
2 11
7 20
7 97
? )
h a
à°¨ à°²à°²
à°² à°¯à°²
à°µ à°²à°²
à°µ à°®à°¤
à°µ à°®à°¯
à°® à°®à°¯
à°Ĺ à°¤à°®à°¯
à°ļ à°µà°Ł
Ġà°ħ à°²à°ķà°¨
à±Ĥ à±įâĢĮ
Ġà°² à°¤à°¨
Ġà°Ł à°¸
à°°à°® à°ľ
Ġà°ħà°µ à°¬
à°¤à°° à°¦
à°Ĺà°° à°ª
à°¤à°² à°¯
à°ı à°Ĳà°¸
Ġà°¤à°® à°¸
à°¨à°µ à°µà°¨à°°
ÂłÂłÂłÂłÂłÂłÂłÂłÂłÂłÂłÂłÂłÂłÂłÂł ÂłÂłÂłÂłÂłÂłÂłÂłÂłÂłÂłÂł
07 1
à°¡à°µ à°²à°¨
Ġ19 9
à±įâĢĮ) âĢĻ
à±ģ.... !
Ġà°Ńà°¯à°ªà°¡ à°¡
Ġà°®à°¸ à°ķà°Ĺ
98 3
Ġà°µà°¦à°² à°¦
à°¦à°¶ à°°à°¥
Ġ99 00
ÂłÂłÂłĠÂłÂłĠÂłĠÂłĠÂłĠÂłĠÂłĠÂłĠÂłĠÂłĠÂłĠÂłĠÂłĠÂł ĠÂłĠÂł
Ġà°¦à°µà°¡ à°²
1050820174 48
11002201620 5
12201201619 8
Ġà°§à°Ĺ à°§à°Ĺ
) âĢĻ
3 14
4 46
7 10
7 04
7 40
O R
à°¯ à°§à°°
à°ª à°½à°¥
à°µ à°ªà°ķ
à°® à°¯à°¨
Ġà°ļ à°®à°ķ
Ġà°¨ à°²à°¤
à°· à°ķà°°
à°· à°¤à°²
à°· à°²à°¯
à°£ à°²à°¤
Ġà°ī à°°à°µà°ķ
Ġà°ªà°¡ à°µà°¦
Ġà°¤à°² à°¬
ÂłÂłÂłÂłÂłÂłÂłÂłÂłÂłÂłÂłÂłÂłÂłÂł ÂłÂłÂłÂłÂłÂłÂł
à°¨à°° à°Ĺ
à°Ĳ à°²à°ķ
à°¾! ...
Ġà°ªà°² à°µà°°
Ġà°¸à°Ń à°²à°²
Ġ19 61
Ġ9 49
Ġà°Ĩà°ª à°ķà°ª
à°¨à°Ĺ à°ª
à°ķà°¸ à°¹
Ġà°Ĩà°Ł à°¬
Ġà°Ĵà°ķà°° à°¨
à°¹à°¸ à°¯
Ġ17 3
Ġà°ľà°² à°°à°µ
à±Ģ.. ?
118 092016310
119 1020163
129 05201511
76 5
à°°à°®à°² à°¶
122017 51
1020174 82
1230 52017417
1150 1201735
à°Ĥ' ,
à°ļà°µà°² à°¯
ÂłÂłĠÂłÂłÂłĠÂłÂłÂłĠÂłÂłÂłÂłÂłÂłÂłÂłÂłÂłÂłÂłÂłÂłÂłÂł ÂłÂłÂłÂłÂłÂłÂłÂł
ÂłÂłÂłĠÂłÂłÂłÂłÂłÂłÂłÂłÂłÂłÂłÂłÂłÂłÂłÂłÂłÂłÂłÂłÂłÂłÂłÂłÂłÂłÂłÂłÂłÂłÂłÂł ÂłÂłÂł
Ġp ro
ĠÂłÂłĠÂłĠÂłĠÂłĠÂłĠÂłĠÂłĠÂłĠÂł Ġ
12402201737 4
1201220151 86
1300620174 33
0 20
7 30
8 77
9 88
O U
e w
i i
Ġ ÂłÂłÂłÂłÂłÂłÂłÂłÂłÂłÂłÂłÂłÂłÂł
Ġà° ¿
à°° à°¨à°Ł
à°ķ à°¶à°ķ
à°ļ à°ªà°¡
Ġà°ª à°Ń
Ġà°® à°±
Ġà°¨ à°ķà°°
à±ģ. Ą
Ġà°ľ à°¡à°¨
Ġà°ľ à°¡à°¤
à°¥ à°¨à°ķ
à°°à°® à°µà°¡
Ġà°ħà°µ à°²à°ķ
Ġà°ķà°¨ à°µà°¸à°°
Ġ2 29
Ġà°µà°° à°¹
à°Ĺà°² à°µà°¨
Ġà°Ĳ à°¹
à°¯à°¤ à°²à°ķ
à°®à°² à°µ
08 3
Ġ20 24
Ġ20 29
Ġ19 20
Ġ19 42
à°¥à°ķ à°¤
Ġ9 000
Ġ18 7
Ġ16 8
127 102015166
118 032016219
128 052015114
Ġ27 5
124 12201518
120 08201514
120 092017466
66 2
Ġà°¤à°Ĺà°² à°Ĺ
à°Ķ à°·à°§
10901201735 5
1050520174 07
ĠâĢ ľ
, ,
2 35
9 02
T he
Ġ go
à°¨ à°Ĺà°¡
à°² à°¤à°°à°¬à°¡
à°¤ à°µà°ļ
Âł ĠĠ
à°Ł à°¤à°ª
Ġà°ķ à°¨à°Ł
Ġà°ħ à°°à°®à°°
à°ľ à°²à°ª
Ġà°Ĩ à°ĸ
à°Ń à°³
à°ĸ à°²à°²
à°ĸ à°ªà°¡à°¤
à°¯à°¨ à°µà°¸à°°
à°°à°ķ à°¦à°¬
à°µà°¡ à°Ł
Ġà°ħà°¤à°¨ à°ķ
Ġà°īà°¦ à°ķà°®
Ġà°ĸ à°°à°Ĺ
Ġà°Ĩà°² à°®
à°µà°¹ à°¸
Ġ20 2
à°°à°Ĺ à°ķà°ª
Ġà°Ĺà°¡ à°µà°ķà°®
à°¡à°µ à°®
19 96
à±ģ.... '
à±į... ?
110 1120163
110 11201633
129 11201749
76 7
96 7
96 9
120 072016268
1020 720174
66 8
ÂłÂłĠÂłÂłÂłĠÂłÂłÂłĠÂłÂłÂłÂłÂłÂłÂłÂłÂłÂłÂłÂłÂłÂłÂłÂł ÂłÂłÂłÂłÂłÂłÂłÂłÂłÂłÂłÂłÂłÂł
Ġm y
ĠT he
ÂłÂłÂłĠÂłĠÂłĠÂłĠÂłĠÂłĠÂłĠÂłĠÂł ĠÂłĠÂłĠÂłĠÂłÂł
Ġà°ľà°²à°ķ à°³
1111020174 75
1010820162 92
Ġà°Ĺà°²à°Ĺ à°²à°²
1160620162 54
1101120163 32
" ...
% )
4 36
6 90
O N
à°¨ à°¡à°Ĺ
à°¨ à°¯à°®à°£
à°¤ à°¦à°°
à°¦ à°µà°¨
à°¯ à°¯à°ª
à°µ à°Ĺà°¨
à°Ĺ à°Łà°®
Ġà°µ à°²à°µ
à±Ĥ /
à°¬ à°§
Ġà°¬ à°²à°¨
à°¹ à°Ĺà°²
Ġà°İ à°¦à°°
Ġà°İ à°°à°ķ
Ġà°Ń à°¯à°¸
Ġà°ı à°Īà°Ī
à°°à°ķ à°¤
à°Łà°° à°µ
à°Ĩ à°ķà°Ł
Ġ2 35
à°ļà°¨ à°µ
Ġà°Ĳ à°²à°®
ÂłÂłÂłÂłÂłÂłÂłÂłÂłÂłÂłÂłÂłÂłÂłÂł ÂłÂłÂłÂłÂłÂłÂłÂłÂłÂłÂłÂłÂłÂł
ÂłÂłÂłÂłÂłÂłÂłÂłÂłÂłÂłÂłÂłÂłÂłÂł ÂłÂłÂłÂłÂłÂłÂłÂłÂłÂłÂłÂłÂłÂłÂłÂłÂł
Ġà°ıà°¡ à°¡
Ġà°īà°ª à°¶à°®
Ġà°ķà°® à°¤
à±ģ... âĢĻâĢĻ
Ġ3 10
à°ľà°¯ à°¢
Ġà°Ĩà°Ĺ à°µ
Ġà°Ĩà°¡ à°¶
Ġà°®à°² à°ļà°¡
à°Łà°ª à°Ĺ
à°¯à°ªà°¡ à°Ĺ
Ġà°¶à°¤ à°ĺ
99 1
119 02201620
119 04201510
130 0
130 082015145
à°¿..... ....
120 082015142
88 5
1150 6201625
122 11201749
à°Łà°Ĺà°² à°µ
à°µà°ļà°¨ à°®
ÂłÂłĠÂłÂłÂłĠÂłÂłÂł ĠÂłčĊ
Ġw or
ou s
Ġyou r
10507201626 2
1120520174 10
1210920163 13
11112201634 4
2 36
2 39
i b
à°¤ à°ĺ
à°¦ à°§
à°Ł à°µà°¨
à°µ à°ªà°²
à°Ĺ à°¨à°¨
ÂłÂł ĠÂłĠÂłĠÂłĠÂłĠÂłĠÂłĠÂłĠÂłĠÂłĠÂłĠÂłĠÂłĠÂłĠÂłĠÂłĠÂłĠÂłĠÂłĠÂłĠÂłĠÂłĠÂłĠÂłĠÂłĠÂłĠÂłĠÂłĠÂł
Ġà°¦ à°ĸà°²
Ġà°ī à°·à°¨
à°Ń à°®à°¨
à°²à°ķ à°¦
Ġà°¯ à°®à°ª
Ġà°¤à°¨ à°¬
à°¯à°² à°¦
à°¯à°² à°®
Ġà°ĵ à°Ĺ
à°°à°¯ à°£
Ġà°ħà°ª à°¹à°°à°£à°ķ
à°¯à°° à°¹à°¦
ĠÂłĠÂłĠÂłĠÂłĠÂłĠÂłĠÂłĠÂł ĠÂłÂł
à°ľà°° à°µà°¡
à°²à°µ à°Ĺà°²
08 9
09 1
09 7
Ġà°ľà°¨ à°¶à°ķ
Ġ20 4
à°¡à°¦ à°®
à°Ĺà°¡ à°¤
à°§à°ªà°¡ à°¦
à±į: "
110 052015
Ġà°Ķ à°¸
à°Ĺà°£ à°¨
116 032016218
129 10201748
129 102017483
76 9
1020 820151
97 1
1120 8201745
Ġà°¨à°Ĺ à°²à°¤
Ġà°¤à°²à°ķ à°Ł
à°¨à°ªà°¡ à°ķ
Ġa c
ÂłÂłĠÂłÂłÂłĠÂłÂłÂłĠÂłÂłÂłÂłÂłÂłÂłÂłÂłÂłÂłÂłÂłÂłÂłÂł ÂłÂłÂłÂłÂłÂłÂł
Ġà°ķà°²à°Ĺà°² à°¸
Ġà°ħà°²à°µà°° à°ļ
11510201516 2
10503201737 8
10603201737 8
102072015 125
11709201746 5
1200620162 56
110052015 108
5 16
5 34
6 52
8 30
T I
u re
à°¨ à°°à°ķà°²
à°ķ à°µà°¸à°¤
Âł ĠÂłĠÂłĠÂłĠÂłĠÂłĠÂłĠÂłĠÂłĠÂłĠÂłĠÂłĠÂłĠÂłĠÂłĠÂłĠÂłĠÂłĠÂłĠÂłĠÂłĠÂłĠÂłĠÂłĠÂł
à°¡ à°¸à°°
à°ª à°ļà°°
à°ª à°¶à°¯
à°µ à°µà°°
à±Ĥ à°Ĥ,
Ġà°¨ à°®à°²
Ġà°¨ à°°à°¹
Ġà°° à°¸à°µ
à°¬ à°¨à°Ĺ
à°³ à°Łà°®
à°¶ à°µà°¤
à°§ à°°à°ķ
Ġà°¦ à°®à°¯
Ġà°ľ à°²à°°
Ġà°ľ à°«à°°
à°²à°ķ à°ªà°ķ
Ġà°¯ à°µà°²
end s
Ġà°®à°¨ à°¦à°Ĺ
ĠÂłĠÂłĠÂłĠÂł ĠÂłĠÂłĠÂłĠÂłÂł
Ġà°ħà°¡ à°Ĺà°µ
Ġà°ħà°ª à°¶à°ķ
Ġà°§ à°®à°¨
Ġà°§ à°¨à°¯
à°¿... âĢĻâĢĻ
ÂłÂłÂłÂłÂłÂłÂłÂłÂłÂłÂłÂłÂłÂłÂłÂłÂłÂłÂłÂłÂłÂłÂłÂłÂłÂłÂłÂłÂłÂłÂłÂł ÂłÂłÂłÂłÂłÂłÂłÂłÂłÂł
Ġ18 9
Ġ50 6
à°ļà°Ĺà°² à°Ĺà°¡
108 0320159
107 112017487
109 042016227
104 09201746
104 052015106
99 3
127 03201622
127 102017482
96 3
1130 9201630
1130 22016206
ÂłÂłÂłĠÂłÂłÂłĠÂłÂłÂł ĠÂłĠÂłĠÂłĠÂłĠÂłĠÂłĠÂłĠÂłĠÂłĠÂłĠÂłĠÂłĠÂłĠÂłĠÂłĠÂłĠÂłĠÂłĠÂłĠÂłĠÂłĠÂłĠÂłĠÂłĠÂłĠÂłĠÂłĠÂł
ÂłÂłÂłĠÂłÂłÂłĠÂłÂłÂłÂłÂłÂłÂłÂłÂłÂłÂłÂłÂłÂłÂłÂłÂłÂłÂłÂłÂłÂłÂłÂłÂłÂłÂłÂłÂłÂłÂłÂł ÂłÂłÂłÂłÂłÂł
ÂłÂłÂłĠÂłÂłÂłĠÂłÂł ĠÂłĠÂłĠÂłĠÂłĠÂłĠÂłĠÂłĠÂłĠÂłĠÂłĠÂłĠÂłĠÂłĠÂłĠÂłĠÂłĠÂłĠÂłĠÂłĠÂł
113 112016333
Ġà°¸à°°à°³ à°¤à°°
Ġà°®à°¦à°¨ à°ªà°¡
ÂłÂłĠÂłÂł ĠÂłĠÂłĠÂłĠÂłĠÂłĠÂłĠÂłĠÂłĠÂłĠÂłĠÂłĠÂłĠÂłĠÂłĠÂłĠÂłĠÂłĠÂłĠÂłĠÂł
ÂłÂłÂłĠÂłÂłÂłÂłÂłÂłÂłÂłÂłÂłÂłÂłÂłÂłÂłÂłÂłÂłÂłÂłÂłÂłÂłÂłÂłÂłÂłÂłÂłÂłÂłÂł ÂłÂłÂłÂł
ar d
http s
1060720174 35
ĂĂ ĂĂ
103072015 12
11501201619 6
5 56
5 32
6 12
8 10
Âł ĠÂłĠ
à°Ł à°ªà°¦
à°¯ à°Ľ
à°¡ à°ªà°¡
à°Ĺ à°Ĺà°²
à±ģ. ă
à°· à°Ĺà°Ł
Ġà°Ĩ à°¤à°¨
Ġà°Ĺ à°¤à°ķ
Ġà°ī à°ĸ
à°¥ à°¨à°Ĺ
20 01
à°ĸ à°®à°¯
à°°à°® à°²à°¤
à°°à°® à°¶à°ķ
Ġà°¯ à°¨à°®
Ġà°¯ à°®à°¦
à°Łà°° à°°
Ġà°§ à°¡
à°ªà°° à°ª
à°ļà°¡ à°¨
Ġà°Ĳ à°Ĳà°ª
Ġà°¨à°µ à°¤à°°
Ġà°¸à°¹ à°¦
Ġ3 24
à°¾.. âĢĻâĢĻ
à°°à°ľà°² à°¦
à°¢ à°ķ
Ġ19 8
19 94
à°Ľ à°Ł
ÂłÂłÂłĠÂłÂłÂłĠ ÂłÂłÂłÂłÂłÂłÂłÂłÂłÂłÂłÂłÂłÂłÂł
Ġ30 3
107 04201598
à°¾.... ....
109 0320159
109 0220158
à±Ģ) :
104 0420159
124 03201622
1250 220158
0520162 42
Ġà°µà°¦à°² à°Ł
ÂłÂłĠÂł ĠÂłÂł
ÂłÂłÂłĠÂłÂłÂłĠÂłÂłÂłÂłÂłÂłÂłÂłÂłÂłÂłÂłÂłÂłÂłÂłÂłÂłÂłÂłÂłÂłÂłÂłÂłÂłÂłÂłÂłÂłÂłÂł ÂłÂłÂłÂłÂłÂłÂł
115 102017477
Ġà°°à°ļà°¨ à°¨
ÂłÂłĠÂłÂł ÂłÂłÂłĠ
Ġà°İà°Ĺà°° à°¡
Ġh ave
1010520162 35
12103201738 5
11810201516 3
1110320162 16
1040420162 25
12102201620 9
1311020163 28
2 27
4 24
5 18
5 31
6 46
6 78
7 54
r om
à°Ĺ à°µà°¸
à°ļ à°ľà°¨
Ġà°ª à°Ĺà°µ
Ġà°Ĩ à°Ĺà°°
Ġà°Ĩ à°ľà°¨
à°¶ à°°à°µ
à°£ à°Ńà°Ĺà°µ
Ġà°ľ à°¨à°ª
à°Ń à°¯à°ª
Ġà°ı à°Ĺ
à°°à°® à°®à°¨
à°°à°ķ à°Ĺ
Ġà°¸à°® à°ļ
Ġà°ķà°² à°Ĺà°ļ
à°¯à°² à°Ĺ
Ġà°¸à°° à°Ĺà°¸
à°²à°¤ à°ª
Ġ2 45
à°ĺ à°µà°ª
Ġà°¤à°® à°®
00 5
à°¿! !"
Ġà°Ĩà°µ à°Ĺ
à°¡à°µ à°²à°ķ
19 80
Ġ9 700
à°µà°Ĺ à°£à°®
Ġà°¬à°¸ à°µà°¤
ÂłÂłÂłĠÂłÂłÂłĠ ÂłÂłÂłÂłÂłÂłÂłÂłÂłÂłÂłÂłÂłÂł
ÂłÂłÂłÂłÂłÂłÂłÂłÂłÂłÂłÂłÂłÂłÂłÂłÂłÂłÂłÂłÂłÂłÂłÂłÂłÂłÂłÂłÂłÂłÂłÂł ÂłÂłÂłÂłÂł
Ġ17 7
Ġ17 8
Ġà°µà°¡ à°¬
à±į.... ?"
126 062015123
127 01201620
119 092015153
128 09201746
76 1
à°°à°®à°£ à°²à°¨
Ġà°µà°£ à°ķà°¡
1220 52017417
1220 2201587
1020 5201510
97 3
Ġà°µà°°à°¦ à°²à°¤
68 5
ÂłÂłÂłĠÂłÂłÂłĠÂłÂłÂłÂłÂłÂłÂłÂłÂłÂłÂłÂłÂłÂłÂłÂłÂłÂłÂłÂłÂłÂłÂłÂłÂłÂłÂłÂłÂłÂłÂłÂł ÂłÂłÂłÂłÂłÂłÂłÂłÂł
Ġà°°à°£ à°Ĺ
Ġà°°à°¥ à°ļà°ķ
ÂłÂłĠÂłÂłÂłĠÂłÂłÂłĠÂłÂłÂłÂłÂłÂłÂłÂłÂłÂłÂłÂłÂłÂłÂłÂł ÂłÂłÂłÂłÂłÂłÂłÂłÂł
com à°²
11201 2015
Ġà°¦à°¯à°¤à°² à°ļ
3 500
4 38
5 58
7 02
I D
o g
Ġ %
Ġ ġ
Ġ un
à°° à°½
à°¦ à°ªà°¡à°¤
à°¯ à°§à°¨
à°¡ à°ªà°¨
à°µ à°£à°®
à°Ĺ à°¬à°²
à°ļ à°¬à°Ł
à°· à°ªà°¦
Ġà°Ĩ à°ĺ
à°¬ à°µà°°
ÂłÂłÂł ĠÂłĠÂłÂł
à°¹ à°ķà°²
Ġà°ı à°ķà°²à°µ
Ġà°Ī à°«
à°¦à°° à°ļ
à°ĸ à°ķà°°
Ġà°Ĵ à°¡à°²
à°¯à°¨ à°µ
à°°à°® à°²à°ª
à°« à°®
à°ªà°¡ à°ª
à°ªà°¡ à°Łà°®
te d
Ġà°ľà°° à°ªà°Ł
Ġà°®à°¨ à°·
Ġà°Ĩà°° à°¯
à°°à°µ à°¦
Ġ2 47
à°¨à°¨ à°Ĺ
à°ı à°®à°µ
à°ĺ à°¨à°²à°ķ
Ġà°İà°² à°®
Ġ3 76
Ġ20 21
19 90
à°ªà°¦ à°¤
à±Ģ. ,
ÂłÂłÂłÂłÂłÂłÂłÂłÂłÂłÂłÂłÂłÂłÂłÂłÂłÂłÂłÂłÂłÂłÂłÂłÂłÂłÂłÂłÂłÂłÂłÂł ÂłÂł
à°ħà°¨ à°Ĺà°¨à°Ĺ
Ġà°Ĺà°®à°¨ à°®
à±ģ) -
107 022016204
à±ģ..... ?
127 062016258
119 09201515
129 052015114
à°°à°ªà°¡ à°¤
à±ģâĢĻâĢĻ .
77 9
98 1
1150 320162
66 4
ĠĠĠĠĠĠĠĠ ĠĠĠ
Ġà°Ĺà°Ĺ à°¨à°®
ÂłÂłĠÂłÂłÂłĠÂłÂłÂłÂłÂłÂłÂłÂłÂłÂłÂłÂłÂłÂłÂłÂłÂłÂłÂłÂłÂłÂłÂłÂłÂłÂłÂłÂłÂłÂłÂłÂł ÂłÂłÂłÂłÂłÂłÂłÂłÂłÂłÂłÂł
ÂłÂłĠÂłÂłÂłĠÂłÂłÂłÂłÂłÂłÂłÂłÂłÂłÂłÂłÂłÂłÂłÂłÂłÂłÂłÂłÂłÂłÂłÂłÂłÂłÂłÂłÂłÂłÂłÂł ÂłÂłÂłÂłÂłÂłÂłÂłÂł
ÂłÂłÂłĠÂłÂłÂłĠÂłÂłĠÂłĠÂłĠÂłĠÂłĠÂłĠÂłĠÂłĠÂł ĠÂłĠÂłĠÂł
Ġà°ķà°¨à°ķà°® à°¹
10101201735 2
1050820151 37
11401201735 7
4 48
6 40
6 88
7 06
8 20
9 10
9 78
Ġ ÂłÂłÂłÂł
à°ķ à°®à°°
à°¦ à°¸à°µ
à°Ł à°µà°°à°ķ
à°µ à°µà°¸
.. âĢĻ
Ġà°ĩ à°ķà°²
Ġà°ı à°Łà°¨
Ġà°ªà°° à°®à°¯
à°°à°¨ à°Ĺ
à°¤à°² à°ªà°²
à°ı à°Ĺ
à°¤à°ķ à°¥
à°¾? .
Ġà°· à°¤
Ġà°Ĳ à°Ĳà°Ĳà°Ł
ÂłÂłÂłÂłÂłÂłÂłÂłÂłÂłÂłÂłÂłÂłÂłÂł ÂłÂłÂłÂłÂłÂłÂłÂłÂłÂł
à°Ĳ à°²à°¨
Ġà°Ĭ à°ķ
à°¿? ..."
à°µà°ķ à°£
Ġà°ıà°ķ à°¶
à°Łà°ªà°¡ à°ķà°ª
110 062015
106 09201630
126 122016350
119 052017415
Ġ26 5
à±ĩ.... !
à°¯à°Łà°¨ à°¤
124 0120157
Ġà°ķà°¦à°² à°¦
à°Łà°¤ à°°à°®
1220 82015143
1220 72017442
103 112015168
66 5
ÂłÂłÂłĠÂłÂłÂłĠÂłÂłÂłÂłÂłÂłÂłÂłÂłÂłÂłÂłÂłÂłÂłÂłÂłÂłÂłÂłÂłÂłÂłÂłÂłÂłÂłÂłÂłÂłÂłÂł ÂłÂłÂłÂłÂłÂłÂłÂł
à±ĩâĢĻ ,
Ġm e
1220920163 13
1290220162 12
122052015 112
à°·à°°à°£ à°¶
110062015 118
9 19
R E
Ġ ĉĉ
à±į ;
à°¸ à°µà°°à°£
Ġà°ª à°Ĺà°¨
Ġà°µ à°¨à°¦
Ġà°® à°Ĺà°°
Ġà°¸ à°²à°ªà°¨
à°ľ à°¬à°°
à°§ à°ķà°¨
Ġà°Ĺ à°¤à°°
à°« à°Ĳ
à°Ĩ à°¸à°°
à°ªà°² à°Ĺ
à°¨à°µ à°¦à°¨
Ġà°Ĳ à°Ĵà°¸
à°ªà°ķ à°¶
Ġà°Ĭ à°¯à°²
Ġà°Ĭ à°¡à°²
Ġ3 80
à°Łà°® à°§
Ġ5 40
Ġ19 1
Ġ19 58
à°Ľ à°Ľ
à°Ĺà°¡ à°ªà°²
à°²à°¬ à°¦
à°¤à°Ł à°µ
à°ļà°Ĺà°² à°¡à°¨
Ġà°¬à°¯à°Łà°ªà°¡ à°¨
127 102016326
127 042015104
118 0220158
119 07201626
117 0320162
130 06201743
1230 3201594
1120 42015
Ġà°µà°²à°¸ à°²à°¨
Ġà°ªà°¯à°¨ à°®à°¯
à°Ķ à°Łà°°
Ġà°ķà°²à°Ĺ à°µà°ļ
ÂłÂłĠÂłÂłÂłĠÂłÂłÂłÂłÂłÂłÂłÂłÂłÂłÂłÂłÂłÂłÂłÂłÂłÂłÂłÂłÂłÂłÂłÂłÂłÂłÂłÂłÂłÂłÂłÂł ÂłÂłÂłÂłÂłÂłÂłÂł
ÂłÂłÂłĠÂłÂłÂłĠÂłÂłĠÂłĠÂłĠÂłĠÂłĠÂłĠÂłĠÂłĠÂł ĠÂłĠÂłĠÂłĠÂłÂł
Ġn o
ĠĠĠĠĠĠĠĠĠĠĠĠĠĠĠĠĠĠĠĠĠĠĠĠĠĠĠĠĠĠĠĠ ĠĠĠĠĠĠĠĠĠĠĠĠĠĠĠĠĠĠĠĠĠĠĠĠĠĠĠĠĠĠĠĠ
12304201623 27
112012015 77
3 11
3 31
4 02
7 26
9 30
9 40
a in
à°¿ à±Į
à°¦ à°¯à°¤
à±ĭ à°ĥ
à°¯ à°¯à°®
à°® à°ķà°¨
à°ļ à°ªà°°à°ļ
Ġà°ħ à°³à°Ĺ
Ġà°® à°¤à°Ĺ
Ġà°¤ à°¡à°ª
à°· à°ķà°°à°®à°¨
à°£ à°¦à°²
Ġà°ī à°«
à°µà°° à°²à°ķ
Ġà°ı à°µà°¨
à°ĸ à°¹
Ġà°ªà°° à°Ń
à°ªà°¡ à°°
à°¤à°° à°Ĺ
Ġà°ħà°¡ à°¯
à°¯à°® à°¦
à°¦à°² à°¸
à°¤à°® à°¦
à°µà°¤ à°¸
à°¨à°° à°¹à°°
à°°à°¦ à°ľà°²
à°¨à°® à°¦
à°¾. ?
Ġ4 03
Ġà°°à°ķ à°®à°¯
Ġà°¸à°Ń à°°
Ġ20 8
Ġ6 10
à°¨à°¤ à°¡
à°Ĺà°³ à°¹
à°¥à°ķ à°¶
à°¾... !"
à°µà°°à°£ à°¨
à±į.. ?
108 02201620
109 08201629
126 03201595
à°¯à°¤à°² à°ª
130 04201510
à°Ĥ.... ?
1030 6201511
1220 42017402
97 9
Ġà°ħà°¸à°¹ à°ľà°®
102 112016329
à°¯à°ªà°° à°ļà°¡
an t
ÂłÂłÂłĠÂłÂłÂłÂłÂłÂłÂłÂłÂłÂłÂłÂłÂłÂłÂłÂłÂłÂłÂłÂłÂłÂłÂłÂłÂłÂłÂłÂłÂłÂłÂłÂł ÂłÂłÂłÂłÂłÂłÂłÂł
à±ģà°ģ .
as s
à°¾__ _
ÂłÂłÂłĠÂłÂłÂłĠÂłÂłĠÂłĠÂłĠÂłĠÂłĠÂłĠÂłĠÂłĠÂł ĠÂłĠÂłÂł
ÂłÂłÂłĠÂłÂłÂłĠÂłÂłĠÂłĠÂłĠÂłĠÂłĠÂłĠÂłĠÂłĠÂłĠÂłĠÂłĠÂłĠÂł ĠÂł
ÂłÂłÂłĠÂłĠÂłĠÂłĠÂłĠÂłĠÂłĠÂłĠÂłĠÂłĠÂłĠÂłĠÂł ĠÂłÂł
ÂłÂłÂłĠÂłÂłĠÂłĠÂłĠÂłĠÂł ĠÂłĠÂłĠÂłÂł
12010 20174
1040520162 37
12604201623 36
0 12
6 18
7 22
8 70
à°¨ à°Ī
à°¸ à°²à°ª
à°µ à°ªà°Ł
à°µ à°µà°¡
à°® à°ľà°ķ
à±Ĩ âĢĮ
Ġà°µ à°ķà°°
Ġà°µ à°¡à°ķ
âĢ ¦
Ġà°® à°ª
à±Ĥ ),
Ġà°¨ à°°à°¬à°²
à±Ī à±įâĢĮ
à°³ à°¨à°ª
Ġà°¬ à°ķà°°
à°£ à°®à°Ĺ
Ġà°İ à°®à°¨
à°°à°® à°°à°ķ
à±ĩà°Ĥ :
Ġà°¤à°¨ à°¸
ĠÂłĠÂłĠÂłĠÂł ĠÂłĠÂłĠÂłÂł
à°¸à°° à°ļà°¨
à°²à°¤ à°²à°¨
à°Łà°¨ à°¬
à°ı à°²à°ķ
ÂłÂłÂłÂłÂłÂłÂłÂłÂłÂłÂłÂłÂłÂłÂłÂł ÂłÂłÂłÂłÂłÂłÂłÂłÂłÂłÂł
à°¾! ....
Ġ4 80
à±ģ! ....
à±ģ? ?
Ġ20 7
19 98
19 70
19 69
à±ĩ.. âĢĻ
Ġ8 800
Ġ9 500
à°ķà°¤ à°¡
ÂłÂłÂłÂłÂłÂłÂłÂłÂłÂłÂłÂłÂłÂłÂłÂłÂłÂłÂłÂłÂłÂłÂłÂłÂłÂłÂłÂłÂłÂłÂłÂł ÂłÂłÂłÂłÂłÂłÂłÂłÂł
à±ģ: "
à°Ĥ! !!
104 0920174
Ġ28 2
Ġà°ľà°® à°ķà°Ł
124 042015
Ġ29 5
77 1
1230 520174
à°µà°¶ à°¤
Ġà°ħà°¡à°Ĺ à°ķà°ª
ÂłÂłĠÂł Ġ
68 3
68 9
à°°à°ªà°° à°ļà°¡
à±ĭâĢĻ .
113 11201633
à°Ķ à°¸
à°Ĺà°µà°° à°ª
Ġ".... ...
1150620174 26
star home
124042015 103
' s
3 21
4 16
4 39
6 56
7 12
8 28
9 12
p e
ĉ ĉÂłčĊ
Ġ âĢį
à±ģ âĢĺâĢĺ
à°² à°ľà°ķ
à°¯ à°ªà°¤
à°ª à°µà°Ĺ
Ġà°µ à°Ĺà°²
Ġà°µ à°£à°ķ
Ġà°¨ à°§
à±ģ. ?
à°ľ à°µà°¹à°°
Ġà°Ĩ à°¥à°°
à±Ī /
à°£ à°¨à°²
Ġà°ı à°¯à°¨
Ġà°ı à°ķà°¸
Ġà°ªà°° à°ªà°°
à°°à°¤ à°µ
à°®à°¨ à°ļ
Ġà°ľà°° à°ªà°Ĺ
à°¦à°² à°µà°¨
à°¤à°® à°¸
Ġà°ķà°³ à°²à°¨
Ġà°ķà°³ à°²à°ķ
à°¾?" "
Ġà°īà°ª à°¸à°Ń
à°Ī à°¤
à°Ī à°¬
à°Ī à°İà°«
à°¿? !"
à°¾.. "
à°¢ à°¸
à°¶à°ķ à°§
à°Ĺà°³ à°ķ
à±ĩ.. :
à°²à°¬à°¡ à°ķ
Ġ12 89
à°µà°¦ à°²à°¨
à±įâĢĮ) ..
Ġà°Ĳà°¦ à°¡
ÂłÂłÂłÂłÂłÂłÂłÂłÂłÂłÂłÂłÂłÂłÂłÂłÂłÂłÂłÂłÂłÂłÂłÂłÂłÂłÂłÂłÂłÂłÂłÂł ÂłÂłÂłÂłÂłÂłÂłÂłÂłÂłÂłÂłÂłÂł
Ġ17 9
à±įâĢĮ.. :
Ġà°ľà°°à°Ĺ à°µà°¨
110 0220158
106 0320159
127 122015188
127 092017469
119 052017416
130 0820174
120 052016243
-- "
Ġà°ķà°¨à°ªà°¡ à°ķà°ª
ÂłÂłÂłĠÂłÂłÂłĠÂłÂłÂł ĠÂłĠÂłĠÂłĠÂłĠÂłĠÂłĠÂłĠÂłĠÂłĠÂłĠÂłĠÂłĠÂłĠÂłĠÂłĠÂłĠÂłĠÂłĠÂłĠÂłĠÂłĠÂłĠÂłĠÂł
à°¾..? âĢĻ
Ġà°®à°¡ à°¤à°ª
à°¾à°Ĥ.. ..."
0320162 23
Ġà°ļà°® à°¸à°®
à°µà°Ĺà°² à°¡
ÂłÂłÂłĠÂłÂłĠÂłĠÂłĠÂłĠÂłĠÂłĠÂłĠÂłĠÂłĠÂłĠÂłĠÂłĠÂł ĠÂłĠÂłÂł
à°®à°¦à°¨ à°ªà°²
Ġe x
ak e
1241220175 11
1110520162 39
10604201739 4
1191020163 24
) (
4 33
4 000
5 48
6 26
7 08
8 06
8 26
9 22
Ġ j
à°Ĥ `
à°² à°µà°¤
à°ª à°¤à°°
à°ª à°¤à°®
à°µ à°Ĺà°°
à°® à°µà°ļ
à°® à°«à°²
à±Ģ à°Ĥ.
Ġà°ļ à°®à°°
à°· à°°à°¹
à°¬ à°²à°¨
à°¥ à°¦
à°²à°ķ à°¶
Ġà°Ń à°ľà°Ĺ
à°ĸ à°²à°µ
à°« à°Ĩà°°
à°®à°¨ à°Ľ
Ġà°« à°¸à°²
à°¯à°ķ à°·
à°¯à°ķ à°£
à°ħ à°µà°¤
à°Ĩ à°Łà°²
Ġà°ĵ à°°à°²
à°¯à°µ à°¯à°¸
Ġà°ĸ à°Ł
à°ķà°Ł à°ªà°¤
à°ļà°² à°®à°¯
à°®à°ķ à°®à°¨
Ġà°Ĩà°¶ à°ļ
Ġ3 75
à°¯à°¸ à°¹à°ķ
Ġ4 25
à°°à°Ĺ à°¡à°¨
Ġ6 000
19 91
à°ķà°°à°£ à°Ĺ
17 00
à°ĵ à°µ
à°§à°ķ à°¶à°ķ
107 102016319
110 082017449
Ġ24 00
Ġà°®à°Ĺ à°¤à°²
à±į.... ....
127 062016259
1030 82017446
1030 5201510
Ġà°ķà°¨à°ªà°¡ à°Ĺ
1020 72017434
1120151 75
68 1
122 112015175
12403201738 6
== ==
1140820162 97
12504201623 34
1300820174 58
5 36
6 08
6 48
6 54
7 36
7 52
a re
m e
w atch
à°² à°°à°¸
à°ķ à°¥à°ķ
à°¤ à°¸à°®
à±ĭ ;
à°¸ à°¹à°¨
à°ļ à°¤à°Ĺ
à±įâĢĮ à±į
Ġà°¤ à°¡à°ķ
à°¿. ''
Ġà°° à°¸à°Ĺ
Ġà°¬ à°¯à°ªà°¡
à°¾à°Ĥ (
Ġà°¶ à°łà°Ĺ
ÂłÂłÂłĠ ÂłÂłÂłÂłÂłÂłÂłÂłÂłÂłÂłÂłÂłÂłÂłÂłÂłÂłÂłÂłÂłÂłÂłÂłÂłÂłÂłÂłÂłÂłÂłÂłÂłÂłÂłÂłÂłÂłÂłÂłÂłÂłÂłÂłÂłÂłÂłÂłÂłÂłÂłÂłÂłÂłÂłÂłÂłÂłÂłÂłÂłÂłÂłÂłÂłÂłÂłÂłÂłÂłÂłÂłÂłÂłÂłÂłÂłÂłÂłÂł
à°¯à°¨ à°¤
Ġà°¯ à°¨à°¬à°¡
à°ħ à°¥
à°ħ à°Ĺà°°
à°ħ à°¦à°°à°Ĺ
Ġà°®à°° à°¦à°³
Ġà°ĵ à°²à°²
Ġà°ĵ à°ªà°ķ
Ġà°ħà°® à°²à°ķ
ĠÂłĠÂłĠÂłĠÂł ĠÂłĠÂłÂł
à°ķà°² à°ªà°²
à°¯à°® à°µà°¡
à°°à°µ à°ªà°°
à°¤à°² à°ļ
Ġ2 13
à±Ģà°Ĥ âĢĻ
à°¾! âĢĻâĢĻ
à°¦à°Ł à°®
Ġà°ķà°¦ à°ªà°¡
à°ªà°¨ à°Ĺ
à±ģ? !
Ġà°¡à°¬ à°²
à°µà°Ł à°Ĺ
Ġ8 700
à°ķà°°à°£ à°¶
à°ªà°¦ à°®à°µ
à°§à°µ à°¦
à°§à°µ à°ªà°¨
14 00
ÂłÂłÂłÂłÂłÂłÂłÂłÂłÂłÂłÂłÂłÂłÂłÂłÂłÂłÂłÂłÂłÂłÂłÂłÂłÂłÂłÂłÂłÂłÂłÂł ÂłÂłÂłÂłÂłÂłÂłÂłÂłÂłÂłÂłÂł
à°µà°°à°£ à°µ
126 09201515
119 10201747
à±ĩ.... ....
Ġ.... ?"
à°¾: "
88 3
1230 2201620
Ġà°Ĺà°ľ à°²à°ķ
à°¦à°ªà°¡ à°Ł
1120 22017369
ĠĠĠĠĠĠĠĠ ĠĠ
à°¨à°ªà°¡ à°¡
à°¯à°Ń à°Ĺà°µ
115 102017476
Ġà°ļà°¦à°µ à°Ĺà°²
Ġà°®à°²à°¯ à°ª
Ġw ill
ou nd
Ġm an
ic h
ÂłÂłÂłĠÂłÂłÂłĠÂłÂłĠÂłĠÂłĠÂłĠÂłĠÂłĠÂłĠÂłĠÂł ĠÂłĠÂł
11811201749 3
1040620162 49
12501201619 9
101062015 115
6 25
6 98
8 12
8 04
A R
à°ķ à°¨à°µ
à±ĭ ......"
à°ª à°¶à°ķ
à°® à°¡à°ķ
à°Ĺ à°Ńà°°
à°ļ à°°à°£à°²
Ġà°ķ à°§à°ķ
à±Ĥ ;
Ġà°¨ à°¯à°µ
Ġà°° à°ĸ
à°¬ à°¸à°®
Ġà°ľ à°®à°ķ
Ġà°ī à°¡à°¤
Ġà°² à°®
à°¤à°¨ à°²à°¨
à°ħ à°°à°µà°ķ
à°Ĩ à°·
Ġà°ķà°² à°ªà°Ł
Ġà°®à°¨ à°Ĺà°²
à°Ĺà°° à°°
à°ķà°² à°¸
à°¨à°¨ à°ķ
à°ľà°¨ à°¶
à°¾? ...."
à°ļà°° à°Ĺà°£
Ġà°Ĳ à°Ĳà°¸
Ġà°İà°µà°° à°®
ÂłÂłÂłÂłÂłÂłÂłÂłÂłÂłÂłÂłÂłÂłÂłÂł ÂłÂłÂłÂłÂłÂłÂłÂłÂłÂłÂłÂłÂł
Ġà°¸à°¹ à°ª
Ġ3 25
Ġà°µà°² à°µà°²
à°¹à°¨ à°ļ
Ġà°ķà°¦ à°¯
Ġ20 9
Ġ5 12
Ġ19 7
Ġ19 39
à°®à°¹ à°®
Ġ9 99
à°²à°¬à°¡ à°¦
ÂłÂłÂłĠÂłÂłÂłĠ ÂłÂłÂłÂłÂłÂłÂłÂłÂłÂłÂłÂł
109 09201630
119 072016268
128 042015104
120 06201625
88 1
1230 4201510
1130 6201625
1150 9201515
112 11201517
1120 22016206
Ġà°¸à°µà°° à°¦
Ġà°¬à°¯ à°³
79 5
à±ĩâĢĻ .
Ġà°°à°ļà°¨ à°²à°ķ
à°¤à°¶ à°¤
ÂłÂłÂłĠÂłÂłÂłÂłÂłÂłÂłÂłÂłÂłÂłÂłÂłÂłÂłÂłÂłÂłÂłÂłÂłÂłÂłÂłÂłÂłÂłÂłÂłÂłÂłÂł ÂłÂłÂłÂłÂłÂłÂłÂłÂł
ÂłÂłÂłĠÂłÂłÂłĠÂłÂłĠÂłĠÂłĠÂłĠÂłĠÂłĠÂłĠÂłĠÂłĠÂłĠÂłĠÂłĠÂł ĠÂłĠÂłĠÂł
Ġà°ĭà°£ à°ªà°¡
Ġà°½ à°§
11307201626 5
11209201746 3
10812201634 3
1240220162 10
125052015 113
3 13
4 14
6 06
6 02
6 16
6 32
7 16
7 56
7 58
8 44
8 52
8 90
9 01
L E
n a
o c
s und
Ġ te
Ġ ti
Ġ âĢĮ:
à°¦ à°¯à°¨
à°¯ à°°à°¸
à°ª à°¤à°¨à°®
à°® à°°à°®
à°Ĺ à°ķà°®
à°ļ à°Ĩà°°
Ġà°ª à°Ĺà°³
Ġà°ħ à°³
Ġà°¸ à°«à°°
à±Ī à±į
à°¶ à°ªà°°à°ļ
à°¶ à°ķà°°à°¤
à°£ à°£
à°¹ à°¸à°µ
Ġà°İ à°±
ĠÂł ĠčĊ
Ġà°¡ à°¡
à°°à°¤ à°¸
à°« à°ª
Ġà°¯ à°®à°Ĺ
à°®à°¨ à°µà°¡
à°®à°¨ à°Ĺà°°
à°ħ à°°à°ļ
à°ªà°¡ à°¦à°¨
Ġà°Ĩà°® à°¡à°¦
à°¤à°° à°£à°¨
à°¤à°² à°¸
Ġ2 27
Ġ2 21
Ġà°ªà°¡ à°Ĺà°µ
à°¤à°® à°²
à°¤à°® à°µà°¡
à°ı à°İà°²
à°¤à°ķ à°¦
à°ĺ à°ľ
à±Ģà°Ĥ ..
à°µà°¹ à°Ł
à°°à°¹ à°ª
Ġà°¨à°¡ à°¯
à°ªà°¨ à°¯
Ġà°¨à°Ł à°µ
Ġ19 36
Ġ19 41
à°¦à°® à°Ĺ
ÂłÂłÂłÂłÂłÂłÂłÂłÂłÂłÂłÂłÂłÂłÂłÂłÂłÂłÂłÂłÂłÂłÂłÂłÂłÂłÂłÂłÂłÂłÂłÂł ÂłÂłÂłÂłÂłÂłÂłÂłÂłÂłÂł
Ġà°ĺà°Łà°¨ à°²à°¤
à±ģ..... ....
Ġà°ħà°µà°Ĺ à°¤à°®à°µ
à±Ģ" .
Ġà°¸à°¹à°ľ à°®à°¨
1130 92016308
à°«à°²à°® à°µà°¡
Ġà°ħà°¡à°Ĺ à°®à°¨
66 9
à°®à°°à°£ à°¤
Ġà°ľà°²à°® à°Ł
à°ķà°µà°° à°ª
0320162 22
ÂłÂłÂłĠÂłÂłÂłĠÂłÂłĠÂłĠÂłĠÂłĠÂłĠÂłĠÂłĠÂłĠÂł ĠÂłÂł
ÂłÂłÂłĠÂłÂłÂłĠÂłÂłĠÂłĠÂłĠÂłĠÂłĠÂłĠÂłĠÂłĠÂłĠÂłĠÂłĠÂłĠÂł ĠÂłĠÂłÂł
à°Łà°µà°° à°¸à°ķ
13101 20158
Ġà°«à°¡ à°£à°µ
12604201623 38
1150520174 12
11409201746 4
11001201619 4
11502201620 7
! !"
4 12
6 04
6 44
6 86
7 24
7 28
7 38
8 36
8 74
9 42
m an
r ends
à°ķ à°¦à°®
à°¦ à°Łà°¨
Âł ĠÂłĠÂłĠÂłĠÂłĠÂłĠÂłĠÂłĠÂłĠÂłĠÂłĠÂłĠÂłĠÂłĠÂłĠÂłĠÂłĠÂłĠÂłĠÂłĠÂł
à°Ł à°ªà°Łà°²
à°¡ à°Ĺà°°
à°¸ à°²à°µ
à°Ĺ à°¹
Ġà°ķ à°¦à°¨
Ġà°¨ à°«
à°· à°®à°Ĺ
Ġà°Ĩ à°Ĺà°¤
Ġà°ħà°¨ à°µ
à°Ń à°£à°¤
à°²à°¨ à°ªà°¡
à°²à°ķ à°¸
Ġà°ı à°Ĳà°İà°¸
à°ķà°° à°µ
ÂłÂłĠ ÂłÂłĠÂł
à°¯à°ķ à°¤à°ª
Ġà°Ĵà°ķ à°¬
Ġà°Ĵà°ķ à°£
à°ħ à°²à°¨
à°ħ à°°à°Ł
11 11120174
Ġ2 11
Ġ2 26
Ġ2 57
à°ĩ à°¯à°°
Ġà°¨à°µ à°Ĺ
à°Ī à°®à°§
Ġ3 41
à°¨à°¸ à°Ń
Ġà°Ńà°¯ à°¬
Ġà°Ĺà°¡ à°ªà°¨
19 72
à°Ĺà°³ à°®
Ġ8 200
Ġ7 900
Ġ9 800
à°µà°Ĺ à°£
à°¾... âĢĻ
à°ķà°¦ à°³
110 072015127
Ġà°¬à°¯à°Łà°ªà°¡ à°µà°ļ
Ġà°Ķ à°ª
Ġà°®à°® à°¤à°ķ
117 112016335
124 112016338
à°°à°ªà°¡ à°¨
88 7
78 1
à°Ĩà°¯à°¨ à°¤
1150 620162
1150 8201629
à±ĩ? '
Ġà°¸à°°à°¸ à°®
66 3
à°¨à°ªà°¡ à°²
à°¯à°ªà°° à°ªà°¤
Ġà°ķà°²à°µ à°®à°¨
89 1
ÂłÂłÂłÂłÂłÂłÂłÂłÂłÂłÂłÂłÂłÂłÂłÂłÂłÂłÂłÂłÂłÂłÂłÂłÂłÂłÂłÂłÂłÂłÂłÂłÂłÂłÂłÂłÂłÂłÂłÂłÂłÂłÂłÂłÂłÂłÂłÂł ÂłÂłÂłÂłÂłÂłÂłÂłÂłÂłÂłÂłÂłÂł
à°ªà°¨à°² à°µ
Ġà°°à°¥ à°ª
is h
or t
à°¾__ "
ÂłÂłÂłĠÂłĠÂłĠÂłĠÂłĠÂłĠÂłĠÂłĠÂł ĠÂłĠÂłĠÂłÂł
ver y
1010520162 356
10202201736 4
Ġà°Ĩà°Ń à°°à°£à°®
1110720174 37
1011120163 28
11201201735 6
11602201620 7
123062015 122
1260220162 11
2 17
6 34
6 38
6 58
6 42
7 48
7 42
9 86
e ar
Ġ r
à°¿ à°¿
à°¨ à°ķà°°à°®
à°° à°¡à°ķ
à°¤ à°µà°¤
à°¦ à°¯à°¸
à°ª à°°à°¤
à°¸ à°¦à°¨
à°¸ à°ĸ
à°ļ à°Łà°¨
Ġà°ķ à°¡à°ķ
Ġà°İ à°¦à°¨
Ġà°ľ à°Ĺà°¡
Ġà°¹ à°¯à°¤à°¨à°Ĺà°°
à±ģ, .
Ġà°¯ à°µà°¨
Ġà°« à°ľ
Ġà°¸à°® à°Ń
Ġà°ķà°² à°ªà°¨
à°ķà°¡ à°¦
à°²à°² à°¦
Ġ2 58
Ġà°ĩà°¦ à°®
à°·à°¯ à°ª
à°¤à°ķ à°¸
Ġà°¤à°® à°µà°¦
à°¨à°ķ à°¸
à°Ĳ à°²à°¯
Ġà°¨à°¡ à°µà°ķ
Ġ: --
à°¿? ?
à±ģ? ..
Ġà°¬à°² à°ªà°°à°ļ
19 00
Ġà°ľà°² à°µà°°
Ġà°¬à°¯à°Łà°ªà°¡ à°¦
118 08201745
117 042017399
Ġ__ ________
à±Ĥ? ...
à°ķà°¶ à°¤
à°¡à°Ĺà°² à°®
à°°à°¥à°® à°¸
th er
à°¡à°ļ à°ķà°Ł
ĠÂłĠÂłĠÂłĠ ÂłÂłĠÂłÂłÂł
ÂłÂłĠÂłÂłÂłĠÂłÂłÂłÂłÂłÂłÂłÂłÂłÂłÂłÂłÂłÂłÂłÂłÂłÂłÂłÂłÂłÂłÂłÂłÂłÂłÂłÂłÂłÂłÂłÂł ÂłÂłÂłÂłÂłÂłÂłÂłÂłÂłÂł
ÂłÂłÂłĠÂłÂłĠÂłĠÂłĠÂłĠÂłĠÂłĠÂłĠÂłĠÂłĠÂłĠÂłĠÂłĠÂłĠÂłĠÂłĠÂłĠÂł ĠÂłĠÂłÂł
à°ĩà°°à°µ à°¯
ĠÂłÂłĠÂłĠÂłĠÂłĠÂłĠÂłĠÂłĠÂłĠÂł ĠÂł
11012201518 2
10501201619 2
12401201619 9
3 15
4 35
5 37
7 34
8 02
8 56
8 32
9 76
h i
à°ķ à°¬à°°
à°¦ à°¬à°¡
Âł ĠÂł
à±ĩ ___
à°µ à°§à°¨
à°ļ à°°à°ª
à°ļ à°Ĺà°¤
Ġà°ª à°¦à°°
à°· à°¯à°²
à°³ à°Ĺà°²à°¨
à±Ĭ ,
Ġà°¬ à°¨à°Ĺ
Ġà°¬ à°«à°°
Ġà°Ĺ à°ľà°®
à°£ à°ªà°°
Ġà°² à°¹à°°
à°²à°ķ à°µ
à°İ à°ķà°¨
à°®à°¨ à°ªà°²
à°ħ à°ĺ
à°ħ à°¨à°Ĺ
à°ªà°Ł à°ķ
à°°à°Ń à°²
à°¯à°® à°§à°°
Ġà°ªà°¨ à°¸
Ġ2 46
Ġ( "
à°ĺ à°ª
00 3
à°¨à°¸ à°¨
à±ģ! !"
Ġà°Ĩà°¡ à°¬à°¡
à°ľà°ķ à°¤
à°¿.. :
à°¡à°µ à°ª
Ġ7 800
à°ķà°¸ à°¦
à°®à°£ à°ļ
ÂłÂłÂłĠÂłÂłÂłĠ ÂłÂłÂłĠÂłÂłÂłÂłÂłÂłÂłÂłÂłÂłÂłÂłÂłÂłÂłÂłÂłÂłÂłÂłÂłÂłÂłÂłÂłÂłÂłÂłÂłÂłÂłÂłÂłÂłÂłÂłÂłÂłÂłÂłÂłÂłÂłÂłÂłÂłÂłÂł
Ġà°ķà°¥ à°²à°²
Ġà°ıà°ķ à°µ
Ġà°Ńà°µà°¨ à°®
à°Łà°ªà°¡ à°µà°²à°¸
Ġ28 1
126 0120158
126 112015177
128 02201588
129 112015177
à°Ĺà°ª à°°à°®
à±ĩ- -
Ġà°¸à°¹à°ľ à°µà°¨à°°
1230 220162
1030 3201589
112 10201632
1120 2201736
à°Ĥ' .
Ġà°¨à°µà°² à°²à°¨
Ġà°¨à°°à°ķ à°¡
ÂłÂłĠÂłÂłÂłĠÂłÂłÂłĠ ÂłÂłÂłĠÂłÂłÂłÂłÂłÂłÂłÂłÂłÂłÂłÂłÂłÂłÂłÂłÂłÂłÂłÂłÂłÂłÂłÂłÂłÂłÂłÂłÂłÂłÂłÂłÂłÂłÂłÂłÂłÂłÂłÂłÂłÂłÂłÂłÂłÂłÂłÂł
ÂłÂłÂłĠÂłĠÂłĠÂłĠÂłĠÂłĠÂłĠÂłĠÂłĠÂłĠÂłĠÂłĠÂł ĠÂłĠÂł
1040820151 36
1110620162 52
1030320162 13
à±Ĩà±ģ à±ĸ
11301201619 5
1140320162 17
12510201516 5
Ġà°¨à°²à°¤ à°Ĺ
4 11
4 07
6 94
7 14
7 32
8 08
8 92
9 26
Ġ ÂłÂłĠÂłÂłÂł
à°¿ âĢĺâĢĺ
à°¨ à°°à°µ
à°¨ à°ªà°¡à°¤
à°® à°µà°¤
à°Ĺ à°¨à°°
à°Ĺ à°¡à°¡
à±Ĩ (
Ġà°® à°¦à°®
à°¬ à°µà°¤
à°¶ à°²à°®
à°§ à°¶à°¤
à°µà°° à°µ
Ġà°ı à°Ńà°¯
Ġà°Ī à°®à°¨
Ġà°¹ à°ľà°°
à°¤à°¨ à°ªà°²
Ġà°Ĵà°ķ à°ªà°¨
Ġà°ħà°µ à°Ĺà°¤
à°·à°¨ à°¤
ÂłÂłÂłÂłÂłÂłÂłÂł ĠčĊ
à°Ĺà°° à°¹
à°°à°£ à°®à°Ł
à°°à°¨ à°ķ
Ġà°ħà°² à°¯
à°°à°µ à°µ
Ġ2 19
Ġà°§ à°¨à°²
à°ı à°²à°¨
à°ı à°Īà°²
à°ĺ à°¶
Ġà°Ĳ à°ĵà°İà°¸
à°²à°µ à°ª
00 9
Ġ3 56
à±ģ? ....
Ġ7 20
à°Ľ à°¨à°®
Ġà°ħà°¸à°² à°¤à°¨
à°¶à°¨ à°²à°ķ
à°ĥ '
Ġà°¬à°¯à°Łà°ªà°¡ à°Ĺà°²
à°¤à°¡ à°¬à°¡
116 06201625
à°ªà°£ à°¤
118 01201619
119 09201746
à°¿âĢĻâĢĻ .
1120163 36
Ġà°Ĺà°ľ à°Ĺà°ľà°²
1020 82015136
1020 3201589
à°¨à°¬ à°Ĺà°¤
Ġà°ħà°¡à°Ĺ à°µà°¦
à°£à°ª à°°à°®
68 7
122 11201517
ÂłÂłĠÂłÂł ĠÂłĠÂłĠÂłĠÂłĠÂłĠÂłĠÂłĠÂłĠÂłĠÂłĠÂłĠÂłĠÂłĠÂłĠÂłĠÂłĠÂłĠÂłĠÂłĠÂłĠÂłĠÂłĠÂłĠÂł
Ġs o
ÂłÂłĠÂłÂłÂłĠÂłÂłÂłÂłÂłÂłÂłÂłÂłÂłÂłÂłÂłÂłÂłÂłÂłÂłÂłÂłÂłÂłÂłÂłÂłÂłÂłÂłÂłÂłÂłÂł ÂłÂłÂłÂłÂłÂłÂłÂłÂłÂł
ÂłÂłÂłĠÂłÂłÂłĠÂłÂłĠÂłĠÂłĠÂłĠÂłĠÂłĠÂłĠÂłĠÂłĠÂłĠÂłĠÂłĠÂł ĠÂłÂł
1040520162 36
Ġà°ıà°ķà°ª à°¤
10203201737 6
art rends
1110520174 10
11812201634 7
12701201736 2
12101 201579
sund artrends
1150620162 54
! ....
3 23
4 23
8 18
8 22
8 98
A L
à°² à°ľà°¨
à°² à°ľà°²
à°ķ à°¨à°¨
à°¤ à°Łà°¨
à°® à°·à°®
Ġà°® à°Ĺà°¸
Ġà°° à°²
à°³ à°«
à°¶ à°µà°®
Ġà°¦ à°¯à°Ĺ
à°¹ à°¯à°¤
à°¹ à°¸à°¨
à°¹ à°£à°ķ
Ġà°İ à°İà°¨
Ġà°ľ à°®à°¯
à±Ĩà°Ĥ ?"
à°°à°¤ à°ķà°¡à°®
Ġà°¸à°® à°¦
à°¤à°¨ à°Ĺ
à°¤à°¨ à°¡à°ķ
à°Łà°° à°²
à°¨à°Ł à°¨
Ġà°ķà°² à°¬à°¡
Ġà°ķà°² à°¯à°ļ
Ġà°ĵ à°·à°¨
Ġà°ħà°° à°µà°²
à°¤à°² à°ªà°Ł
Ġ2 39
Ġ2 38
Ġ2 100
12 10320159
à°µà°¨ à°²à°¨
à°µà°¤ à°²à°²
à°ªà°° à°ļà°¨
à°ł à°ķà°®
à°²à°µ à°µ
00 7
à°¿? ....
à°¸à°² à°¦
Ġ20 6
à°°à°Ĺ à°¡à°ķ
Ġ19 37
Ġ19 32
19 56
à°Ĵ à°ķà°®
Ġà°ķà°¡ à°ªà°ľ
Ġ30 7
à°ħà°² à°¹
à±Ĥ.. !
Ġà°®à°® à°¤à°¨
117 112016334
129 04201623
à°Ĭ à°¹à°²
124 052016245
Ġà°¨à°°à°¸ à°¯
1050 320158
à±įâĢĮ! !
Ġà°ľà°°à°Ĺà°¡ à°®
à±ĩà°Ĥ? '
Ġ36 9
123 10201516
ÂłÂłÂłĠÂł ĠčĊ
Ġth is
ar y
es t
Ġw as
Ġn e
ab ntelugutv
1210420162 319
1210620174 29
1300520174 20
1310520174 20
11609201630 9
11301201735 7
1210320162 20
13001201736 3
121042015 10
1110220158 4
111042015 99
3 29
4 21
4 45
4 47
4 31
6 35
6 36
6 22
6 99
7 49
8 34
8 48
8 42
8 96
I S
T E
a ge
l l
n t
Ġ ĉ
à°¨ à°°à°®
à°Ĥ à°ĥ
à°² à°Ńà°°
à°ķ à°³à°¤
à°ķ à°¶à°°
à°¦ à°ªà°¦
à°¯ à°¤à°°
à°¯ à°ļà°°
à°¯ à°¯à°®à°µ
à°® à°°à°µ
à±Ģ +
à±Ģ à°ĥ
à°ļ à°®à°¯
Ġà°® à°²à°®
Ġà°¸ à°ľà°²
Ġà°¨ à°¯à°®à°¨
à°¶ à°¨à°ª
à°§ à°¨à°µ
à°¹ à°«
Ġà°ľ à°¡à°µ
à°µà°° à°ªà°°
à°²à°ķ à°¡à°²
Ġà°¯ à°®à°²
à°ħ à°°à°£
à°°à°¸ à°²
ĠÂłĠÂłĠÂłĠÂł ĠÂłĠÂłĠÂłĠ
Ġà°ķà°¨ à°²
à°°à°£ à°§
Ġà°Ĩà°¯à°¨ à°ļ
Ġ2 12
Ġ2 37
Ġ2 55
à°ªà°° à°ļà°²
à°ı à°¦à°¨
Ġà°· à°ķà°²à°ķ
à°¨à°µ à°ķ
à±į. '
ÂłÂłÂłÂłÂłÂłÂłÂłÂłÂłÂłÂłÂłÂłÂłÂł ÂłÂłÂłÂłÂłÂłÂłÂłÂł
à°¯à°¤ à°²à°¤
à°¡à°Ĺ à°¡à°¤
à°¿) -
Ġ3 12
Ġ3 18
Ġ3 77
à±ģ." "
Ġ4 98
Ġ4 60
à°Łà°ķ à°¦
Ġà°¸à°®à°¸ à°®
à°µà°°à°ķ à°¦
Ġà°Ĺà°¡ à°¬
Ġ5 10
à°¨à°¤ à°²à°ķ
19 85
Ġ9 98
à°¨à°Ĺ à°ªà°ª
Ġà°®à°² à°¦
ÂłÂłÂłÂłÂłÂłÂłÂłÂłÂłÂłÂłÂłÂłÂłÂłÂłÂłÂłÂłÂłÂłÂłÂłÂłÂłÂłÂłÂłÂłÂłÂł ÂłÂłÂłÂłÂłÂłÂłÂłÂłÂłÂłÂłÂłÂłÂł
Ġ23 2
Ġ30 5
Ġà°ľà°² à°¸à°®
Ġà°ľà°¯ à°µà°°
à°Łà°ªà°¡ à°¦
108 04201598
Ġà°Ńà°¯à°ªà°¡ à°µà°²à°¸
à±į.... ?
118 01201578
Ġ27 6
à±ĭ? '
1220 3201594
à°½ à°¦
Ġà°µà°¦à°² à°Ĺ
à°Ĺà°¤à°¨ à°®
Ġà°¤à°Ĺà°² à°Ł
Ġà°ħà°²à°¸ à°Łà°¨
87 1
à°¦à°¬ à°Ĺà°¤
à°ĩà°Ĵ à°²
Ġc as
à±ģà°ģ !
Ġà°ħà°Ńà°¯ à°¹à°¸
Ġd o
ĠD D
1040520162 368
ĠN o
1210420162 317
1310520162 48
Ġal l
1140520174 12
12904201623 50
4 05
5 23
5 47
6 72
7 25
8 14
8 46
8 58
8 72
9 54
V E
c o
i e
n ic
à°° à°¯à°¨
à°° à°¥à°¨
à°¯ à°§à°ķ
à°¡ à°¨à°µà°¸à°°
âĢĮ !
à°¬ à°ľà°°
à°§ à°ľ
à°£ à°µà°²
à°£ à°ķà°Ł
à°£ à°¤à°¤
Ġà°ī à°¤à°ķ
à°¥ à°ļ
à°İ à°ĩ
à°°à°ķ à°¡à°®
à°¸à°° à°£
Ġà°ķà°¨ à°Ĺ
à°¾, "
à°Ĥ. '
Ġ0 10
Ġà°µà°° à°¦à°²à°ķ
Ġà°§ à°Ĺà°§
à°¾? ,
à°¨à°µ à°¯
à°¾! ?"
à°¾! !"
Ġà°¸à°¹ à°°
Ġ3 29
Ġ3 54
Ġà°¨à°¡ à°µà°¦
Ġà°ľà°¨ à°¹
19 93
19 82
à±į! ...
Ġ9 600
à°®à°Ĺ à°Ł
ÂłÂłÂłĠÂłÂłÂłĠ ÂłÂłÂłÂłÂłÂł
Ġ30 6
à±ĭ.. âĢĻ
à°§à°ķ à°¶
Ġà°¤à°¡ à°µà°ķ
108 042016226
116 12201634
à±į.... !"
Ġ29 4
Ġ.... ......
Ġà°°à°®à°£ à°¤
1230 2201587
1030 62015116
1120 720174
79 3
Ġà°ħà°¡à°Ĺ à°µà°²à°¸
ĠĠĠĠĠĠĠĠ ĠĠĠĠ
Ġà°ľà°²à°® à°¯
89 3
69 1
Ġà°²à°¡ à°ĸ
Ġd e
10403201737 7
12404201623 30
1120820151 39
1220320162 20
1201020174 79
/ -
4 09
4 03
4 19
4 15
4 500
5 35
6 24
6 92
7 46
9 03
9 38
à°° à°¥à°²
à°¦ à°¦à°µ
à°¡ à°¦à°²à°ļ
à°¸ à°¦à°¸
à°µ à°¦à°²à°ļ
à°® à°µà°²
à°® à°¡à°®
Ġà°ª à°µà°³
à°· à°¯à°µ
Ġà°Ĩ à°½à°§
à°¬ à°²à°ª
à°³ à°²à°²
Ġà°¦ à°®à°¨à°ķ
Ġà°ħà°¨ à°µà°²à°¸
à±Ĩà°Ĥ !
Ġà°Ī à°ķà°²
Ġà°Ī à°²à°µ
Ġà°¹ à°Ĺ
à°¦à°¨ à°ªà°²
ÂłÂłĠ ÂłÂłÂłĠÂłÂłĠÂłĠÂłĠÂłĠÂłĠÂłĠÂłĠÂłĠÂłĠÂłĠÂłĠÂłĠÂłĠÂłĠÂłĠÂłĠÂłĠÂłĠÂłĠÂłĠÂłĠÂłĠÂłĠÂłĠÂłĠÂłĠÂłĠÂłĠÂł
à±ĩà°Ĥ âĢĻ
âĢĻ ..
ĠâĢĺ âĢĻ
Ġ2 22
12 111201517
Ġà°ħà°ª à°ĸ
à°ªà°° à°¶
à°®à°² à°¦
à±ĩ. !
à°¡à°Ĺ à°²à°¨à°¨
à°²à°µ à°²à°¨
à°¯à°¸ à°¹
à°¨à°¸ à°®
à°ŀ à°¦
à°¶à°ķ à°¤à°¤
Ġ19 00
Ġ19 31
Ġ8 600
à°ķà°°à°£ à°µ
à°Ĺà°¦ à°®
à°¤à°µ à°¦
à°ī à°Ńà°¯
Ġà°Ĩà°Ł à°²à°ķ
36 00
Ġà°«à°² à°¸
à±į... !"
à°¿.... '
à°¤à°Ł à°¦
à°ķà°¦ à°²à°ķ
107 0720174
116 042016230
119 01201735
128 10201516
Ġ26 00
1130 42015
à±Ĥ" .
à°ľà°Ĺ à°ªà°¤
113 10201747
ÂłÂłÂłÂłÂłÂłÂłÂłÂłÂłÂłÂłÂłÂłÂłÂłÂłÂłÂłÂłÂłÂłÂłÂłÂłÂłÂłÂłÂłÂłÂłÂłÂłÂłÂłÂłÂłÂłÂłÂłÂłÂłÂłÂłÂłÂłÂłÂł ÂłÂłÂłÂłÂłÂłÂłÂłÂłÂłÂł
ÂłÂłÂłĠÂłÂłÂłÂłÂłÂłÂłÂłÂłÂłÂłÂłÂłÂłÂłÂłÂłÂłÂłÂłÂłÂłÂłÂłÂłÂłÂłÂłÂłÂłÂłÂł ÂłÂł
ÂłÂłĠÂłĠÂłĠÂłĠÂł ĠÂłĠÂłÂł
am e
Ġà°ħà°¡à°Ĺà°¡ à°®
à°¨à°ķà°² à°µ
Ġh as
Ġwh o
Ġà°ļà°µà°ķ à°Ĺ
12404201623 29
if e
1220720151 32
1160220158 5
starhome o
Ġà°§à°Ĺà°§ à°Ĺà°²
2 19
4 13
5 33
6 14
7 11
7 44
9 52
à°Ĥ âĢĮ
à°¤ à°°à°¤à°°
à°¦ à°ªà°ķ
à±ĭ âĢĵ
à°ļ à°²à°ª
à±Ĩ à±Ĥ
Ġà°ħ à°£à°ķ
Ġà°° à°¨à°µ
à°· à°°à°ľ
à°³ à°¨à°®
Ġà°ħà°¨ à°ªà°°
à°µà°° à°¸à°²
Ġà°¡ à°Ł
à°°à°¤ à°ľ
à°°à°® à°²à°²
à°®à°¨ à°¬
à°ħ à°Ĩ
à°ħ à°µà°¸
à°µà°¡ à°¡
Ġ2 36
12 1122017
à°ªà°° à°ļà°Ł
à°¤à°ķ à°·
à°·à°² à°¦
à°°à°¦ à°®à°Ĺ
à°ķà°Ł à°¶
à°®à°² à°ļ
Ġà°ıà°® à°¡
à°¡à°¨ à°¡
Ġà°īà°ª à°¨à°¦
Ġà°¤à°Ĺ à°²à°¨
à°²à°µ à°®à°¨
Ġà°¨à°¡ à°µà°Ĺ
Ġà°Ĩà°Ĺ à°ķà°ª
Ġà°ķà°¦ à°²à°ķà°ª
à°ªà°¦ à°¸
à°ħà°¤à°¨ à°²
Ġà°ķà°¸ à°¬
à°ļà°Ĺà°² à°µà°¨
107 02201736
110 0320162
Ġ28 6
119 01201578
129 032016223
120 042015
78 3
1030 820162
103 1220151
66 7
à°± à°ª
à±Ĥ.... ...
Ġà°Ŀ à°°
87 3
à±ĭâĢĻ ,
Ġà°ªà°¤à°¨ à°®à°µ
---- -
à°ªà°µà°° à°ª
Ġà°¦à°¹ à°¨à°®à°¯
ÂłÂłÂłĠÂłÂłĠÂłĠÂłĠÂłĠÂłĠÂłĠÂłĠÂłĠÂłĠÂłĠÂłĠÂłĠÂłĠÂłĠÂłĠÂłĠÂł ĠÂłĠÂłĠÂł
10102 201620
12004201623 13
12004201623 15
à°¨à°¯à°¨ à°¤
11403201738 2
1211120163 36
1011220174 99
à°£à°ķà°² à°¶à°®
Ġà°²à°¬à°² à°¬à°²
121122017 509
1030820162 93
8 54
8 99
8 86
9 14
9 58
I T
h at
à°¨ à°ĺà°Ł
à°ķ à°®à°¤
à°Ł à°¦à°²
à°¡ à°®à°²
à°¡ à°ªà°ķ
à°¸ à°Ĺà°¤
à°Ĺ à°¨à°²
à°Ĺ à°ķà°°à°®
à°ļ à°ķà°°
Ġà°¸ à°²à°ķ
Ġà°¸ à°¨à°¨
à°ľ à°¬à°²
à°¶ à°²à°µ
à°§ à°£
à°§ à°²à°¯
à°ķà°° à°¶
à°°à°ķ à°®à°Ĺ
à±ĩà°Ĥ .....
à°Ĩ à°«à°°
à°Ĩ à°¶à°²
à°µà°¡ à°¤
ĠÂłĠÂłĠÂłĠÂł ĠÂłÂł
à°°à°ľ à°µ
Ġ2 44
à°ķà°ª à°¨
Ġà°ªà°¡ à°¡à°®
à°¤à°ķ à°µ
à°ķà°¨ à°ªà°¡
ÂłÂłÂłÂłÂłÂłÂłÂłÂłÂłÂłÂłÂłÂłÂłÂł ÂłÂłÂłÂłÂłÂłÂłÂłÂłÂłÂłÂłÂłÂłÂł
Ġà°İà°¦ à°Ĺà°Ł
à°²à°µ à°¸
à°Ī à°İà°¨
Ġ3 33
Ġ3 90
à°¿! âĢĻâĢĻ
à°ļà°ķ à°ļà°ķ
19 77
19 68
à°®à°Ĺ à°ª
ÂłÂłÂłĠÂłÂłÂłĠ ÂłÂłÂłÂłÂłÂłÂłÂłÂłÂłÂł
Ġà°ķà°¥ à°ª
à±ĩ... '
à°Łà°²à°ķ à°¨
à°¿.... !"
à°¾.... '
à°Ĺà°£ à°ª
à°ªà°£ à°Ĺ
126 0520162
119 11201517
117 052015110
Ġ26 2
Ġ26 4
114 0320159
130 1020163
130 12201518
130 062015124
Ġ__ __
____ _
1150 820174
à°Łà°¦ à°³à°ª
66 1
à°ªà°Ĺà°² à°Ĺ
à°¤à°ªà°¡ à°Ł
à±ģ_ '
ÂłÂłÂłÂłÂłÂłÂłÂłÂłÂłÂłÂłÂłÂłÂłÂłÂłÂłÂłÂłÂłÂłÂłÂłÂłÂłÂłÂłÂłÂłÂłÂłÂłÂłÂłÂłÂłÂłÂłÂłÂłÂłÂłÂłÂłÂłÂłÂł ÂłÂłÂłÂłÂłÂłÂłÂłÂłÂł
ÂłÂłĠÂłÂłÂłĠÂłÂłÂł ĠÂłĠÂłĠÂłĠÂłĠÂłĠÂłĠÂłĠÂłĠÂłĠÂłĠÂłĠÂłĠÂłĠÂłĠÂłĠÂłĠÂłĠÂłĠÂłĠÂłĠÂłĠÂłĠÂłĠÂłĠÂłĠÂłĠÂłĠÂł
ÂłĠ ÂłÂłÂłĠčĊ
ic e
ÂłÂłÂłĠÂłÂłÂłĠÂłÂłĠÂłĠÂłĠÂłĠÂłĠÂłĠÂłĠÂłĠÂł ĠÂłĠÂłĠÂłÂł
à°ĭ à°¤
el f
12004201623 14
10703201737 9
11407201626 6
11207201626 5
10801201735 5
10612201634 2
12002201737 2
ang ana
121042015 102
2 29
5 19
6 96
8 16
8 24
8 38
8 79
9 04
9 16
9 48
9 46
: "
O M
t te
Ġ J
Ġ ĠÂł
Ġ à¤
à°ķ à°Ĺà°¨
à°ķ à°¬à°²
à°¯ à°§à°¤
à°µ à°¤à°°à°£
Ġà°ķ à°£à°ķ
Ġà°¤ à°Ŀ
à°· à°ķà°®
Ġà°Ĩ à°ľà°®
à°¬ à°²à°Ĺ
à°¶ à°ľ
à±Ĭ !
Ġà°İ à°³
à°İ à°¨à°°
à°« à°Ĵ
à°¯à°ķ à°¶
à°ħ à°ľà°°
Ġà°ķà°² à°ªà°ķ
à°ķà°¡ à°²à°¨
à°ķà°¡ à°²à°ķ
à°µà°² à°°
Ġ2 48
Ġà°īà°¦ à°¯à°ª
Ġà°· à°²
Ġà°ķà°° à°Ĺ
Ġ3 38
Ġà°ķà°¦ à°ªà°ķ
Ġà°ļà°¦ à°µà°ķà°ª
à°¶à°ķ à°¤à°¨
Ġà°¬à°² à°ªà°¡à°Ł
Ġ19 35
19 48
19 86
à°¿âĢĻ !
Ġà°®à°¦ à°ķà°°
ÂłÂłÂłĠÂłÂłÂłĠ ÂłÂłÂłĠÂłÂłÂłÂł
à±ģâĢĻ !
ÂłÂłÂłÂłÂłÂłÂłÂłÂłÂłÂłÂłÂłÂłÂłÂłÂłÂłÂłÂłÂłÂłÂłÂłÂłÂłÂłÂłÂłÂłÂłÂł ÂłÂłÂł
Ġà°Ĭà°¹ à°²à°¨
Ġà°¦à°³ à°¸à°°
108 092016306
108 102017474
à±Ģ... !
127 0720162
Ġ27 1
Ġ26 8
Ġà°Ńà°°à°¤ à°®
ÂłÂłÂłÂłÂłÂł ÂłÂłÂłĠčĊ
ĠI nd
67 1
ÂłÂłÂłÂłÂłÂłÂłÂłÂłÂłÂłÂłÂłÂłÂłÂłÂłÂłÂłÂłÂłÂłÂłÂłÂłÂłÂłÂłÂłÂłÂłÂłÂłÂłÂłÂłÂłÂłÂłÂłÂłÂłÂłÂłÂłÂłÂłÂł ÂłÂłÂłÂłÂł
ti ve
ou ld
ÂłÂłÂłĠÂłÂłÂłĠÂłÂłĠÂłĠÂłĠÂłĠÂłĠÂłĠÂłĠÂłĠÂłĠÂłĠÂłĠÂłĠÂł ĠÂłĠÂł
Ġà°ľà°ł à°°
1260520174 18
10411201516 9
ĠY OU
1260920151 55
1150820174 52
4 29
4 49
6 76
6 74
7 19
8 01
9 08
9 06
o ut
à°° à°ķà°°à°®
à°° à°½à°¥
à°¤ à°¬à°²
à°¦ à°ķà°Ł
à°Ł à°¤à°¤
à°¯ à°·
à°¯ à°«à°²
à°µ à°£à°ķ
à°® à°¤à°ķ
à°® à°§à°°
à±Ģ âĢĺ
à°ļ à°²à°²
Ġà°ķ à°°à°¦
Ġà°ļ à°¯à°¨à°®
à°¿. Ă
à±Ī ...."
à±Ī à°ģ
à°³ à°ªà°¨
à°£ à°¶à°°
à°¹ à°¤à°Ĺ
Ġà°² à°¦
à°Ń à°¨à°®
à°²à°ķ à°³
à°°à°® à°µà°°
à°Łà°° à°¸
Ġà°Ĵà°ķ à°Ĺ
Ġà°®à°° à°µà°²
âĢĻ !
à°°à°Ń à°ķ
à°°à°£ à°²à°¨
à°°à°µ à°¤à°²
Ġ2 18
à°Łà°¨ à°¡
à°µà°¤ à°¶
à°¨à°ķ à°ªà°¡
Ġà°İà°µà°° à°¤à°¨
à±Ģà°Ĥ (
Ġà°İà°¦ à°®
à°²à°° à°Ĺ
Ġ3 32
à°¦à°ķ à°³
à°µà°Ł à°®à°¨
Ġ19 38
19 47
19 78
Ġ8 300
Ġ10 500
Ġ7 000
à°¿âĢĻ ...
à±ģâĢĻ ...
Ġà°«à°² à°¦
à±į... '
à°Ĵà°ķ à°¦
à°ĺà°Łà°¨ à°²à°ª
Ġà°ľà°¯ à°ľà°¯
à°²à°¸ à°¤
...... ..."
126 03201622
119 10201632
119 102017478
Ġà°Ĩà°¦à°° à°£à°¨
129 092016317
130 102016327
Ġ? '
1130 620162
1220 62016257
Ġà°¨à°Ĺ à°²à°ķ
Ġà°ľà°²à°® à°¯à°®
123 122016349
67 3
à°ªà°°à°® à°¹
ÂłÂłĠÂłÂłÂłĠÂłÂłÂłĠÂłÂłÂłÂłÂłÂłÂłÂłÂłÂłÂłÂłÂłÂłÂłÂł ÂłÂłÂłÂłÂłÂłÂłÂłÂłÂłÂłÂłÂłÂłÂł
Ġb ut
Ġà°®à°¦à°° à°¸
Ġh is
Ġà°īà°ªà°¦ à°§
ÂłÂłÂłĠÂłÂłÂłĠÂłĠÂłĠÂłĠÂłĠÂłĠÂłĠÂłĠÂł ĠÂłĠÂłĠÂłĠÂłÂł
ac k
1250620174 30
1130620162 53
0 11
5 15
7 18
7 45
8 94
9 49
i z
p p
Ġ ą
à°° à°°à°ķ
à°² à°Ĺà°¤
à°ķ à°µà°Ĺ
à°¤ à°°à°Ń
à±ĭ âĢĺ
à°¯ à°¦à°ķ
à°¡ à°¨à°®
à°ª à°¹à°°à°£
à°¸ à°®à°µ
à°µ à°µà°¤
à°® à°«
à°® à°®à°µ
ÂłÂł ĠÂłĠÂłĠ
Ġà°ķ à°°à°¨
Ġà°¸ à°°à°®
à±Ĥ à°Ĥ.
à±ģ. ą
à°ľ à°ªà°ķ
Ġà°ĩ à°®à°¡
Ġà°İ à°°à°Ĺà°¡
Ġà°ľ à°«
Ġà°¶ à°µà°¯
Ġà°Ĵ à°°à°Ĺà°¬
Ġà°Ł à°µ
à°İ à°¨à°Ł
Ġà°¯ à°·
à°ħ à°¨à°°
à±ĭà°Ĥ :
à°°à°Ń à°µà°¨
à°¤à°° à°³
Ġ2 42
Ġ2 200
Ġ( ?)
Ġà°īà°¦ à°¯à°¨
à°ĺ à°µà°ķ
à°²à°ª à°Ĺ
à°°à°¦ à°ª
à°®à°² à°¶
à°ľà°° à°Ĺ
Ġà°Ĭ à°¸à°°à°µ
Ġ4 40
à°®à°¤ à°®à°¨
à°¿... ,
à±ģ? !"
à°§à°¨ à°²à°²
19 50
19 89
19 84
à°®à°¹ à°¸
à±įâĢĮâĢĻ (
à°¨à°Ĺ à°²à°¨
ÂłÂłÂłĠÂłÂłÂłĠ ÂłÂłÂłÂłÂłÂłÂłÂł
à°İà°¨ à°İ
à±įâĢĮ.. âĢĻ
106 022017366
à±Ģ) âĢĻ
à°ªà°£ à°ª
127 0320159
Ġà°Ĩà°¦à°° à°£à°ķ
à°®à°Ł à°ªà°Ł
à°¯à°¯à°¨ à°®
120 01201735
Ġà°µà°£ à°ķà°¸
1230 12015
à°¾) .
à±į? ...
à°¾..... !
à°ªà°¬à°¡ à°Ł
Ġa t
Ġà°¸à°µà°°à°£ à°¨
ÂłÂłĠÂłÂłÂłĠÂłÂłÂłĠÂłÂłÂłÂłÂłÂłÂłÂłÂłÂłÂłÂłÂłÂłÂłÂł ÂłÂłÂłÂłÂłÂłÂłÂłÂłÂłÂłÂłÂłÂłÂłÂłÂł
ĠÂłĠ ÂłÂłĠÂłÂłÂł
ÂłÂłĠÂłĠÂłĠÂłĠÂł ĠÂłĠÂłĠÂłĠ
Ġf rom
ÂłÂłÂłĠÂłÂłĠÂłĠÂłĠÂłĠÂłĠÂłĠÂłĠÂłĠÂłĠÂłĠÂłĠÂłĠÂłĠÂłĠÂłĠÂłĠÂł ĠÂłÂł
id e
à°§à°¶ à°°à°£
12304201623 26
12309201746 8
10812201750 3
1011020163 17
1301020163 28
4 01
5 13
5 17
7 55
7 33
9 28
9 56
A S
u al
Ġ đ
Ġ ra
à°¨ à°ĸ
à°° à°¡à°µ
à°¤ à°°à°¤
à°Ł à°¦à°²à°ļ
à°¡ à°µà°¤
à°¡ à°ļà°ķ
à°ª à°¬à°Ł
à°µ à°Łà°²
à°µ à°¯à°µ
à±Ĥ âĢĵ
à°Ń à°®à°¸
Ġà°¶ à°°à°¤à°ķ
Ġà°ı à°ıà°Ĳ
à±ĥ _
Ġà°¯ à°¬
à°ªà°¡ à°Ĺà°²
Ġà°®à°° à°µ
à°¸à°° à°°
à°¸à°° à°Ĺ
à°µà°² à°¸à°²
Ġà°ªà°¨ à°¬
Ġ2 28
Ġà°ªà°¡ à°µà°²à°¨
à°¤à°® à°¤
à°¬à°¡ à°¡
à°ı à°µà°¯
Ġ- ---
Ġà°Ĳ à°Ĵà°Ł
à°°à°§ à°¨à°¸
Ġà°ıà°¡ à°¯
Ġà°ªà°² à°ļà°Ĺ
Ġà°ļà°¦ à°µà°¡à°®
à°¦à°ķ à°¸
Ġ6 40
à°¹à°° à°°
à°¨à°¤ à°ª
19 60
19 64
à°ªà°¦ à°®à°¯
à°ī à°ªà°¯
Ġà°Ĩà°Ł à°²à°¨
ÂłÂłÂłĠÂłÂłÂłĠ ÂłÂłÂłÂłÂł
à±ĭ. :
Ġà°¥ à°®
à±ĭ! ?
ĠÂłÂł ĠÂłĠÂłĠÂł
110 032016215
Ġà°§à°¨ à°¶
Ġà°¦à°¶ à°Ĺ
118 012017358
à°ķà°³ à°ª
à°¯à°¶ à°¸
à°Ĥ? ...
à°¿..... ..."
Ġà°¨à°°à°¸ à°®
1020174 75
à°Ĥ.... ?"
112 102017475
à°¾' '
à°Łà°¸ à°µà°°à°£
à°Ĺà°ªà°¡ à°Ł
ĠĠĠĠĠĠĠĠ ĠĠĠĠĠ
Ġà°¨à°µà°² à°Ĺ
à°°à°¥à°® à°®à°¨
123 112017496
Ġà°µà°²à°¸ à°²à°ķ
Ġà°¸à°¹à°¨ à°¶
Ġw e
ÂłÂłÂłĠÂłÂłĠÂłĠÂłĠÂłĠÂłĠÂłĠÂłĠÂłĠÂłĠÂłĠÂłĠÂłĠÂł ĠÂłĠÂłĠÂłÂł
à±ģ....... ...
ÂłÂłÂłĠÂłÂłÂłĠÂłĠÂłĠÂłĠÂłĠÂłĠÂłĠÂłĠÂł ĠÂłĠÂłĠÂłÂł
10707201626 3
1040720174 34
1230220162 10
4 37
7 21
8 03
8 25
9 32
u e
à°Ł à°¡à°µ
à°¡ à°ĸ
à°¸ à°ķà°Ł
à°Ĺ à°µà°¡
à°Ĺ à°ķà°¨
Ġà°µ à°µ
Ġà°ħ à°Łà°ķà°®
à±Ĥ ......"
Ġà°¨ à°¯à°®à°¯
à°· à°¯à°ķ
Ġà°Ĩ à°¹à°°
à°§ à°ķà°°
Ġà°ľ à°¶
Ġà°ľ à°®à°µ
Ġà°ľ à°ĺà°¨
ÂłÂłĠ ÂłÂłÂłÂłčĊ
à°°à°® à°°à°¨
à±Į ,
à±Į ...
Ġà°®à°¨ à°°
Ġà°®à°¨ à°Ĺ
Ġà°ªà°¨ à°Ĺ
.... ..."
Ġà°İà°¨ à°Ĩà°°
Ġà°İà°¨ à°Ĳà°ı
à°·à°¯ à°Ĺ
à°ı à°Ń
Ġà°ļà°° à°ļ
à°¾. '
Ġà°Ĩà°¸ à°®à°¯
à°¡à°¨ à°¯
Ġà°İà°¦ à°µ
Ġà°Ĩà°¶ à°¯à°®
à°¿) /
Ġ3 45
à°®à°¤ à°²à°ķ
à±ģ! âĢĻ
Ġà°Ĩà°¡ à°¤à°¨
à°³à°¨ à°ªà°¡
à°¦à°ķ à°¶à°ķ
Ġ20 26
Ġà°Ĺà°¡ à°µà°¨
Ġà°ħà°Ĺ à°¡
19 95
Ġ8 400
à°ªà°¦ à°ª
à°µà°Ĺ à°Ł
Ġ30 9
à°¿: -
à°²à°ľ à°¡
Ġà°İà°¡ à°®à°Ĺà°Ł
109 092016307
Ġà°Ĺà°£ à°ªà°¯
126 052016246
127 102016327
à°°à°³ à°¯à°ķ
Ġ26 6
129 03201596
Ġ29 1
Ġà°ĭ à°¶
à°¾) -
à±ĭ.... ?
1020 220158
102 1020163
ÂłÂłÂłĠÂłÂłÂłĠÂłÂłÂłÂłÂłÂłÂłÂłÂłÂłÂłÂłÂłÂłÂłÂłÂłÂłÂłÂłÂłÂłÂłÂłÂłÂłÂłÂłÂłÂłÂłÂł ÂłÂłÂłÂłÂłÂłÂłÂłÂłÂł
Ġà°İà°µà°¡ à°¯
à°Ŀ à°°
à°¾à°Ĥ... !
ÂłÂłÂłÂłÂłÂłÂłÂłÂłÂłÂłÂłÂłÂłÂłÂłÂłÂłÂłÂłÂłÂłÂłÂłÂłÂłÂłÂłÂłÂłÂłÂłÂłÂłÂłÂłÂłÂłÂłÂłÂłÂłÂłÂłÂłÂłÂłÂł ÂłÂłÂłÂłÂłÂłÂłÂł
ÂłÂłÂłÂłÂłÂłÂłÂłÂłÂłÂłÂłÂłÂłÂłÂłÂłÂłÂłÂłÂłÂłÂłÂłÂłÂłÂłÂłÂłÂłÂłÂłÂłÂłÂłÂłÂłÂłÂłÂłÂłÂłÂłÂłÂłÂłÂłÂł ÂłÂłÂłÂłÂłÂłÂłÂłÂłÂłÂłÂłÂłÂłÂł
ĠÂłĠÂłĠ ÂłÂłĠÂłÂłÂł
Ġà°¹à°¡à°² à°Ĺ
ÂłÂłÂłĠÂłÂłÂłĠÂłÂłÂłĠÂłÂłÂłĠ ÂłÂłÂłĠÂłÂłÂłĠÂłÂłÂłĠÂłÂłÂłĠ
12604201623 35
Ġà°Łà°ªà°Ł à°ªà°²
11304201739 7
1110920151 50
12404201623 28
................ ................
12101201619 8
5 49
6 43
7 13
7 43
c t
p er
Ġ ÂłÂłĠÂłčĊ
Ġ le
à°¨ à°¹à°¸
à°° à°°à°¹
à°ķ à°³à°²
à°¤ à°§à°°
à°¯ à°Ĺà°°
à°¡ à°¨à°¦
à°ª à°µà°¤
à°ª à°³à°¨
à°ļ à°ªà°²
à±Ĥ âĢĻâĢĻ
à±ģà°Ĥ ,
à°³ à°¨à°°
à°§ à°¤à°²
à°§ à°¤à°ª
ÂłÂłÂł ĠÂłĠÂłĠÂł
Ġà°İ à°Ĺà°¨
Ġà°ī à°®à°ķ
à°ķà°° à°Ńà°Ł
à°« à°İà°²
Ġà°« à°ľà°²
à°Ĩ à°¬
à°Ĩ à°®à°¨
à°Ĩ à°¡à°¬
à°·à°¨ à°¬
Ġà°ķà°² à°µà°Ĺ
Ġà°ķà°² à°¤à°ļ
Ġà°ħà°¡ à°Ĺà°¦
à°¦à°² à°µà°Ĺ
à°µà°¨ à°µà°¸à°°
à°Ĺà°² à°®à°°
à°®à°° à°°
Ġà°· à°¹à°¬
à°¨à°µ à°¸à°°à°®
à°ķà°¨ à°²
à°¨à°ª à°ª
Ġà°ķà°³ à°¤
Ġà°Ĭ à°®
Ġà°¸à°¹ à°Ĺà°®à°¨
à°Ī à°ıà°ª
Ġ3 42
à°Łà°ķ à°µ
à°ªà°¨ à°²à°ķ
à°¿! ....
à±ģ? -
à°¢ à°ªà°°à°ļ
19 97
19 71
19 81
à°®à°¹ à°ķ
Ġ9 60
ÂłÂłÂłĠÂłÂłÂłĠ ÂłÂłÂłĠÂłÂłÂłĠÂłÂłÂł
ÂłÂłÂłĠÂłÂłÂłĠ ÂłÂłÂłĠÂłÂłÂłĠčĊ
à°Ĥ.. âĢĻ
Ġ50 9
ĠÂłÂł ĠÂłĠÂłĠÂłĠÂłĠÂłĠÂłĠÂłĠÂłĠÂłĠÂłĠÂłĠÂł
Ġà°¬à°¤ à°ķà°¡à°®
Ġ25 3
107 06201742
à°Łà°µ à°²à°¨
Ġà°ħà°µà°Ĺ à°¤à°®
118 8
118 082016298
128 04201510
117 122016346
Ġ27 3
129 03201622
114 08201629
à°²à°Ń à°®à°¨
120 07201626
120 01201578
à°¦à°ª à°ª
à°¦à°ªà°¡ à°¡
1150 82016297
à°¯à°¬à°¡ à°µ
à±į) .
Ġà°¨à°°à°ķ à°ª
à°¾à°Ĥ.. âĢĻâĢĻ
125 112017497
Ġà°¸à°µà°°à°£ à°²à°ķ
à°¦à°®à°¨ à°¸
à°¬à°¯à°Ł à°ªà°¡
ÂłÂłÂłĠÂłÂłĠÂłĠÂłĠÂłĠÂłĠÂłĠÂłĠÂłĠÂłĠÂłĠÂłĠÂłĠÂłĠÂłĠÂłĠÂłĠÂł ĠÂł
ÂłÂłÂłĠÂłÂłĠÂłĠÂłĠÂłĠÂłĠÂłĠÂłĠÂłĠÂłĠÂłĠÂłĠÂłĠÂłĠÂłĠÂłĠÂłĠÂł ĠÂłĠÂł
10102 2016
se tte
ab le
ig ht
11711201749 26
11511201749 16
1090120157 56
11710201516 28
12010201516 38
11504201739 8
11610201516 24
12402201737 39
10311201748 56
10504201739 37
12410201516 49
12801201736 24
1111020174 750
10510201747 24
10501201735 37
11012201634 4
11012201634 38
11612201518 46
10911201517 07
12408201745 56
11409201746 39
11110201516 08
11110201516 06
10806201742 36
1130520174 107
11211201633 28
10612201518 06
12910201516 66
1160720174 39
10712201518 09
10606201742 28
1250920163 14
11303201738 14
10802201736 66
1281220175 128
ik e
10211201748 50
13110201748 39
10602201736 58
12911201749 86
12910201748 30
11310201747 59
4 17
5 11
5 27
5 59
7 07
7 01
7 53
8 75
9 34
a w
f f
Ġ à±ĸ
à°¨ à°Łà°°
à°¨ à°®à°°
à°Ĥ ___
à°² à°¹à°°
à°¯ à°¦à°Ł
à°ª à°µà°¯
à°® à°ªà°Ł
à°Ĺ à°°à°¸
à°ļ à°Łà°²
Ġà°µ à°²à°ķ
Ġà°ķ à°°à°£à°®
à°¿. ā
Ġà°Ĩ à°°à°ķ
Ġà°Ĩ à°ł
à°³ à°ªà°°
Ġà°ĩ à°¹à°²
à°¹ à°Ĺà°°
Ġà°İ à°µà°³
à±Ĩà°Ĥ ?
Ġà°¶ à°¤à°®
à°¦à°° à°Ń
à°ķà°° à°®à°Ĺ
Ġà°¯ à°®à°ķ
... '
à°ªà°¡ à°®à°¨
à°·à°¨ à°¯
à°°à°¸ à°ľ
ĠÂłĠÂłĠÂłĠÂł ĠÂłĠ
Ġà°ķà°¨ à°ķà°µà°°
à°°à°£ à°°
Ġà°ħà°° à°Ĺà°¦
à°ļà°¨ à°°
à°ļà°¨ à°²à°ª
Ġà°§ à°¬
à°¬à°¡ à°ķ
à°¨à°µ à°ľà°¨
à°¨à°² à°®
à°®à°ķ à°¥à°¨
Ġ3 16
Ġ3 21
à°®à°¤ à°¤
Ġà°Ĺà°¡ à°µà°¦
Ġ19 34
19 79
19 83
à°ªà°¥ à°®
à°¯à°£ à°²à°¤
ÂłÂłÂłĠÂłÂłÂłĠ ÂłÂłÂłÂłÂłÂłÂł
Ġ13 50
ĠÂłĠÂłĠÂłĠÂłĠÂłĠÂłĠÂłĠÂłĠÂłĠÂłĠÂłĠÂłĠÂłĠÂłĠÂłĠÂł ĠÂłĠÂłĠÂłĠÂłĠÂłĠÂłĠÂłĠÂłĠÂłĠÂłĠÂłĠÂłĠÂłĠÂłĠÂłĠÂłĠÂłĠÂłĠÂłĠÂłĠÂłĠÂłĠÂłĠÂł
Ġà°®à°¤ à°ªà°°
à°ĺà°Łà°¨ à°Ĺ
Ġà°µà°¡ à°ķà°Ł
Ġà°¦à°³ à°ªà°¤
108 0220158
110 09201630
Ġà°ªà°µà°¨ à°ķà°²
126 12201634
126 0320159
126 08201514
126 032016222
127 03201595
124 12201634
Ġà°ªà°²à°ķ à°Ł
à°Ĥ.... !
à°Ĺà°ªà°¡ à°ķ
ÂłÂłÂłÂłÂłÂłÂłÂłÂłÂłÂłÂłÂłÂłÂłÂłÂłÂłÂłÂłÂłÂłÂłÂłÂłÂłÂłÂłÂłÂłÂłÂłÂłÂłÂłÂłÂłÂłÂłÂłÂłÂłÂłÂłÂłÂłÂłÂłÂłÂłÂłÂłÂłÂłÂłÂłÂłÂłÂłÂłÂłÂłÂłÂł ÂłÂł
ÂłÂłÂłĠÂłÂłÂłÂłÂłÂłÂłÂłÂłÂłÂłÂłÂłÂłÂłÂł ÂłÂłÂłÂłÂłÂłÂłÂłÂłÂłÂłÂłÂłÂłÂł
à°¨à°¬à°¡ à°ķ
Ġà°ļà°²à°¨ à°®
Ġà°°à°¥ à°¸
ĠT O
ver s
10712201750 26
11103201738 06
10704201739 46
1160520174 128
10911201633 16
12103201738 50
1011220151 786
12409201515 48
12409201515 49
10301201735 28
12202201737 30
11210201516 09
13010201748 34
11010201747 46
11711201517 34
11609201746 48
11509201746 4
10112201634 04
12602201737 48
12311201749 56
10912201518 16
11305201624 04
11111201748 96
1210920151 539
11708201745 28
res s
11611201517 30
1111120163 324
10811201517 04
12208201745 48
12709201515 58
12710201516 58
11511201517 27
12912201518 96
12308201514 34
13006201743 30
1100320162 16
! ?
) ;
7 05
7 37
9 13
9 36
y a
à±į &
à°ķ à°µà°¸
à°¤ à°ªà°¡à°¤
Âł ĠÂłĠÂłĠÂłĠÂłĠÂłĠÂłĠÂłĠÂłĠÂłĠÂłĠÂłĠÂłĠÂłĠÂłĠÂłĠÂłĠÂłĠÂłĠÂłĠÂłĠÂłĠÂłĠÂłĠÂłĠÂłĠÂłĠÂłĠÂł
à±ĭ à±Ĥ
à°¡ à°¹
à°Ĺ à°Ĺà°¨
à°Ĺ à°§à°¨
Ġà°µ à°·à°Ł
Ġà°ķ à°¡à°µ
Ġà°ħ à°²à°ķà°²
Ġà°® à°Ĺà°¦
Ġà°® à°°à°®à°¨
Ġà°¨ à°²à°ķ
Ġà°¨ à°°à°¸à°¨
à°ľ à°ªà°¤
à°³ à°°à°¸
à°£ à°°à°ķ
Ġà°İ à°µà°¤
20 22
à°²à°ķ à°²à°ª
Ġà°ı à°İà°®
à°ĸ à°ªà°°
à°ĸ à°ķà°°à°®
Ġà°Ł à°ķà°Ł
Ġà°ªà°° à°ļà°Ł
à°İ à°İà°¸
Ġà°¯ à°®à°¹
Ġà°¸à°® à°°à°¶
à°ħ à°¨à°¨
à°Ĩ à°ªà°¦
à°ªà°¡ à°µà°²
à°·à°¨ à°·
Ġà°ķà°² à°®
Ġà°®à°¨ à°¬
à°ķà°¡ à°²à°¤
Ġà°ĵ à°ļà°°
ĠÂłĠÂłĠÂłĠÂł Ġ
ĠÂłĠÂłĠÂłĠÂł ĠÂłĠÂłĠ
à°°à°£ à°¯à°¨
Ġ2 23
Ġ2 300
12 99
.... ?
.... ?"
à°µà°¨ à°Ń
Ġà°İà°¨ à°Ńà°¯
à°Ĺà°² à°Ĺà°¡
à°¬à°° à°²
à°Ĩà°° à°¡
à°ı à°·
à°ĩ à°ķà°®
Ġà°· à°¨à°ķ
à°¨à°µ à°Ĺ
à±į. !
à°°à°¦ à°µ
à°Ĺà°¤ à°µ
Ġà°İà°¦ à°ª
Ġà°ıà°¡ à°µà°¨
Ġà°ķà°° à°Ĺà°²
Ġ3 17
Ġ3 28
Ġ3 53
Ġà°¨à°¡ à°µà°Ĺà°²
Ġà°Ĩà°Ĺ à°®à°¶
Ġà°¸à°Ń à°¤
à°ªà°¨ à°²à°¤
à°°à°Ĺ à°®
Ġà°¬à°² à°µà°¤
19 88
19 92
19 74
à°Ńà°µ à°®à°¨
à±ĩ! :
à°¨à°¯ à°ļ
ÂłÂłÂłĠÂłÂłÂłĠ ÂłÂłÂłÂłÂłÂłÂłÂłÂł
à°¯à°®à°¨ à°¡
107 052015106
à°¾.... ..."
109 10201747
à°ĤâĢĻ !
106 052017408
à±Ģ... ?
126 082017456
118 04201739
118 09201515
118 072016267
117 0520151
Ġ27 4
Ġ26 9
129 072017445
114 012015
114 112015172
à°°à°ªà°¡ à°²
Ġà°ĭ à°¤à°®
à°ķà°²à°ķ à°¤
1120 5201624
ĠÂłĠÂłĠÂłĠÂłĠÂłĠÂłĠÂłĠÂłĠÂłĠÂłĠÂłĠÂłĠÂłĠÂłĠÂłĠÂłĠÂłĠÂłĠÂłĠÂł ĠÂłĠÂłÂł
Ġà°µà°²à°¸ à°µà°ļ
Ġà°Ĵà°ķà°¦ à°¶à°²
Ġ38 1
ÂłÂłĠÂłÂłÂłĠÂłÂłÂłĠÂłÂłÂłÂłÂłÂłÂłÂłÂłÂłÂłÂłÂłÂłÂłÂł ÂłÂłÂłÂłÂłÂł
à°¾...... ?"
ou g
ÂłÂłÂłĠÂłÂłĠÂłĠÂłĠÂłĠÂłĠÂłĠÂłĠÂłĠÂłĠÂłĠÂłĠÂłĠÂł ĠÂłĠÂłĠÂłĠÂłÂł
Ġà°¦à°¹ à°¨à°®
ÂłÂłÂłĠÂłÂłĠÂłĠÂłĠÂłĠÂł ĠÂłÂł
ÂłÂłÂłĠÂłĠÂłĠÂłĠÂłĠÂłĠÂłĠÂłĠÂł ĠÂłĠÂłĠÂł
366 77
10103 2015
10404201739 3
à°ķà°§ à°°à°²
11001201735 59
12010201516 39
11403201738 18
11104201739 6
10610201747 29
10712201634 26
11910201516 36
11010201516 04
12610201516 56
11803201738 37
11609201515 24
10310201747 16
11612201518 47
10907201626 38
13012201635 16
13011201634 00
11411201633 36
11908201745 36
11309201515 16
11212201518 30
10801201735 49
Ġà± ©
1261220175 118
12509201746 86
11109201630 76
11410201516 18
13009201747 07
11412201518 37
12210201516 46
12710201516 59
11312201518 34
11701201619 66
11709201515 28
1070220158 3
1040220158 2
1050620162 50
1211120151 75
131052015 115
12609201515 56
11910201747 86
12111201517 49
13012201518 99
11804201739 99
6 07
d er
i es
t y
à°ķ à°§à°²
à°¦ à°ªà°°à°ļ
à°ª à°¦à°°
à°¸ à°¦à°°
à°ļ à°¦à°µ
à±Ĥ à°ģ"
Ġà°¨ à°µà°°à°¸
à°§ à°¤à°®
Ġà°¬ à°°à°¸
Ġà°¦ à°¯à°²
Ġà°ĩ à°¹à°¨
Ġà°İ à°¡à°²
Ġà°ľ à°²à°¨
Ġà°² à°«
Ġà°¹ à°¨à°¨
à°ķà°° à°¨à°Ĺà°°
à±ĩà°Ĥ ..."
Ġà°ľà°° à°ªà°¬
Ġà°ĵ à°¡à°¨
à°µà°¡ à°ķ
à°¤à°° à°£à°¤
à°°à°£ à°ľà°¨
à°¯à°® à°°
Ġà°ªà°¨ à°Ĺà°°
Ġ2 49
Ġà°¤à°² à°ªà°¡à°¤
à°¤à°ķ à°¯
à°ĺ à°¤à°®
à°ĺ à°¨à°ª
à°¾! ''
Ġà°Ĭ à°¯à°²à°²
à±ĩ, "
à°ľà°® à°¹à°²
Ġ6 60
Ġ5 60
Ġ19 28
à°Ĺà°³ à°ª
Ġ8 54
à°ķà°°à°£ à°ªà°¤
à±įâĢĮâĢĻ ...
à°®à°¦ à°¸
ÂłÂłÂłĠÂłÂłÂłĠ ÂłÂłÂłÂłÂłÂłÂłÂłÂłÂł
à°¶à°¨ à°²à°¤
Ġà°ıà°ķ à°¦
Ġà°¸à°¬ à°¬à°¨
Ġà°Ķ à°·à°¦
104 0520174
à°¾- ?
Ġà°®à°Ĺ à°¶
116 062017427
à±Ĥ... )
118 0920163
119 092016310
128 072017444
117 08201629
117 102017478
117 052016242
Ġ27 2
129 102015166
ÂłÂłÂłÂłĠ ÂłÂłÂłÂłĠ
à°°à°®à°£ à°¤
1230 42015
à°ļà°°à°£ à°¤
1120 2201620
102 11201516
Ġà°ľà°Ĺ à°¨à°ķ
ÂłÂłÂłĠÂłÂłÂłÂłÂłÂłÂłÂłÂłÂłÂłÂłÂłÂłÂłÂł ÂłÂłÂłÂłÂłÂłÂłÂłÂłÂłÂłÂłÂłÂłÂłÂłÂł
Ġà°Ŀ à°¡
Ġà°ħà°¥ à°µ
Ġ36 4
ĠÂłÂłÂł ĠÂłčĊ
Ġà°İà°¡à°® à°ķà°¨
on g
Ġà°İà°Ĺà°° à°²
à°°à°Ĺà°¬à°¡ à°¤
es ire
ĠÂłÂłĠÂłĠÂłĠÂłĠÂłĠÂłĠÂłĠÂłĠÂł ĠÂłĠ
ÂłÂłĠÂłÂłÂłĠÂłÂłÂłĠÂłÂłÂł ĠÂłĠÂłĠÂłĠÂłĠÂłĠÂłĠÂłĠÂłĠÂłĠÂłĠÂłĠÂł
12004201623 16
ig h
032015 92
11310201516 14
10912201750 36
11407201626 58
12202201737 3
10309201630 48
11510201632 27
1280720162 876
11409201515 18
11409201515 17
11512201634 57
1060520162 37
11405201624 08
11008201629 57
12708201514 47
1140720174 39
1210920151 538
1240420174 02
11808201514 14
12407201627 37
Ġcon s
11608201514 09
12309201515 46
10711201517 00
12709201515 59
12108201630 00
11909201515 34
12006201625 59
6 03
6 57
7 47
7 000
7 500
9 39
9 55
I C
i an
k s
o ol
à°¨ à°ļà°²à°¨
à°¸ à°Ĺà°¡
à°µ à°®à°£
à°Ĺ à°¨à°Ł
à°ļ à°Ĺà°¨
Ġà°° à°¸à°°
à°ľ à°ķà°°
Ġà°Ĩ à°ªà°¤
à°¬ à°ķà°²à°¹
Ġà°İ à°İà°¸
Ġà°ľ à°¦
à°ĸ à°µà°°
à°ĸ à°ªà°¡à°²
à°°à°¤ à°²à°ª
Ġà°¯ à°Ł
Ġà°¯ à°®à°°
Ġà°¤à°¨ à°¦à°¨
à°ħ à°°à°¨
à°ªà°¡ à°¡à°®
Ġà°®à°° à°µà°ķ
Ġà°ķà°² à°¤à°ªà°¡
Ġà°ĵ à°·
à°°à°£ à°ķà°°
Ġà°ªà°¨ à°Ĺà°¡
Ġà°ĩà°¦ à°¯
à°¦à°² à°¦
à°ªà°° à°ļà°Ĺ
à°·à°£ à°®à°¨
à°ķà°¨ à°Ĺ
Ġà°Ĳ à°¡à°²
Ġà°Ĳ à°İà°²
à°µà°¹ à°®
à°²à°® à°¡
à°°à°² à°Ĺ
Ġà°ķà°° à°ķà°°
à°°à°¹ à°¨
à°¯à°¸ à°¨à°®
Ġ4 10
à°ľà°¯ à°¯
à°¨à°¸ à°ª
à±ģ! :
à±ģ! ..
à±ģ! ..."
à°°à°¬ à°¸
à°°à°¬ à°²à°®
Ġ5 30
à°§à°¨ à°Ĺà°°
19 61
à°ªà°¦ à°¯
à°§à°µ à°²à°ķ
Ġà°°à°µ à°£à°¨
à°µà°¦ à°²à°ķ
Ġà°Ĩà°ª à°¦à°¨
à°Ĺà°¡ à°ļ
à°®à°£ à°µ
ÂłÂłÂłĠÂłÂłÂłĠ ÂłÂłÂłÂłÂłÂłÂłÂłÂłÂłÂłÂłÂł
à°ĵ à°Ĺ
à°°à°Ł à°ľ
Ġà°ķà°¡ à°ªà°Ł
Ġà°°à°® à°ľ
à°¤à°¤ à°²à°¨
Ġà°Ĭà°¹ à°²à°¤
à°Ĥ... ?"
108 0120157
Ġà°¬à°¯à°Łà°ªà°¡ à°Ĺ
Ġà°§à°¨ à°ªà°¤
116 012017358
119 112016336
128 08201514
128 05201511
Ġà°ħà°¹ à°°à°¹
Ġ.... ..."
Ġà°®à°¸ à°ķà°²
à°°à°®à°£ à°¨
à°°à°®à°£ à°ª
1230 3201622
à°¸à°¨à°¸ à°Ńà°¨
à°²à°ķà°² à°ªà°²
à°¡à°Ĺà°² à°¦à°¨
ĠI n
Ġà°ķà°²à°µ à°ķà°ª
Ġà°°à°£ à°¸
à°¤à°ªà°¡ à°¡
à°Ĺà°®à°¨ à°®
Ġà°ķà°¨à°ķ à°µà°²
an n
ÂłÂłÂłĠÂłÂłĠÂłĠÂłĠÂłĠÂł ĠÂłĠÂłÂł
à±ĩ__ "
à±į__ "
Ġà°ħà°µà°ķà°¤à°µà°ķ à°²à°¨
12610201748 16
11001201735 57
11112201750 46
11710201516 29
10512201750 16
10607201626 28
10811201633 14
12012201634 76
12111201749 46
12410201516 5
11207201626 49
12005201511 14
12610201516 5
11907201744 07
12101201735 99
11402201736 96
10312201750 07
10807201626 34
12311201749 57
11309201515 14
10302201736 47
12212201634 8
11702201737 09
10102201736 4
11811201517 38
12408201514 37
11406201625 34
10910201516 00
11709201515 29
12207201627 09
12806201512 38
11501201735 76
12808201514 50
5 21
6 59
7 15
7 27
7 35
h ar
Ġ i
Ġ Ć
à±į ___
à°¨ à°µà°¡
à°² à°¶à°®
à°Ł à°ªà°¦à°¹
à°¯ à°«
à°¯ à°Ĺà°¡
à°ª à°ķà°¡
à°ª à°°à°µ
à°ª à°ªà°¨
à°ª à°£à°®
à°® à°µà°²à°¸
à°Ĺ à°ķà°³
Ġà°ļ à°¬
à°ľ à°ªà°®
Ġà°Ĩ à°Łà°²à°¤
à°¬ à°ªà°¡
à°¶ à°µà°¨
à°§ à°°à°¶
à°¹ à°¤à°®
Ġà°ľ à°¬à°²
Ġà°ī à°·à°ķ
à°®à°¨ à°¤
à°ħ à°Ĺà°¸
à°ªà°¡ à°µà°²à°¸
Ġà°ħà°µ à°¯
à°·à°¨ à°Ĺà°°
à±Į ....
à°ķà°¡ à°ļ
à°Łà°² à°°
à°°à°¨ à°·
11 99
Ġ2 59
à°Łà°¨ à°®
Ġ( '
Ġà°īà°¦ à°ķ
Ġà°İà°¨ à°«
à°ľà°¨ à°ķà°°à°®
à°¤à°ķ à°®à°¨
Ġà°· à°¯
à±į. ,
Ġ- '
à°¯à°Ł à°ķ
Ġà°Ĳ à°·à°°
à°ł à°ł
à°¾! ..."
Ġà°Ĩà°¸ à°¨à°®
Ġà°ĩà°² à°µ
à°®à°ķ à°¤à°ķ
Ġ3 31
à°¤à°Ĺ à°Ł
à°³à°¨ à°ļ
à°®à°¯ à°ªà°°
Ġà°ķà°¦ à°ª
Ġà°Ĺà°¤ à°¸
Ġà°Ĺà°¡ à°ªà°µà°ļ
à°¶à°ķ à°¤à°ķ
Ġ5 20
19 52
19 66
19 67
19 62
à°¸à°¨ à°²à°¤
Ġ8 85
à°§à°µ à°³
Ġà°°à°µ à°£à°ķ
à±įâĢĮ) /
24 00
à°®à°£ à°ªà°²
à°¹à°¸ à°ķ
Ġ30 1
à°Ĺà°°à°ķ à°¤
Ġà°ªà°¦à°µ à°¤à°°à°Ĺà°¤
Ġà°ľà°¯ à°¹
à°¸à°Ĺ à°¸
Ġà°µà°¨ à°Ń
Ġà°ľà°°à°Ĺ à°ķà°®
107 1020163
Ġà°¨à°ķ à°³
106 08201629
Ġà°Ĺà°£ à°Ĺà°£
à°¯à°Ĺà°² à°µà°¨
à±ģ..... ..."
129 0420174
à°°à°ªà°¡ à°µà°²à°¸
à°°à°®à°£ à°²à°ª
1250 8201514
1130 82016296
ÂłÂłÂłÂłÂłÂłÂłÂłÂłÂłÂłÂłÂłÂłÂłÂłÂłÂłÂłÂłÂłÂłÂłÂłÂłÂłÂłÂłÂłÂłÂłÂłÂłÂłÂłÂłÂłÂłÂłÂłÂłÂłÂłÂłÂłÂłÂłÂłÂłÂłÂłÂłÂłÂłÂłÂłÂłÂłÂłÂłÂłÂłÂłÂł ÂłÂłÂł
à°¡à°Ĺà°² à°Ĺà°¡
à°¾à°Ĥ! !
Ġà°ħà°²à°¸ à°Łà°ķ
à°¨à°µà°¨ à°¶
à±Ģ' '
Ġa m
Ġà°¸à°µà°°à°£ à°ª
113 112015172
ÂłÂłÂłÂłÂłÂłÂłÂłÂłÂłÂłÂłÂłÂłÂłÂłÂłÂłÂłÂłÂłÂłÂłÂłÂłÂłÂłÂłÂłÂłÂłÂłÂłÂłÂłÂłÂłÂłÂłÂłÂłÂłÂłÂłÂłÂłÂłÂł ÂłÂłÂł
ÂłÂłÂłÂłÂłÂłÂłÂłÂłÂłÂłÂłÂłÂłÂłÂłÂłÂłÂłÂłÂłÂłÂłÂłÂłÂłÂłÂłÂłÂłÂłÂłÂłÂłÂłÂłÂłÂłÂłÂłÂłÂłÂłÂłÂłÂłÂłÂł ÂłÂłÂłÂłÂłÂłÂłÂłÂłÂłÂłÂł
à°¤à°®à°¨ à°Ł
ÂłÂłÂłĠÂłÂłÂłÂłÂłÂłÂłÂłÂłÂłÂłÂłÂłÂłÂłÂłÂłÂłÂłÂłÂłÂłÂłÂłÂłÂłÂłÂłÂłÂłÂłÂł ÂłÂłÂłÂłÂłÂłÂłÂłÂłÂł
0220158 86
ÂłÂłĠÂłĠÂłĠÂłĠÂł ĠÂłĠÂłĠÂłÂł
à°ļà°ªà°° à°ļà°¡
ÂłÂłÂłÂłÂłÂłÂłÂłÂłÂłÂłÂłÂłÂłÂłÂłÂłÂłÂłÂłÂłÂłÂłÂłÂłÂłÂłÂłÂłÂłÂłÂłÂłÂłÂłÂłÂłÂłÂłÂłÂłÂłÂłÂłÂłÂłÂłÂłÂłÂłÂłÂłÂłÂłÂłÂłÂłÂłÂłÂłÂłÂłÂłÂłÂłÂłÂłÂłÂłÂłÂłÂłÂłÂłÂłÂłÂłÂłÂłÂłÂłÂłÂłÂłÂłÂłÂłÂłÂłÂłÂłÂłÂłÂłÂłÂł ÂłÂłÂłÂłÂł
el l
Ġà°¦à°¡à°¦ à°¡à°®à°¨
ĠR e
ÂłÂłÂłĠÂłÂłÂłĠÂłĠÂłĠÂłĠÂłĠÂłĠÂłĠÂłĠÂłĠÂłĠÂłĠÂłĠÂł ĠÂł
12610201748 15
12810201748 25
1231220175 10
11710201516 27
12410201748 05
11309201746 35
10701201735 45
12111201749 45
10504201739 4
11802201737 13
11910201516 34
12410201516 50
11510201632 25
10611201516 96
1240520174 18
11010201516 03
11112201518 25
10812201518 13
11609201515 26
11512201750 66
10809201746 15
10912201634 34
11311201749 06
11807201744 02
1200920163 126
1210820151 427
12806201743 15
10111201748 45
10912201518 17
10512201518 02
11110201516 07
13005201511 47
11410201516 17
1010820151 35
12901201736 30
10411201516 88
11310201632 18
12507201627 57
10107201512 48
10107201512 47
121022015 86
13112201519 03
1050420162 25
1020320162 13
101062015 11
12204201623 20
Ġlo ve
12312201634 88
12405201624 49
12405201511 28
1150220158 5
1211120151 750
1290420174 050
, "
. !
5 29
6 09
6 17
6 23
6 51
6 75
8 05
8 15
8 55
8 000
9 23
: -
r ic
Ġ ÂłÂłÂłÂłÂłÂłÂłÂł
Ġ à±§
Ġ up
à± ¯
à°¨ à°¤à°Ĺ
à°¨ à°¡à°µ
à°² à°·à°£
à°¦ à°ªà°Ł
à°¯ à°Ĺà°¦
à°¸ à°¬à°°
à°¸ à°¡à°¬
à°¸ à°ĩà°ķ
à°Ĺ à°¤à°²
Ġà°µ à°Ĺà°ļ
Ġà°ļ à°µà°Ĺ
Ġà°¨ à°²à°®
Ġà°° à°¸à°¹
Ġà°ĩ à°¹à°®
Ġà°ħà°¨ à°®
à°Ń à°¨à°ª
à°Ń à°Ĺà°µà°¤
20 24
à°µà°° à°¸à°Ĺ
Ġà°ı à°İà°«
Ġà°¹ à°µà°¨à°®
Ġà°¹ à°¹à°¹
Ġ" "
Ġà°¯ à°¯
Ġà°®à°° à°¬
à°°à°¸ à°¹
à°¸à°° à°¬
à°°à°£ à°²à°¤
à°°à°¨ à°¨
Ġà°ªà°¨ à°¸à°ª
à°Ĥ. !
Ġà°¤à°² à°Ĺà°¡à°²
Ġà°İà°¨ à°ª
à°ľà°¨ à°ķà°®
à°ľà°¨ à°ªà°¦
à°ªà°° à°Ĺ
Ġà°¤à°ª à°¨à°ªà°¡
Ġà°ĸ à°¸
à°¨à°µ à°ª
à°¨à°ķ à°¬
Ġà°Ĳ à°ıà°İà°«
à°ł à°Ń
à°ł à°¤à°¨
à°Ĳ à°Ĳà°İ
à°¾! ...."
à°ļà°² à°ªà°²
Ġà°¤à°Ĺ à°²à°²
Ġ3 89
Ġ4 70
à°¨à°¸ à°®à°¯
à°ŀ à°ªà°¤
Ġà°ļà°¦ à°µà°°
à°¿... !"
à°¯à°µà°¸ à°°à°®à°¨
19 34
19 75
19 87
à°Ĵ à°Ĵ
Ġ7 37
à°ī à°ªà°¨
Ġà°¸à°¨ à°¤à°¨à°Ĺà°°
ÂłÂłÂłÂłÂłÂłÂłÂłÂłÂłÂłÂłÂłÂłÂłÂłÂłÂłÂłÂłÂłÂłÂłÂłÂłÂłÂłÂłÂłÂłÂłÂł ÂłÂłÂłÂłÂłÂłÂłÂłÂłÂłÂłÂłÂłÂłÂłÂłÂł
à°µà°°à°£ à°ķ
ĠÂłĠÂłĠÂłĠÂłĠÂłĠÂłĠÂłĠÂłĠÂłĠÂłĠÂłĠÂłĠÂłĠÂłĠÂłĠÂł ĠÂłĠÂłĠÂłĠÂłĠÂłĠÂłĠÂłĠÂłĠÂłĠÂłĠÂłĠÂłĠÂłĠÂłĠÂłĠÂłĠÂłĠÂłĠÂłĠÂł
à°ªà°Ĺ à°Ł
Ġà°ıà°ķ à°®à°µ
à°¹à°¦ à°ªà°¡à°¨
à°¿: "
à°°à°ķà°Łà°¨ à°²à°ª
à±ĭ... '
108 042016227
107 09201630
107 11201633
107 0120157
Ġ28 5
126 09201746
128 0920174
Ġ26 7
Ġà°ķà°¦à°² à°¸
114 0820151
à°Ĥ- -
Ġà°°à°¸ à°¸
1230 72016273
1130 2201620
1130 2201736
à°µà°¹à°£ à°¤
à±į? !"
à°½ à°ľ
à°Ĺà°ªà°¡ à°¡
à°µà°¬ à°²à°®
Ġà°¨à°Łà°¨ à°ª
er ation
ÂłÂłÂłÂłÂłÂłÂłÂłÂłÂłÂłÂłÂłÂłÂłÂłÂłÂłÂłÂłÂłÂłÂłÂłÂłÂłÂłÂłÂłÂłÂłÂłÂłÂłÂłÂłÂłÂłÂłÂłÂłÂłÂłÂłÂłÂłÂłÂł ÂłÂłÂłÂłÂłÂłÂłÂłÂł
à°¡à°¤à°² à°µ
Ġà°°à°¥ à°¸à°ª
à°°à°ķà°° à°¤
ÂłÂłÂłĠÂłÂłÂłÂłÂłÂłÂłÂłÂłÂłÂłÂłÂłÂłÂłÂłÂłÂłÂłÂłÂłÂłÂłÂłÂłÂłÂłÂłÂłÂłÂłÂł ÂłÂłÂłÂłÂłÂłÂłÂłÂłÂłÂłÂł
Ġà°ħà°²à°ķ à°ķ
Ġp l
Ġ95 5000
ÂłÂłĠÂłÂłÂłĠÂłÂłÂłÂłÂłÂłÂłÂłÂłÂłÂłÂłÂłÂłÂłÂłÂłÂłÂłÂłÂłÂłÂłÂłÂłÂłÂłÂłÂłÂłÂłÂł ÂłÂłÂłÂłÂłÂłÂłÂłÂłÂłÂłÂłÂłÂł
ÂłÂłÂłĠÂłÂłÂłĠÂłÂłĠÂłĠÂłĠÂłĠÂłĠÂłĠÂłĠÂłĠÂłĠÂłĠÂłĠÂłĠÂł ĠÂłĠÂłĠÂłÂł
ÂłÂłÂłĠÂłÂłĠÂłĠÂłĠÂłĠÂł ĠÂłĠÂł
ÂłÂłÂłĠÂłÂłÂłĠÂłÂłĠÂłĠÂłĠÂłĠÂłĠÂłĠÂłĠÂłĠÂłĠÂłĠÂłĠÂłĠÂłĠÂłĠÂłĠÂłĠÂł ĠÂłĠÂł
ÂłÂłĠÂłÂłÂłĠÂłĠÂłĠÂłĠÂłĠÂłĠÂłĠÂłĠÂłĠÂłĠÂłĠÂłĠÂłĠÂłĠÂłĠÂłĠÂł ĠÂłÂł
11511201749 15
________________________________ ________________________________
12309201746 77
11603201738 27
1090120157 59
10512201750 15
10104201739 2
11610201516 26
11912201750 8
10701201735 48
13108201630 39
10710201747 34
11907201744 06
11502201737 00
10212201634 08
10609201746 07
13012201635 14
11102201736 8
11109201746 27
12508201630 14
12011201517 46
1010720174 335
12308201630 06
12107201744 15
11908201514 18
1200420174 01
10508201629 37
13007201629 14
1310720162 918
10906201625 14
11308201745 13
12406201512 24
12208201630 03
103072015 125
12105201511 17
10808201629 48
10111201516 77
12506201512 28
11111201517 15
10308201629 29
12208201514 29
1020520162 359
11506201625 38
12211201749 50
11909201746 59
11809201515 30
% ),
5 57
6 01
6 45
6 53
6 95
7 29
a ce
m s
v en
à°¨ à°ľà°²
à°° à°°à°¸à°®
à°ķ à°§à°°
à°¤ à°Ļ
à±ĭ ___
à°¯ à°¹à°¸
à°¸ à°®à°¤
à°Ĺ à°µà°Ĺ
à°Ĺ à°§à°°
Ġà°µ à°°à°®à°¨
Ġà°ķ à°Ĺ
Ġà°ħ à°¸à°°
Ġà°® à°ĺà°µ
Ġà°¸ à°¯à°¦
Ġà°¨ à°µà°¤
à±ģ. Ć
Ġà°° à°Ĺà°²
à°· à°¤à°ķ
à°· à°¹à°°
Ġà°Ĩ à°¥
à±Ī ?"
à°¶ à°ķà°²
à°¶ à°°à°¦
Ġà°¬ à°²à°ķ
Ġà°İ à°Ĺà°°à°Ĺ
Ġà°² à°Ł
Ġà°ħà°¨ à°Ĺà°¨à°Ĺ
à°²à°¨ à°°
à°¾à°Ĥ ......
à±Ĩà°Ĥ (
Ġà°Ń à°®
à°¦à°° à°¤
Ġà°ªà°° à°Ĺà°¡
à°°à°® à°°à°µ
à°®à°¨ à°ª
à°ħ à°¤à°Ĺ
à°ªà°¡ à°¸
Ġà°ķà°² à°²à°¤
à°°à°Ń à°¤
à°¤à°° à°ķà°°à°®
Ġà°ķà°¨ à°ķà°ª
Ġà°ħà°¡ à°Ĺà°®
Ġà°ħà°² à°¬
à°µà°¨ à°ļ
à°ĩ à°ĩ
à°¤à°ķ à°Ĺ
Ġà°· à°Łà°ª
à°°à°¦ à°®à°¯
à°¨à°® à°¤
à°¨à°² à°Ĺà°¡
à°Ĳ à°°à°¨
à±ĩ. '
ĠÂłĠÂłĠÂłĠÂłĠÂłĠÂłĠÂłĠÂł ĠÂłĠÂłĠÂłĠ
Ġà°Ĩà°¶ à°¯à°®à°¨
Ġ3 26
Ġ3 27
Ġ3 36
Ġ3 22
à°Ĺà°¨ à°®à°²
Ġ4 06
à°ľà°ķ à°®
à°ªà°¨ à°²à°¨
à°¡à°Ł à°®à°¨
à±ģ? ..."
à°¢ à°®à°¯
Ġà°¬à°² à°®à°¨
19 46
19 40
19 55
19 51
Ġ8 100
à°²à°¬à°¡ à°¨
Ġ12 12
à°µà°¯ à°ľ
à°ī à°¬
à°¨à°Ĺ à°ķ
Ġà°ľà°² à°ļà°°
Ġà°¶à°¨ à°Ĺà°²
à±Ĥ! !
à±Ĥ.. "
à°¤à°¤ à°²à°ķ
à±į' '
à°£à°ķ à°ł
Ġà°ķà°¨à°¬à°¡ à°µ
à°°à°¸à°¨ à°²à°¤
104 0820162
à±Ĥ... !
127 04201623
à°¯à°¶ à°°
à°¾âĢĻ ..
114 03201592
Ġ29 3
____ __
1250 12015
1220 72016273
à°½ à°¶
Ġà°ľà°Ĺ à°¦à°²
à°± à°ļ
Ġà°¤à°Ĺà°² à°ª
à°¯à°µà°² à°¯
ÂłÂłÂłÂłÂłÂłÂłÂłÂłÂłÂłÂłÂłÂłÂłÂłÂłÂłÂłÂłÂłÂłÂłÂłÂłÂłÂłÂłÂłÂłÂłÂłÂłÂłÂłÂłÂłÂłÂłÂłÂłÂłÂłÂłÂłÂłÂłÂł ÂłÂłÂłÂł
à°Ķ à°¤
ÂłÂłÂłĠÂłÂłÂłÂłÂłÂłÂłÂłÂłÂłÂłÂłÂłÂłÂłÂłÂłÂłÂłÂłÂłÂłÂłÂłÂłÂłÂłÂłÂłÂłÂłÂł ÂłÂłÂłÂłÂłÂłÂłÂłÂłÂłÂłÂłÂł
com à°Ĩ
Ġà°ķà°²à°ķ à°²à°²
à°¨à°°à°¸ à°®
as h
lo w
ÂłÂłÂłĠÂłÂłĠÂłĠÂłĠÂłĠÂł ĠÂłĠÂłĠÂł
ÂłÂłÂłÂłÂłÂłÂłÂłÂłÂłÂłÂłÂłÂłÂłÂłÂłÂłÂłÂłÂłÂłÂłÂłÂłÂłÂłÂłÂłÂłÂłÂłÂłÂłÂłÂłÂłÂłÂłÂłÂłÂłÂłÂłÂłÂłÂłÂłÂłÂłÂłÂłÂłÂłÂłÂłÂłÂłÂłÂłÂłÂłÂłÂłÂłÂłÂłÂłÂłÂłÂłÂłÂłÂłÂłÂłÂłÂłÂłÂłÂłÂłÂłÂłÂłÂłÂłÂłÂłÂłÂłÂłÂłÂłÂłÂł ÂłÂłÂłÂłÂłÂłÂłÂł
ÂłÂłÂłĠÂłĠÂłĠÂłĠÂłĠÂłĠÂłĠÂłĠÂł ĠÂłÂł
ÂłÂłÂłĠÂłÂłÂłĠÂłÂłÂłĠÂłÂłÂłÂłÂłÂłÂłÂłÂłÂłÂłÂłÂłÂłÂłÂł ÂłÂłÂłÂłÂłÂłÂłÂłÂłÂłÂłÂł
Ġl ike
12604201623 37
ÂłÂłĠÂłÂłÂłĠÂłĠÂłĠÂłĠÂłĠÂłĠÂłĠÂłĠÂłĠÂłĠÂłĠÂłĠÂłĠÂłĠÂłĠÂłĠÂł ĠÂł
12304201623 24
10212201750 02
11602201737 05
11310201516 13
11504201739 86
11312201750 56
10610201747 3
10712201634 29
11307201626 56
12801201736 26
1050920151 486
11309201515 15
12401201736 09
1260920163 15
11712201750 76
12407201513 29
10206201742 13
10903201737 96
10306201742 17
11812201518 56
10307201626 16
12608201630 18
12109201746 7
12903201739 06
11805201624 24
12210201516 45
12309201515 45
12311201517 56
1010920174 58
12206201512 17
12105201624 37
12009201515 36
10407201512 58
12106201512 14
11604201510 09
10708201629 47
Ġmo re
Ġà°§à°¨à°¯ à°ľ
11306201625 30
11408201629 76
1040820162 93
12704201623 39
6 05
6 55
6 33
8 45
8 53
9 43
E N
h y
ĉ čĊ
à±ģ à±ģà°Ĥ
à°Ł à°ķà°¡
à°Ł à°µà°¸
à°¯ à°¦à°®
à°¸ à°¸à°°
à°¸ à°ķà°¤
à°µ à°ķà°Ł
à°Ĺ à°¸à°®
à°Ĺ à°ªà°°à°ļ
à°ļ à°°à°¯
à°ļ à°Ńà°ķ
à±Ĩ ..."
âĢĮ à°Ĥ
Ġà°® à°Ĺà°¨
à°· à°ķà°ª
à°¬ à°²à°°
à°§ à°Ł
Ġà°¬ à°Ń
Ġà°¬ à°¤à°Ĺ
à°£ à°²à°¨
à°£ à°ķà°°
Ġà°ī à°²à°ķà°²
à±Ĩà°Ĥ "
à°¥ à°ľ
à°²à°ķ à°ķ
Ġà°ı à°İà°²
Ġà°ı à°Ĳà°¬
Ġà°¹ à°ľà°°à°¯
à°¦à°¨ à°µ
à°İ à°Ĩà°°
Ġà°« à°²à°ķà°®
à°¯à°ķ à°µ
à±ĭà°Ĥ âĢĻ
Ġà°®à°¨ à°®à°°
Ġà°ĵ à°ªà°¨
Ġà°ķà°¨ à°ª
Ġà°ķà°¨ à°¸
Ġà°ħà°ª à°°à°ķ
à°ļà°¨ à°¦
Ġà°İà°ķ à°¸
à°·à°£ à°ªà°¡
à°®à°° à°Ĺ
à°²à°¯ à°ª
à°¨à°ª à°®
Ġà°µà°¦ à°²à°ķà°ª
Ġà°Ĭ à°ªà°¡
Ġà°Ĭ à°¡à°Ĺ
à°²à°µ à°¯
à°Ī à°«
Ġà°ªà°² à°ļà°¬à°¡
à°¯à°¸ à°¤
Ġ4 39
Ġ4 90
à°ŀ à°²à°¨
Ġà°ļà°¦ à°µà°¬
à°°à°¬ à°²à°ķ
à°°à°ľà°² à°ļ
Ġ6 70
Ġ5 80
à±į! !"
Ġ7 600
à°²à°¬à°¡ à°Ĺ
Ġ12 50
à°ĵ à°¦
à±ģ.... !"
Ġ23 3
Ġ30 8
à°Ĵà°ķ à°ļ
Ġà°µà°¨ à°²à°ķ
108 082016295
107 072015127
109 11201748
Ġ24 1
Ġà°Ńà°¯à°ªà°¡ à°µà°¦
Ġ28 00
117 07201626
117 0620151
à°ģ ."
129 122015189
130 1220175
Ġ29 6
à°ªà°²à°ķ à°°
Ġà°°à°®à°£ à°Ĺ
Ġà°®à°¸ à°ķà°¦
à°²à°Ń à°¤à°°à°®
1230 6201512
1130 4201510
à±ĭ? ...
0420162 33
à°¡à°µà°² à°¤
Ġà°İà°µà°¡ à°¨
à±Ģ' ,
à°¾à°Ĥ.. âĢĻ
à°Ŀ à°¨
** *
ÂłÂłÂłÂłÂłÂłÂłÂłÂłÂłÂłÂłÂłÂłÂłÂłÂłÂłÂłÂłÂłÂłÂłÂłÂłÂłÂłÂłÂłÂłÂłÂłÂłÂłÂłÂłÂłÂłÂłÂłÂłÂłÂłÂłÂłÂłÂłÂł ÂłÂłÂłÂłÂłÂł
Ġth an
Ġ".... ........
Ġp e
ÂłÂłĠÂłÂłÂłĠÂłÂłÂłÂłÂłÂłÂłÂłÂłÂłÂłÂłÂłÂłÂłÂłÂłÂłÂłÂłÂłÂłÂłÂłÂłÂłÂłÂłÂłÂłÂłÂł ÂłÂłÂłÂłÂłÂłÂłÂłÂłÂłÂłÂłÂł
à°¿à°ĥ "
ÂłÂłÂłĠÂłÂłÂłĠÂłÂłĠÂłĠÂłĠÂłĠÂłĠÂłĠÂłĠÂłĠÂł ĠÂł
ĠS t
à±įâĢĮâĢĮâĢĮ âĢĮ
Ġwh ich
10712201750 25
11310201516 15
12302201737 35
12302201737 37
11610201516 25
ÂłÂłĠÂłÂłÂłĠÂłÂłÂłĠÂłĠÂłĠÂłĠÂłĠÂłĠÂłĠÂłĠÂłĠÂłĠÂłĠÂłĠÂłĠÂłĠÂłĠÂłĠÂł ĠÂłÂł
11607201626 66
11910201516 35
11010201516 05
11112201518 26
tel angana
10812201634 30
11411201633 38
11512201634 59
10210201747 14
10904201739 56
12407201513 28
12708201514 48
12102201737 25
11902201737 18
12808201630 26
10102201736 39
10307201626 14
12305201511 24
1251220175 11
1210720151 317
1220720151 320
12706201512 34
11610201632 30
10301201619 15
11608201745 24
1180520151 106
1111020163 213
1290120158 08
12711201749 76
12904201510 46
12907201744 49
10810201747 38
131052015 1150
1060320162 14
1020720174 339
1080320159 06
à°®à°¡à°ķ à°¶
Ġcas sette
11910201632 39
123012015 79
10911201748 86
" "
6 15
6 27
6 39
6 49
6 31
6 79
7 09
7 57
8 19
8 17
8 43
9 05
9 15
9 35
9 47
? ...
a il
g g
n e
Ġ Ğ
Ġ us
à°¨ à°Ĺà°²à°µ
à°ķ à°¦à°°
à°¦ à°ķà°²
à°¦ à°µà°Ĺ
à°¡ à°¯à°²
à°ª à°¯à°¨
à°ª à°ªà°°
à°µ à°ªà°¡à°¤
à±Ĩ ...."
Ġà°¨ à°Łà°ķ
à±ģ. đ
à°· à°¯à°¨
à°¬ à°Ĺà°³
à°³ à°ªà°Ł
à±Ĭ ...
Ġà°İ à°Ĩà°°
à°Ń à°ľà°°
20 30
Ġà°ı à°Īà°²
Ġà°Ī à°ªà°¨
Ġà°Ł à°Ł
Ġà°ªà°° à°®à°¨
à°°à°® à°£à°¯
Ġà°¸à°® à°°à°µ
à°¤à°¨ à°µà°²
à°ħ à°¸à°®
Ġà°ħà°µ à°¨à°¤
à°¯à°² à°µà°²
10 11020174
Ġà°ħà°® à°²à°¨
.... !"
Ġà°ħà°ª à°ª
à°¯à°µ à°¯
à°ļà°¨ à°ªà°²
à°¾? .....
à°Ĳ à°®
à°²à°® à°¦
à°²à°® à°£
Ġà°¸à°¹ à°¯
Ġ3 15
Ġ3 34
Ġ3 58
Ġ3 55
Ġ3 95
Ġ3 84
à°®à°¤ à°²à°¨
à°ŀ à°«à°²à°®
à±ģ? ''
Ġà°ĩà°¸ à°ķà°²
à°§à°¨ à°ļ
Ġ19 11
19 63
à°Ĵ à°Ĳ
Ġ7 86
Ġ7 700
Ġà°¤à°ķ à°§
à°¨à°Ĺ à°µ
ÂłÂłÂłĠÂłÂłÂłĠ ÂłÂłÂłĠÂłÂłÂłĠÂłĠÂłĠÂłĠÂłĠÂłĠÂłĠÂłĠÂłĠÂłĠÂłĠÂłĠÂłĠÂłĠÂłĠÂłĠÂł
Ġ11 50
Ġà°®à°°à°£ à°¶à°¯
à±Ĥ.. âĢĺâĢĺ
Ġà°Ĺà°² à°Ń
à±į' âĢĮ
109 092015149
110 022017367
Ġà°Ńà°¯à°ªà°¡ à°¨à°ķ
à°°à°¸à°¨ à°²à°¨
Ġ28 3
116 04201739
128 11201517
à°ģ .....
à±ĩ.... ..."
à°·à°¯à°® à°¯
Ġ.... ........
à°µà°¤à°² à°ļ
Ġà°®à°¸ à°ķà°®
120 0520174
1230 92015154
1150 32015
1020 52015
th ing
Ġà°¸à°ķà°² à°®
Ġà°ªà°¯à°¨ à°®à°µ
Ġà°µà°°à°¸ à°ª
ÂłÂłĠÂłÂłÂłĠÂłÂłÂłĠÂłÂłÂłÂłÂłÂłÂłÂłÂłÂłÂłÂłÂłÂłÂłÂł ÂłÂł
or y
ÂłÂłÂłĠÂłÂłĠÂłĠÂłĠÂłĠÂłĠÂłĠÂłĠÂłĠÂłĠÂłĠÂłĠÂłĠÂł ĠÂłĠÂłĠÂł
ÂłÂłĠÂłÂłÂłĠÂłÂłÂłĠÂłÂłÂłÂłÂłÂłÂłÂłÂłÂłÂłÂłÂłÂłÂłÂłÂłÂłÂłÂłÂłÂłÂłÂłÂłÂłÂłÂłÂłÂłÂłÂł ÂłÂł
à±įâĢ į
Ġà°Ĩà°®à°¨ à°Ĺà°²
ÂłÂłÂłĠÂłÂłÂłĠÂłÂłÂłĠÂłÂłÂłÂłÂłÂłÂłÂłÂłÂłÂłÂłÂłÂłÂłÂł ÂłÂłÂłÂłÂłÂłÂłÂłÂłÂłÂłÂłÂł
ÂłÂłÂłĠÂłÂłÂłĠÂłÂłĠÂłĠÂłĠÂłĠÂłĠÂłĠÂłĠÂłĠÂłĠÂłĠÂłĠÂłĠÂłĠÂłĠÂłĠÂłĠÂł ĠÂł
10103 20158
ap p
Ġà°¶à°ķà°Ł à°®
ab ad
10404201739 35
12304201623 25
1090120157 57
11710201516 30
12302201737 38
à±ģ--- "
12107201627 05
12107201627 06
11802201737 16
10309201630 50
108012015 750
10707201626 30
13103201739 14
11311201749 05
12602201737 50
12908201630 29
10208201629 25
11107201626 45
1060520162 376
11706201625 47
12607201744 36
12607201744 38
11212201634 45
13005201511 48
11609201630 96
12910201516 68
10304201739 28
12507201627 58
11412201518 38
1140520174 120
11608201514 08
11811201517 37
ers on
12208201630 05
11006201625 18
12803201739 02
11701201619 6
10506201742 24
12506201512 29
12605201511 34
11504201510 06
12504201510 35
10206201511 56
1040320158 96
Ġà°Ńà°Ĺà°Ń à°Ĺà°²
1060220158 28
10205201510 56
10306201511 59
Ġti me
12508201514 39
12811201517 76
115032015 92
102052015 105
6 11
6 41
7 31
8 09
8 39
8 204
9 09
9 25
9 57
; #
U T
f o
f or
i o
n ow
r ut
ā đ
Ġ en
à°Ĥ à°Ĥ
à°ķ à°ľà°ķ
à°ķ à°¹à°¸
à°ķ à°¬à°¦
à°¸ à°ĵ
à°µ à°¯à°²
à°µ à°ªà°¨
à°ļ à°¤à°®
à°ļ à°ķà°¨
à°ļ à°®à°²
à±Ĩ ......
Ġà°ª à°½
Ġà°¤ à°¬à°²
à±Ī ."
Ġà°Ĺ à°¦à°°
à°¹ à°¦à°ķ
à°¹ à°£à°²
à°Ń à°°à°¦
à±Ĩà°Ĥ ...
à°¥ à°ªà°²
à°µà°° à°¦à°²
à°²à°ķ à°®à°¯
Ġà°ı à°®à°°à°ª
Ġà°Ī à°Īà°²
Ġà°¹ à°¹
à°¦à°¨ à°¦
à°ĸ à°¯
à°¯à°¨ à°¦
à°ķà°° à°Ł
Ġà°ªà°° à°Ĺà°£
Ġà°« à°¹
à°¤à°¨ à°¶
Ġà°ħà°µ à°¡à°®
10 59
Ġà°¤à°° à°Ĺà°¡
à°¯à°® à°Ł
Ġà°ħà°² à°®à°°
à°°à°¯ à°¸
Ġà°µà°° à°¦à°¤
à°¨à°¨ à°µ
à°ªà°¤ à°ª
à°Ĺà°² à°Ł
à°ĩ à°²à°ķ
à°ĺ à°ªà°°
Ġà°¤à°ª à°¨à°¨
à°®à°° à°¹à°¸
à°¨à°µ à°µ
Ġà°İà°µà°° à°¡
à°Ĳ à°ıà°ķ
Ġà°Ĭ à°²
Ġà°īà°ª à°ļ
à°Ī à°¦à°°
Ġ3 23
Ġ4 48
Ġ4 65
à°¹à°¨ à°¬
Ġà°Ĩà°§ à°°
Ġ6 30
Ġ19 16
Ġ19 15
Ġ19 25
Ġ19 24
Ġ19 27
19 17
à°¸à°¨ à°²à°¨
à±ĩ.. "
Ġ10 50
à°Ĵ à°ķà°ªà°ķ
à±į! !!
à°³à°ķ à°¯
à°¾... âĢĻâĢĻ
à°µà°¦ à°Ĺ
Ġà°Ĩà°ª à°Ĺ
Ġà°®à°¦ à°ª
ÂłÂłÂłĠÂłÂłÂłĠ ÂłÂłÂłĠÂłÂłÂłĠÂłĠÂłĠÂłĠÂłĠÂłĠÂłĠÂłĠÂłĠÂłĠÂłĠÂłĠÂł
Ġà°īà°¦à°¯ à°²à°ķ
Ġ18 57
à°·à°ķ à°Ńà°Ł
Ġà°ļà°² à°®à°²à°¶
Ġà°Ĺà°° à°³
à°¯à°ªà°¡ à°¦à°¨
Ġà°Ĭà°¹ à°¤
Ġ25 2
109 072017437
110 0820162
à°¯à°²à°ķ à°¨
Ġà°§à°¨ à°¬à°²
Ġà°Ĺà°£ à°ªà°µà°°
à°Ĺà°£ à°¤
116 01201619
127 112017497
117 0520174
Ġà°Ĩà°¦à°° à°£à°¤
130 0820151
Ġ29 2
à°°à°¥ à°ª
Ġà°ķà°®à°² à°¹
120 012016197
Ġà°ªà°Ĺ à°²à°¨à°ķ
à°¯à°§ à°²
à°Ńà°¦ à°¶à°²
à±įâĢĮâĢĮ ,
Ġà°¸à°¹à°ľ à°®à°¯
1230 320159
à±ĭ.... !
à°¾' .
à±ĩ? !
Ġà°µà°¦à°² à°¬
à°¡à°Ĺà°² à°Ĺ
ĠĠĠĠĠĠĠĠ ĠĠĠĠĠĠĠ
à°¾à°Ĥ! '
Ġà°°à°ļà°¨ à°²à°¤
à°¹à°°à°£ à°ª
Ġà°īà°ªà°¨ à°¯à°¨
Ġ36 00
à°Ŀ à°²
ÂłÂłÂłÂłÂłÂłÂłÂłÂłÂłÂłÂłÂłÂłÂłÂłÂłÂłÂłÂłÂłÂłÂłÂłÂłÂłÂłÂłÂłÂłÂłÂłÂłÂłÂłÂłÂłÂłÂłÂłÂłÂłÂłÂłÂłÂłÂłÂł ÂłÂłÂłÂłÂłÂłÂłÂłÂłÂłÂłÂłÂłÂłÂłÂłÂł
ÂłĠ ÂłÂłÂłĠ
à±Ĥ) .
ĠT el
ic al
ÂłÂłÂłĠÂłĠÂłĠÂłĠÂłĠÂłĠÂłĠÂłĠÂł ĠÂłĠÂł
ĠO F
10404201739 34
12810201748 26
11602201737 07
11603201738 28
12201201736 03
12410201748 06
11309201746 38
13108201630 37
10607201626 26
10611201516 99
12005201511 13
11609201515 25
1210820151 428
1230720151 324
11212201518 3
13112201635 18
12502201737 4
10101201735 24
12906201743 29
12408201745 57
11212201634 47
12601201736 16
12909201747 03
12808201630 25
11809201746 56
ĠV s
10209201630 46
11408201745 18
11702201620 77
10201201735 27
11610201632 29
11905201624 28
12009201515 35
1281220175 127
12002201620 88
11611201749 20
1301220151 900
12710201748 20
13006201512 45
1041220151 798
10410201747 20
12412201518 78
12809201746 98
113042015 1000
1170520174 150
6 13
6 97
7 23
7 59
7 51
7 41
? âĢĻ
a ch
t o
à ¥
à°° à°ļà°¨à°²
à°² à°ļà°²
à°² à°§à°¨à°®
à±ĭ `
à°¡ à°¯à°¨
à°ª à°¸à°°
à°µ à°®à°Ĺ
Ġà°ª à°ķà°ª
Ġà°µ à°¦à°°
Ġà°ķ à°£à°¤
Ġà°¸ à°µà°¨
Ġà°¤ à°ĸ
à°· à°ªà°°
à±Ī (
à±Ī ),
à°³ à°ķà°°
à°³ à°¤à°°à°¬à°¡
à°¶ à°°à°Ń
à°§ à°ªà°°à°ļ
à±Ĭ ....
à°£ à°¤à°ķ
à°¹ à°¤à°¤
à°¹ à°ķà°°à°®
Ġà°ľ à°²à°¤
Ġà°ħà°¨ à°ķà°®
à°¥ à°¨à°®
à°¥ à°²à°µ
20 50
ÂłÂłÂłÂł ÂłÂłĠ
à°¦à°¨ à°Ĺà°°
Ġà°ªà°° à°ļà°²
Ġà°ªà°° à°®à°µ
Ġà°¸à°® à°ľ
à°¯à°ķ à°Łà°ķ
Ġà°Ĵà°ķ à°¡à°¨
Ġà°ķà°² à°ªà°¬
Ġà°®à°¨ à°®à°¡
Ġà°ĵ à°¡à°¡
à°¸à°° à°ªà°ª
à°Łà°² à°¤à°°à°¬à°¡
à°°à°£ à°²à°ķ
Ġà°ħà°¡ à°¦
Ġà°ªà°¡ à°ķà°Ł
Ġà°ªà°¡ à°Ĺà°¨
Ġà°ħà°ª à°¸à°µ
Ġà°§ à°µ
à°¨à°¨ à°²à°¨
à°µà°¤ à°®à°¨
à°¨à°¦ à°¶à°²
Ġà°ªà°¦ à°ª
Ġà°ªà°¦ à°¬
à°·à°£ à°®à°¦
à°²à°ª à°°à°®
Ġà°ħà°¸ à°ķ
Ġà°Ĳ à°ĵà°¸
Ġà°İà°µà°° à°¬
à°®à°² à°¬
à°¨à°® à°Ł
à°²à°® à°²à°²
ĠÂłĠÂłĠÂłĠÂłĠÂłĠÂłĠÂłĠÂł ĠÂłĠÂłĠ
Ġà°Ĭ à°ļ
Ġà°Ĭ à°ķà°¦
Ġà°ķà°° à°Ĺà°¡
à±ģ... âĢĻ
Ġ3 11
Ġ3 19
Ġ3 46
Ġ4 99
à±ģ! âĢĻâĢĻ
à±ģ.. âĢĺ
à°¿? -
à°³à°¨ à°ķà°°à°®
Ġà°Ĺà°¡ à°µà°Ł
à°¡à°µ à°¬
Ġà°¬à°² à°ªà°¡à°¡
Ġ19 26
Ġ19 29
Ġ19 44
Ġ19 33
19 59
Ġ8 40
Ġ8 88
Ġ7 77
à±ĩ! !"
à°Łà°¡ à°®à°¨
à±ģ- '
à°ķà°ķ à°³
à°ĵ à°ľ
Ġà°¶à°¤ à°Ń
Ġ25 4
à°ķà°µ à°¸à°°
à°¸à°¹ à°ķà°°
104 12201518
à°¯à°Ĺà°² à°Ĺà°¡
à±į.... ..."
124 042016233
à°²à°µà°° à°ª
à°ªà°²à°ķ à°²
à°°à°®à°£ à°°
____ ___
1220 520174
à°¨à°¬à°¡ à°¤
à°¨à°ªà°¡ à°Ĺ
à±Ĥ.... ?"
ĠI S
à±ĩ..... ?"
123 122015187
10201747 76
à±ĩ' '
à±ģà°ģ "
ÂłÂłĠÂłÂłÂłĠÂłÂłÂłĠÂłÂłÂłÂłÂłÂłÂłÂłÂłÂłÂłÂłÂłÂłÂłÂłÂłÂłÂłÂłÂłÂłÂłÂłÂłÂłÂłÂłÂłÂłÂłÂł ÂłÂłÂłÂłÂłÂłÂłÂłÂłÂłÂłÂłÂłÂłÂł
à°¤à°µà°° à°ª
Ġà°Īà°¤ à°«
Ġ86 50
ÂłÂłĠÂłÂłÂłĠÂłÂłÂłĠÂłÂłÂł ĠÂłčĊ
Ġà°®à°°à°ķ à°²à°¨
Ġà°ķà°Łà°ķ à°Łà°²
12309201746 78
ÂłÂłÂłĠÂłÂłÂłĠÂłÂłÂłĠÂłÂłÂł ĠÂłĠÂłĠÂłĠÂłĠÂłĠÂłĠÂłĠÂłĠÂłĠÂłĠÂłĠÂłĠÂłĠÂłĠÂłĠÂłĠÂłĠÂłĠÂłĠÂłĠÂłĠÂłĠÂłĠÂłĠÂłĠÂłĠÂłĠÂłĠÂłĠÂłĠÂłĠÂł
11602201737 08
11112201750 49
1110920151 508
10401201735 35
12409201515 50
ÂłÂłĠÂłÂłÂłĠÂłÂłÂłĠÂłĠÂłĠÂłĠÂłĠÂłĠÂłĠÂłĠÂłĠÂłĠÂłĠÂłĠÂłĠÂłĠÂłĠÂłĠÂł ĠÂł
1010920151 47
1240520174 17
ow er
12802201737 56
10107201626 08
10909201746 2
1050920151 48
10112201634 06
10208201629 27
11107201626 47
1200920163 127
12508201630 16
Ġà± ¨
1210920163 130
11009201746 24
12011201517 48
13101201736 35
12407201744 27
13005201511 46
11305201624 03
11503201738 26
1010820151 356
102072015 1250
10508201629 39
10606201742 30
12109201746 68
12112201750 96
10502201736 5
1211220151 86
12311201517 57
Ġhttp s
1020320162 130
1120320162 16
ÂłÂłĠÂłÂłÂłĠÂłĠÂłĠÂłĠÂłĠÂłĠÂłĠÂłĠÂłĠÂłĠÂłĠÂłĠÂł ĠÂłĠÂłĠÂłĠÂłÂł
10901201619 38
1110420162 28
12305201624 45
1021120163 28
12707201513 38
IN G
12803201622 26
11508201745 20
1020720174 338
12304201510 29
1111120174 89
1301220175 14
' t
6 37
6 000
7 17
8 11
8 23
8 49
9 31
_ "
a th
c ess
i ve
m o
p l
p s
à°¿ à°¾
à°¿ ____
à°¤ à°¦à°Ĺ
à°¤ à°¶à°°
à°¦ à°¤à°²
à°¦ à°®à°¤
à°Ł à°ªà°¤
à°¯ à°ĸ
à°¯ à°¯à°¤
à°¡ à°¨à°ª
à°¸ à°®à°ķ
à°µ à°¥
à°ļ à°¦à°°
Ġà°µ à°Łà°µ
Ġà°µ à°¡à°Ĺà°Ł
Ġà°® à°¯à°®
à°¿. ă
Ġà°° à°®à°¨
à°· à°ªà°¦à°µ
Ġà°Ĩ à°µà°¨
à°¹ à°²à°®
à°¹ à°ªà°¡à°ķ
à°Ń à°¨à°ķ
à±Ĩà°Ĥ )
Ġà°Ń à°§
Ġà°¶ à°²à°Ń
Ġà°Ī à°ıà°¡
à°ĸ à°£
à°ķà°° à°ļ
ÂłÂłĠ ÂłÂłÂłĠčĊ
à°°à°¤ à°²à°¤
à°°à°® à°§
à°°à°® à°ªà°¡à°ķ
à°« à°°à°²
Ġà°¸à°® à°°à°®
... !"
à°·à°¨ à°Ĺ
à°¤à°° à°¬
Ġà°¸à°° à°³à°¤
à°¤à°² à°®à°¯
.... ...."
Ġà°ªà°¡ à°ķà°²à°¤
à°µà°¨ à°ªà°²
à°¤à°® à°¬
Ġà°¤à°² à°²à°¨
à°µà°¤ à°¯
Ġ- âĢĵ
à°®à°ķ à°®à°¯
à°ªà°ķ à°ļ
à°ªà°ķ à°¤à°ª
Ġà°Ĭ à°¹à°¨
Ġ3 37
Ġà°¨à°¡ à°ªà°Ĺà°²
à°¯à°¸ à°Ńà°¨
Ġà°Ĩà°¡ à°Łà°®
Ġà°µà°² à°¦
à°¿? ''
à°¾.. ?"
à°¿! âĢĻ
Ġ20 23
à°°à°Ĺ à°®à°¨
à°°à°Ĺ à°Łà°®
Ġà°¬à°² à°ªà°¡à°¤
à°ķà°® à°Ł
Ġ12 90
à±ĩ! âĢĻ
à°ī à°ªà°µ
à°Ĺà°¡ à°ªà°ķ
à±ģâĢĻ ;
Ġ18 85
à°²à°¬ à°ľ
à°ľà°² à°¦
Ġà°ķà°¸ à°¹
à±ĭ... ?"
108 0
108 022017366
106 062015117
Ġ28 4
Ġ28 8
127 0920163
118 092015153
Ġ27 7
Ġ26 3
120 07201627
ĠÂłĠÂłĠÂłĠÂłĠÂłĠÂłĠÂłĠÂłĠÂłĠÂłĠÂłĠÂł ĠÂłĠÂł
à°²à°ļ à°ª
Ġ... ?
à±ĩ? !"
à°½ à°¥à°¨
à±Ģ? ...
Ġà°µà°¦à°² à°µ
à±į..... !
Ġà°Īà°¯à°¨ à°¤
Ġà°°à°ļà°¨ à°²à°²
125 122016349
à°ħà°¸ à°¦
Ġà°¸à°µà°°à°£ à°¤
ÂłÂłÂłÂłÂłÂłÂłÂłÂłÂłÂłÂłÂłÂłÂłÂłÂłÂłÂłÂłÂłÂłÂłÂłÂłÂłÂłÂłÂłÂłÂłÂłÂłÂłÂłÂłÂłÂłÂłÂłÂłÂłÂłÂłÂłÂłÂłÂł ÂłÂłÂłÂłÂłÂłÂłÂłÂłÂłÂłÂłÂł
ÂłÂłĠÂłÂłÂłĠÂłÂłÂłĠÂłÂłÂłÂłÂłÂłÂłÂłÂłÂłÂłÂłÂłÂłÂłÂł ÂłÂłÂłÂł
à°Ĩà°ª à°¦à°²
à°¾...... ...
Ġp o
ÂłÂłĠÂłÂłÂłĠÂłÂłÂłĠÂłÂłÂłÂłÂłÂłÂłÂłÂłÂłÂłÂłÂłÂłÂłÂłÂłÂłÂłÂłÂłÂłÂłÂłÂłÂłÂłÂłÂłÂłÂłÂł ÂłÂłÂłÂłÂłÂłÂłÂłÂłÂłÂłÂłÂłÂłÂłÂłÂł
ÂłÂłÂłĠÂłÂłÂłĠÂłÂłĠÂłĠÂłĠÂłĠÂłĠÂłĠÂłĠÂłĠÂłĠÂłĠÂłĠÂłĠÂł ĠÂłĠÂłĠÂłĠÂłÂł
ÂłÂłÂłĠÂłĠÂłĠÂłĠÂłĠÂłĠÂłĠÂłĠÂł ĠÂłĠÂłÂł
Ġ104 00
ÂłÂłÂłĠÂłÂłÂłĠÂłÂłĠÂłĠÂłĠÂłĠÂłĠÂłĠÂłĠÂłĠÂłĠÂłĠÂłĠÂłĠÂłĠÂłĠÂłĠÂłĠÂł ĠÂłÂł
ĠE ND
ÂłÂłĠÂłÂłÂłĠÂłĠÂłĠÂłĠÂłĠÂłĠÂłĠÂłĠÂłĠÂłĠÂłĠÂłĠÂłĠÂłĠÂłĠÂłĠÂłĠÂłĠÂłĠÂłĠÂł ĠÂłĠÂłĠÂłÂł
ay s
1010520162 358
1010520162 357
Ġwh en
Ġà°¶à°¨à°Ĺ à°ªà°ª
Ġon e
1271220175 126
13006201626 04
10701201735 46
10301201735 3
à°²à°ĺ à°£à°ª
13108201630 36
1211120163 368
1211120163 366
ec t
10107201626 07
10107201626 05
1280720162 877
10609201746 06
10907201626 4
10807201626 36
1210820151 426
13008201630 3
1230720151 325
12401201736 08
10204201739 26
1310520162 478
11312201634 5
10407201626 17
11211201633 30
11911201749 36
12901201736 28
13003201739 09
12305201511 26
10304201739 30
12507201627 59
11812201634 68
10107201512 49
12706201512 35
11704201510 13
12301201736 05
12406201512 25
11408201745 16
12607201513 35
11508201514 06
1211020163 24
11610201632 28
10502201620 34
1070220158 30
12108201630 02
10708201629 45
11804201510 16
12512201634 96
1130220158 46
11906201625 56
11906201625 57
1021120163 288
1120520162 400
1280120158 06
1030420162 25
Ġwor ld
12703201622 24
10609201630 58
1010320158 9
Ġà°ªà°½ à°¥à°ķ
10412201518 00
6 93
7 39
8 21
8 47
8 57
9 37
9 21
A T
o nd
s s
Ġ ÂłÂłÂłÂłÂłÂłÂłÂłÂłÂłÂł
Ġà° Ļ
à±į `
à°¨ à°¦à°²à°ļ
à°¨ à°Ĺà°²à°°
à°² à°ªà°°à°ļ
à°ķ à°¸à°°
à°¤ à°ªà°ķ
à±ĩ âĢĵ
à°¡ à°ķà°°
à°¡ à°µà°°à°ķ
à°ª à°°à°ķà°²
à°¸ à°µà°²
à°® à°µà°¨
à°® à°¡à°²
à°Ĺ à°¤à°®à°µ
à°Ĺ à°±
Ġà°ķ à°¡à°Ĺà°¡
Ġà°ħ à°½
à°¿à°Ĥ .
à°¿. âĢĺâĢĺ
à°§ à°°à°ª
Ġà°Ĺ à°¸à°Ĺà°¸
à°£ à°ªà°¨
à°¹ à°ļ
Ġà°ľ à°µà°¹
Ġà°ħà°¨ à°Łà°®
à°¾à°Ĥ ''
à°¥ à°¶à°°
Ġà°Ń à°¡à°µ
Ġà°ı à°²à°¨
Ġà°ı à°µà°°
Ġà°Ī à°¤à°²
à°¯à°¨ à°¯
à°¯à°¨ à°·
à°« à°²à°ª
Ġà°¯ à°ª
Ġà°« à°®
Ġà°¤à°¨ à°°
Ġà°¤à°¨ à°¤à°²
à°ħ à°¸à°¤
Ġà°®à°° à°£à°¯
Ġà°ķà°² à°µà°¬
à±Į "
Ġà°ĵ à°İà°®
à°°à°¸ à°ªà°¡à°²
à°µà°² à°¦
Ġà°¸à°° à°¬
à°Łà°² à°®à°§
à°°à°ľ à°¤
à°Ĥ. âĢĻâĢĻ
à°µà°¨ à°²à°¤
Ġà°§ à°£
Ġà°ªà°Ł à°®à°Ł
à°ĩ à°İà°¸
à°¾? )
à°ĺ à°¨à°®
à±ģ" -
Ġà°¦à°Ĺ à°¦à°°
à°¾. âĢĻâĢĻ
à°ļà°² à°¸
Ġà°Ĭ à°°à°ķà°¨
Ġà°Ĭ à°°à°µà°¤à°²
à°¿? .
Ġà°ľà°¨ à°§à°¨
Ġ6 500
Ġ5 70
19 65
à°Ĵ à°µ
à°¡à°¡ à°®à°¨
13 105201511
à°²à°¬à°¡ à°µà°²à°¸
Ġà°Ľ à°¨
à°¨à°Ĺ à°°à°®
à°ħà°¨ à°¡
à°¶à°¨ à°²à°¨
à°ĥ |
à°¯à°ªà°¡ à°¨
à±ĭ! ...
à±Ģ... '
à±Ģ) -
ÂłÂłÂłÂłÂł čĊ
à°¾- -
126 12201518
127 122015189
119 0520151
128 12201518
117 10201632
Ġ27 8
129 0320159
à±ĩ.... !"
124 04201510
Ġà°ķà°¦à°² à°µ
130 0920163
Ġà°°à°®à°£ à°ª
à°Ĩà°¯à°¨ à°¨
à±ĭ.... ....
à°Ĥ' '
à°°à°¬à°¡ à°ķ
ĠĠĠĠĠĠĠĠ ĠĠĠĠĠĠ
à°¨à°¬à°¡ à°¨
in k
ÂłÂłÂłĠÂłÂłÂłĠÂłÂłÂł ĠÂłĠÂłĠÂłĠÂłĠÂłĠÂłĠÂłĠÂłĠÂłĠÂłĠÂłĠÂłĠÂłĠÂłĠÂłĠÂłĠÂłĠÂłĠÂłĠÂł
Ġà°īà°¡ à°ķà°¨
à°¾à°Ĥ... âĢĻâĢĻ
Ġà°¬à°¤à°ķ à°®
al ity
à°²à°ªà°¡ à°®
ĠA nd
ĠA ND
Ġà°ªà°°à°µà°¶ à°¤
ing s
Ġo ut
à±ĩ_ "
ÂłÂłĠÂłÂłÂłĠÂłĠÂłĠÂłĠÂłĠÂłĠÂłĠÂłĠÂłĠÂłĠÂłĠÂłĠÂłĠÂłĠÂłĠÂłĠÂłĠÂłĠÂłĠÂłĠÂł ĠÂłĠÂłĠÂł
Ġwh at
Ġst rologer
11711201749 25
12610201748 17
Ġà°¶à°¨à°Ĺ à°ª
1210420162 318
od y
Ġon ly
10704201739 49
1231220175 106
13006201626 03
11104201739 66
12409201515 47
10507201626 24
Ġit s
10701201735 47
10912201750 37
11312201750 57
12107201627 07
10312201634 14
11207201626 50
1260520174 186
11807201744 05
1230920163 13
1200920163 128
12806201743 16
11211201749 04
1010520174 05
11911201749 37
thefinancial a
11708201745 27
10102201736 38
11810201632 35
11809201746 58
1310720174 45
1310720174 456
11808201514 15
10902201620 48
12007201513 14
10412201634 16
10402201620 3
12408201514 38
12206201512 18
12705201511 37
11511201517 28
12009201515 37
12105201511 18
10808201629 49
10407201512 59
11709201630 98
12202201620 9
Ġà°®à°¥à°¨ à°ªà°¡
10408201629 34
12807201744 47
123062015 1220
1220620162 56
1170220158 56
1170220158 57
1250320159 48
11102201620 56
1240320159 46
1060220158 29
Ġ******* ****
og le
1180220158 58
11907201626 78
11211201517 18
11210201632 16
12612201634 99
1100820162 96
12612201518 86
1190520151 109
11710201632 34
1290320159 59
6 29
6 47
8 95
9 27
9 41
A D
A Y
f ul
n g
o ok
à±į |
à°° à°Ľ
à°² à°¬à°²
à°¦ à°¤à°°
à°¦ à°µà°°à°ķ
Âł ĠÂłĠÂł
Âł ĠÂłĠÂłĠÂłĠÂłĠÂłĠÂłĠÂłĠÂłĠÂłĠÂłĠÂłĠÂłĠÂłĠÂłĠÂłĠÂłĠÂłĠÂłĠÂłĠÂłĠÂłĠÂłĠÂłĠÂłĠÂłĠÂłĠÂłĠÂłĠÂłĠÂłĠÂłĠÂł
à°Ł à°¦à°Ĺ
à°¯ à°¹à°¤
à°¡ à°ķà°¡
à°ª à°¨à°Ł
à°¸ à°Ĳà°¸
à°ļ à°Ľ
Ġà°ª à°«
Ġà°¸ à°¨à°®
à°· à°«
à°ľ à°¡à°²
à°¬ à°®à°¨
à°¬ à°ªà°°
Ġà°Ĺ à°²à°¡
Ġà°Ĺ à°³à°µ
Ġà°ľ à°¡à°ķ
Ġà°ī à°¶
Ġà°² à°¯à°¬
Ġà°ħà°¨ à°µà°¦
à°Ń à°¨à°¨
ÂłÂłÂłĠ ÂłÂłÂłÂłĠčĊ
à°İ à°ľ
Ġà°¯ à°¹
Ġà°¸à°® à°īà°ľ
Ġà°¤à°¨ à°ªà°ķ
à°ħ à°¨à°²
à°ħ à°¡à°ķ
à°ħ à°§à°°
à°Ĩ à°Ĺà°¡
à°Ĩ à°ķà°¸
Ġà°ħà°µ à°ķà°ª
Ġà°ħà°µ à°Łà°®
Ġà°ķà°² à°ªà°²
Ġà°®à°¨ à°ľ
Ġà°ĵ à°İà°²
à°°à°£ à°¯à°ķ
à°¯à°® à°¬
à°°à°ľ à°¯
à°¤à°® à°ª
Ġà°¤à°² à°ªà°ķ
Ġà°İà°¨ à°µ
à°ı à°¡à°µ
à°°à°ª à°ļ
Ġà°ħà°¸ à°®à°Ĺ
à°·à°² à°µ
à°ł à°ªà°°
à±Ģà°Ĥ !
Ġà°īà°¤ à°ķà°¡
à°°à°¶ à°¨
Ġà°¤à°Ĺ à°²à°ķà°ª
à°¡à°Ĺ à°²à°ķ
à±ģ... !"
à±į, "
Ġ4 11
Ġ4 35
à°®à°¤ à°ª
à°Łà°® à°Ĺ
à°¦à°ķ à°¤à°¨
Ġà°Ĩà°¤ à°¡
Ġ5 55
Ġ5 90
19 38
19 45
19 54
19 42
Ġ8 900
Ġ7 65
à°§à°µ à°²à°¨
à°Ľ à°¨à°ª
Ġà°ħà°¸à°² à°¦
à°¿- '
à°µà°°à°£ à°¤
à°·à°ķ à°µ
Ġà°İà°Ĺ à°¦à°¨
à±ĭ! âĢĻ
à±įâĢĮ.. ?
à°·à°° à°°
à°¹à°¤ à°²à°ķ
à°ªà°£ à°ľ
127 04201510
ÂłÂłÂłĠÂłÂłÂł ĠÂłčĊ
117 01201735
117 11201633
Ġ27 9
à°Ĥ? !
à°Ĥ? âĢĻ
à±ĩ.... '
124 122015188
130 042015
130 07201513
à°¨à°¦à°¨ à°¡
ĠÂłĠÂłĠÂłĠÂłĠÂłĠÂłĠÂłĠÂłĠÂłĠÂłĠÂłĠÂł ĠÂłÂł
à±ĭ? !
à°¦à°ªà°¡ à°¬
Ġà°Ńà°Ĺà°µ à°¦à°¨
à°¡à°µà°² à°¯
à°¯à°¬à°¡ à°Ł
Ġà°Īà°¯à°¨ à°¨
Ġà°°à°£ à°Ń
Ġa b
Ġà°ħà°¯à°¨ à°ķ
ÂłÂłÂłÂłÂłÂłÂłÂłÂłÂłÂłÂłÂłÂłÂłÂłÂłÂłÂłÂłÂłÂłÂłÂłÂłÂłÂłÂłÂłÂłÂłÂłÂłÂłÂłÂłÂłÂłÂłÂłÂłÂłÂłÂłÂłÂłÂłÂł ÂłÂł
Ġà°£ à°²
Ġà°ķà°¨à°¬à°° à°ļà°¡
Ġà°Ĺà°¡à°ª à°µà°²à°¸
à°¾...... ?
Ġà°®à°¸à°ķ à°ļ
ÂłÂłĠÂłÂłÂłĠÂłÂłÂłÂłÂłÂłÂłÂłÂłÂłÂłÂłÂłÂłÂłÂł ÂłÂłÂłÂłÂłÂłÂłÂłÂł
à°Ńà°ªà°¡ à°Ĺ
il d
Ġh er
ra v
ÂłÂłÂłĠÂłĠÂłĠÂłĠÂłĠÂłĠÂłĠÂłĠÂłĠÂłĠÂłĠÂłĠÂł ĠÂłĠÂłĠÂłÂł
ÂłÂłÂłĠÂłÂłÂłĠÂłĠÂłĠÂłĠÂłĠÂłĠÂłĠÂłĠÂł ĠÂłĠÂłÂł
ÂłÂłĠÂłÂłÂłĠÂłĠÂłĠÂłĠÂłĠÂłĠÂłĠÂłĠÂłĠÂłĠÂłĠÂłĠÂłĠÂłĠÂłĠÂłĠÂłĠÂłĠÂłĠÂłĠÂł ĠÂłĠÂłÂł
ul ts
us ic
11212201750 50
11103201738 08
10704201739 50
10704201739 47
10212201750 05
10212201750 01
11603201738 3
10911201633 18
12603201738 7
12203201738 58
10202201736 45
10202201736 46
10301201735 29
10311201748 58
10311201748 59
ÂłÂłÂłĠÂłÂłÂłĠÂłÂłĠÂłĠÂłĠÂłĠÂł ĠÂłĠÂłĠÂłÂł
ÂłÂłÂłĠÂłÂłÂłĠÂłÂłĠÂłĠÂłĠÂłĠÂł ĠÂłĠÂłĠÂłĠÂłÂł
1210620174 288
12005201511 16
11907201744 09
10510201747 25
10501201735 39
11012201634 39
13011201634 02
11908201745 37
11706201625 49
1150520174 126
10512201518 01
1240620162 57
11008201629 56
12601201736 17
12708201514 49
12308201630 09
10307201626 15
1110620174 250
12002201737 24
1111120163 326
10508201629 38
11904201623 11
1210720151 318
12007201513 15
10602201620 38
12208201745 47
11201201619 5
11811201517 39
10910201516 01
11605201624 15
10407201512 57
12202201620 96
1290120158 09
1140220158 47
1180320159 30
11002201736 77
12312201518 76
Ġ__________________ ________
12904201510 47
12307201744 24
12204201510 26
12901201620 09
12208201514 30
1010220158 16
1240320159 45
1070320159 03
12604201510 37
12604201510 38
12507201744 34
1120220158 4
12905201511 45
ĂĂĂĂ ĂĂĂĂ
1040420159 76
1180220158 59
13004201510 48
13004201510 49
Ġà°ıà°ķà°¸ à°Ń
10909201630 68
1050320158 99
Ġà°Łà°ķà°Ł à°ķà°²
6 77
8 13
8 37
9 11
9 07
9 17
9 45
9 33
E D
E T
O L
h en
r am
à°¿ ||
à°² à°Łà°®
à°¦ à°ļà°¦
à°ª à°¬à°²
à°¸ à°Ĳà°¡
à°® à°°à°¤
à°® à°°à°£à°²
à°Ĺ à°¸à°°
à±Ĩ /
âĢĮ )
à±Ĥ ___
Ġà°¨ à°°à°µ
Ġà°¨ à°²à°Ĺ
Ġà°¤ à°¯à°°
à°· à°°à°¸
à°· à°ķà°²
à°· à°°à°¸à°¤
à°ľ à°®à°²
à°³ à°ķà°®
à°¶ à°ķà°°
à°¶ à°°à°ķ
Ġà°¬ à°Ĺà°¤
Ġà°ĩ à°°à°Ĺ
Ġà°² à°¹
ÂłÂłÂłĠ ÂłÂłĠÂłÂł
Ġà°ªà°° à°ļà°¨
Ġà°ªà°° à°®à°¤
à°İ à°¨à°¸
à°İ à°İà°²
à°°à°ķ à°ļ
Ġà°¤à°¨ à°ľ
Ġà°¤à°¨ à°Ń
à°ħ à°Ńà°¯
à°Ĩ à°Ĺà°¨
à°Ĩ à°Łà°Ĺ
Ġà°ķà°¨ à°Ĺà°²
à°Łà°² à°Ĺ
à°°à°µ à°¬à°¡
Ġà°µà°° à°¦à°ķ
Ġà°µà°° à°¦à°¯
à°ļà°¨ à°¹
à°ĩ à°Ĩà°°
Ġà°· à°ª
à°°à°ª à°ª
à°°à°ª à°°à°®
à°ªà°ķ à°µ
Ġà°Ĭ à°¡à°¬
Ġà°İà°¦ à°ķ
Ġà°ıà°¡ à°µà°¦
Ġà°Ĩà°¶ à°¯à°¸
Ġ3 13
Ġ3 88
Ġà°¨à°¡ à°ªà°ķ
Ġà°¨à°¡ à°ķà°ķ
Ġà°¨à°¡ à°µà°¡à°®
Ġà°¨à°¡ à°µà°®à°¨
à°ľà°¯ à°µà°°
à°Łà°ķ à°ļ
à°ªà°¨ à°ĸ
à°¿! ..."
Ġ19 19
19 73
à°Ĺà°® à°Ĺ
Ġ9 80
à°§à°µ à°®
Ġà°¬à°¸ à°µà°¨
Ġà°¬à°¸ à°µà°ª
à±ĩ... !"
à°ĵ à°İ
Ġà°®à°¤ à°ķà°²à°¹
à°ľà°² à°¸
à°¨à°¡ à°¤à°¨
à°ħà°¤à°¨ à°¨
Ġà°ĩà°³ à°µà°°à°¸
Ġà°µà°¨ à°ľà°ķ
Ġà°¤à°¡ à°ķà°²
Ġà°İà°¡ à°ªà°²
à°¸à°Ń à°°
109 102015159
110 062015117
Ġà°®à°Ĺ à°Ĺ
116 0320162
127 07201744
128 12201751
Ġ26 1
129 042017404
à°ļà°¬ à°¡à°²
Ġ29 8
Ġà°ªà°²à°ķ à°ķ
Ġà°ªà°²à°ķ à°¦
ĠÂłĠÂłĠÂłĠÂłĠÂłĠÂłĠÂłĠÂłĠÂłĠÂłĠÂłĠÂł ĠÂł
1230 82015143
1030 320158
112 112016333
à±į? ..."
à°ļà°®à°¨ à°¡
à±Ĥ.... ?
à°īà°¦ à°¯à°®
Ġà°®à°¡ à°®à°²
Ġà°¸à°ķà°² à°ľà°¨
an ce
à°°à°µà°¡ à°Ł
ÂłÂłĠÂłÂłÂłĠÂłÂłÂłĠÂłÂłÂłÂłÂłÂłÂłÂłÂłÂłÂłÂłÂłÂłÂłÂł ÂłÂłÂł
ĠÂłĠ ÂłÂłÂłÂł
---- --
ĠA b
Ġp erson
ÂłÂłĠÂłÂłÂłĠÂłÂłÂłĠÂłÂłÂłÂłÂłÂłÂłÂłÂłÂłÂłÂłÂłÂłÂłÂłÂłÂłÂłÂłÂłÂłÂłÂłÂłÂłÂłÂłÂłÂłÂłÂł ÂłÂłÂłÂłÂłÂłÂłÂłÂłÂłÂłÂłÂłÂłÂłÂłÂłÂł
Ġh im
à°¤à°¸à°° à°«à°°
ÂłÂłÂłĠÂłÂłĠÂłĠÂłĠÂłĠÂłĠÂłĠÂłĠÂłĠÂłĠÂłĠÂłĠÂłĠÂłĠÂłĠÂłĠÂłĠÂł ĠÂłĠÂłĠÂłÂł
Ġà°īà°Ń à°¯à°¤
à°¡à°®à°° à°ļ
Ġl ife
ÂłÂłÂłĠÂłÂłÂłĠÂłĠÂłĠÂłĠÂłĠÂłĠÂłĠÂłĠÂłĠÂłĠÂłĠÂłĠÂłĠÂłĠÂłĠÂłĠÂł ĠÂłĠÂłĠÂłĠÂłĠÂłĠÂłĠÂłĠÂłĠÂłĠÂłĠÂłĠÂłĠÂłĠÂłĠÂłĠÂłĠÂłĠÂłĠÂłĠÂł
Ġà°§à°¨à°¸ à°®
ÂłÂłĠÂłÂłÂłĠÂłĠÂłĠÂłĠÂłĠÂłĠÂłĠÂłĠÂłĠÂłĠÂłĠÂłĠÂłĠÂłĠÂłĠÂłĠÂł ĠÂłĠÂł
11511201749 18
10712201750 28
11510201516 20
1231220175 108
11112201750 47
13006201626 00
12201201736 00
11607201626 6
10712201634 27
13010201748 37
11010201747 48
11711201517 36
1300520174 201
12610201516 57
12101201735 97
10809201746 17
10912201634 37
11003201738 01
10609201746 09
11807201744 04
12908201630 3
1230920163 138
10208201629 26
1241220175 110
op le
1240620162 576
12407201513 30
11405201624 07
11312201634 49
1140720174 38
12003201738 46
10509201746 03
10612201518 07
12706201743 14
1010320162 127
11012201518 20
11611201517 3
1160720174 396
1020620162 486
Ġan y
12310201748 01
13007201629 17
12407201627 38
10502201736 57
10701201619 3
10701201619 30
10412201634 17
12301201736 07
1130820151 398
12607201513 36
12408201514 36
10711201517 02
1250220162 108
10201201735 25
11401201619 58
1050220158 26
11408201514 01
10801201619 36
1180520151 108
1140220158 48
10401201619 18
12307201627 34
1160320159 26
1220620162 568
12711201749 77
1280220162 118
12005201624 34
1100220158 37
11508201629 77
Ġà°ªà°ķà°ª à°ķà°²
11711201633 50
13007201513 50
6 19
7 03
8 07
8 41
9 000
9 77
a ti
u te
Ġ ind
Ġ ÂłÂłÂłÂłÂłÂłÂłÂłÂłÂłÂłÂłÂłÂłÂłÂłÂłÂłÂłÂłÂł
à±ģ *
à°² à°§à°°
à°¤ à°¤à°Ĺ
à°¦ à°®à°²
à°¦ à°Ĺà°¦
à°Ł à°ªà°ķ
à°Ł à°¸à°Ńà°²à°ķ
à°¯ à°ľà°¨
à°¡ à°¤à°ķ
à°® à°Ĺà°¤
à°® à°¯à°¸
à°Ĺ à°¡à°Ĺ
à°Ĺ à°³à°¨
à°ļ à°ľà°°
Ġà°ª à°¹à°²
Ġà°µ à°¶à°¨
Ġà°ķ à°¡à°Ĺà°Ł
à±Ĥ à°ĥ
Ġà°¨ à°®à°ķ
à±ģ. Ě
Ġà°° à°ķà°ª
à°· à°µà°¸
à°· à°¸à°®
à°£ à°ķà°¡
à°£ à°ªà°ķ
à°¹ à°¹à°¸
à°¹ à°Ńà°°
Ġà°ľ à°¤à°ķ
à°Ń à°²à°¨
à°µà°° à°¹à°¸
à°²à°ķ à°®à°°
Ġà°Ī à°¦à°¡
ÂłÂłÂłĠ ÂłÂłÂłÂłÂłÂłÂłÂłÂłÂłÂłÂłÂłÂłÂłÂłÂłÂłÂłÂłÂłÂłÂłÂłÂłÂłÂłÂłÂłÂłÂłÂłÂłÂłÂłÂłÂłÂłÂłÂłÂłÂłÂłÂłÂłÂłÂłÂłÂłÂłÂłÂłÂłÂłÂłÂłÂłÂłÂłÂłÂłÂłÂłÂłÂłÂłÂłÂłÂłÂłÂłÂłÂłÂłÂłÂłÂłÂłÂłÂłÂłÂłÂłÂłÂłÂłÂłÂłÂłÂłÂłÂłÂłÂłÂłÂł
à°¯à°¨ à°®à°¸
à°« à°ĵ
à°¯à°ķ à°®à°¯
à°Ĩ à°Ĺà°®
à°Ĩ à°ķà°¤
te n
Ġà°ĵ à°¬à°¯
à°°à°£ à°¸
à°°à°£ à°µà°¨
à°ķà°ª à°¤
à°¦à°² à°µà°¬
Ġà°¤à°² à°²à°ķ
Ġà°İà°¨ à°¡
à°ľà°¨ à°®à°¨
à°ľà°¨ à°ªà°°
à°ı à°µà°®
à°ı à°Ĳà°İ
à°ı à°Īà°Ī
à°ªà°² à°ļ
Ġà°®à°¹ à°²à°ķ
à°²à°ª à°¦
à°¨à°µ à°¬
à°¨à°µ à°²à°²
à°¯à°Ł à°®à°¨
Ġà°İà°µà°° à°ķ
Ġà°¨à°µ à°µà°§
à°¾. !
à°¾! )
à°¾! ..
à°®à°ķ à°¬
à°²à°µ à°¦à°¨
à°Ī à°Īà°²
Ġ3 39
Ġ4 15
Ġà°Ĩà°¡ à°¦à°¨
à°®à°¯ à°ªà°¡
à°¿! .
à°¿! :
à°¿! ''
à°¡à°Ł à°Ĺ
Ġ6 25
Ġ6 80
à°ļà°ķ à°®à°¨
Ġ5 24
Ġ19 14
Ġ19 43
19 20
19 30
19 76
à°¸à°¨ à°Ĺ
à±ĩ.. âĢĻâĢĻ
à°ķà°°à°£ à°¹
à°¥à°ķ à°®à°µ
Ġ9 200
à°ķà°¸ à°Ń
Ġà°Ĩà°Ł à°µà°¸
à°İà°¨ à°Ĩà°°
Ġà°¸à°¦ à°µà°ķ
à°ªà°Ĺ à°²à°¨à°¨
à°ľà°² à°µà°¨à°°
Ġ! !!
Ġ50 5
Ġà°¶à°¤ à°§
Ġà°ķà°µ à°¤à°²
Ġà°µà°¨ à°ľà°¨
à°Łà°£ à°µ
109 092016306
à±Ģ... ?"
à±į.... '
128 09201747
à°ģ '
129 0
Ġà°ĭ à°£à°®
Ġà°ªà°²à°ķ à°Ĺ
à°·à°ª à°³
ĠÂłĠÂłĠÂłĠÂłĠÂłĠÂłĠÂłĠÂłĠÂłĠÂłĠÂłĠÂł ĠÂłĠÂłĠÂłĠÂłÂł
à°ķà°²à°ķ à°²
à°Ĩà°¯à°¨ à°²
1250 720162
1050 4201597
Ġà°ķà°¨à°ªà°¡ à°µ
1120 9201630
à°°à°¤à°ķ à°Ĺà°²
Ġà°ħà°¡à°Ĺ à°¦à°²
à°ªà°¬à°¡ à°¡
Ġà°Ŀ à°¨
Ġà°ĩà°¤ à°°à°®
Ġà°ªà°Ĺà°² à°¡
à±ĩ: "
à°¨à°µà°° à°ª
à°¿...... ?"
Ġà°İà°¡à°® à°ªà°ķ
Ġà°ľà°°à°ª à°µà°ļ
Ġà°ļà°® à°Łà°²
Ġà°°à°¥ à°µ
ĠÂłĠ ÂłÂłĠ
à°¨à°°à°¸ à°¯
Ġ108 0
à°¨à°ªà°° à°ļà°¡
Ġd is
ÂłÂłÂłĠÂłĠÂłĠÂłĠÂłĠÂłĠÂłĠÂłĠÂłĠÂłĠÂłĠÂłĠÂł ĠÂłĠÂłĠÂł
à°£à°ªà°¤ à°ķ
ÂłÂłÂłÂłÂłÂłÂłÂłÂłÂłÂłÂłÂłÂłÂłÂłÂłÂłÂłÂłÂłÂłÂłÂłÂłÂłÂłÂłÂłÂłÂłÂłÂłÂłÂłÂłÂłÂłÂłÂłÂłÂłÂłÂłÂłÂłÂłÂłÂłÂłÂłÂłÂłÂłÂłÂłÂłÂłÂłÂłÂłÂłÂłÂłÂłÂłÂłÂłÂłÂłÂłÂłÂłÂłÂłÂłÂłÂłÂłÂłÂłÂłÂłÂłÂłÂłÂłÂłÂłÂłÂłÂłÂłÂłÂłÂł ÂłÂłÂłÂłÂłÂłÂł
à°Łà°¤à°ķ à°¤
el s
Ġy ear
ce t
ÂłÂłÂłĠÂłÂłÂłĠÂłÂłÂłĠÂłÂłÂłÂłÂłÂłÂłÂłÂłÂłÂłÂłÂłÂłÂłÂł ÂłÂłÂłÂłÂłÂłÂłÂłÂłÂłÂłÂłÂłÂł
Ġà°µà°¨à°® à°¹
1040520162 367
ĠH e
ÂłÂłĠÂłÂłÂłĠÂłÂłÂłĠÂłĠÂłĠÂłĠÂłĠÂłĠÂłĠÂłĠÂłĠÂłĠÂłĠÂłĠÂłĠÂłĠÂłĠÂłĠÂłĠÂłĠÂłĠÂłĠÂłĠÂłĠÂłĠÂłĠÂł ĠÂł
ÂłÂłĠÂłÂłÂłĠÂłÂłÂłĠÂłĠÂłĠÂłĠÂłĠÂłĠÂłĠÂłĠÂłĠÂłĠÂłĠÂłĠÂłĠÂłĠÂłĠÂłĠÂłĠÂłĠÂłĠÂłĠÂłĠÂłĠÂłĠÂłĠÂł ĠÂłÂł
11103201738 09
11001201735 56
12010201516 4
12410201748 08
12603201738 77
11912201750 86
1210620162 566
11407201626 59
1120520174 106
1010920151 46
12012201634 78
12501201736 15
13010201748 35
10309201630 49
11510201632 26
10611201516 97
1240520174 178
120122017 50
1011220174 996
12005201511 15
12101201735 96
10912201634 36
11402201736 99
11107201626 46
11209201515 13
11102201736 86
13112201635 20
10302201736 50
10512201518 04
11212201634 46
11011201517 13
10903201737 97
11008201629 59
1261220175 12
1261220175 119
10306201742 18
11305201624 06
12308201630 07
11911201749 38
11810201632 37
13009201747 08
12305201511 25
1210720151 319
11206201625 29
11308201745 14
10402201620 30
1130820151 39
11508201514 05
1250220162 107
1210520174 166
11905201624 30
1030220158 2
10808201629 50
12803201739 04
10101201619 07
12301201619 86
11804201510 15
12002201620 9
10509201630 56
10202201620 2
11404201510 03
12210201747 97
1190320159 34
1240220158 76
1020420162 24
1270120158 03
12504201510 36
12707201513 39
11807201626 77
11601201735 78
1280320159 57
1200320159 36
1070320159 04
11011201633 20
11904201510 18
Ġà°¨à°®à°² à°¡
12701201620 00
12809201746 99
11509201515 20
1260520162 458
12707201744 39
12812201751 30
8 27
8 33
8 51
9 29
9 51
T R
c y
c gg
i ti
p h
v ed
Ġ ć
Ġ ē
Ġ à±Ģ
à±į à°ģ....
à°¿ +
à°¨ à°¯à°µ
à°° à°°à°¸
à°Ĥ âĢĺâĢĺ
à°² à°°à°¤
à°² à°°à°²
à°Ł à°¡à°¨
à°Ł à°Ľ
à°¸ à°§
à°¸ à°µà°¦à°¤
à°µ à°§à°ª
à°ļ à°ªà°Ł
Ġà°µ à°ķà°¡
Ġà°ķ à°¤à°²
Ġà°¸ à°¡à°ķ
Ġà°° à°¸à°ķ
à°¬ à°¦à°µ
à°³ à°¦à°²
à°§ à°¤à°Ĺ
Ġà°ĩ à°¨à°ķ
à°£ à°°à°¥
à°¹ à°¶à°ķ
Ġà°İ à°¨à°Ł
Ġà°ľ à°¹à°¨
Ġà°ī à°°à°ķ
Ġà°ħà°¨ à°Ĺà°²à°°
à°Ń à°µà°°
à°²à°¨ à°¬à°¡
à±Ĩà°Ĥ /
à°µà°° à°ļ
Ġà°Ī à°Łà°°
Ġà°Ī à°¸à°°
Ġà°¹ à°µà°¨
à°ĸ à°¤à°¨
à°ĸ à°ªà°¡à°Ł
Ġà°Ĵ à°Ĺà°°
ÂłÂłĠ ÂłÂłÂłĠÂłÂłĠÂłĠÂłĠÂłĠÂłĠÂłĠÂłĠÂłĠÂłĠÂłĠÂłĠÂłĠÂłĠÂłĠÂłĠÂłĠÂłĠÂłĠÂłĠÂłĠÂł
Ġà°¤à°¨ à°ķà°²
à°ħ à°¨à°µà°¸à°°à°®
Ġà°Ĩà°® à°¦
Ġà°ĵ à°ĸ
10 52
à°Ĺà°° à°ļ
à°ķà°² à°®à°¯
à°¯à°® à°ª
Ġà°ħà°² à°¯à°¨
Ġà°ªà°¨ à°¨
à°ķà°ª à°°à°ļ
à°Ĥ. âĢĻ
Ġ0 00
Ġà°µà°¸ à°ª
Ġà°ªà°Ł à°ķ
à°ľà°¨ à°¬
à°¤à°ķ à°®à°µ
à°·à°£ à°µ
à°·à°£ à°®à°¯
Ġà°¤à°ª à°¨à°²
Ġà°ĸ à°¤à°®
Ġà°Ĳ à°Īà°¡
Ġà°Ĳ à°Ĳà°İà°¸
Ġà°¨à°µ à°§
à°ł à°°
à°ļà°² à°°
à°°à°² à°ļ
Ġà°İà°¦ à°Ĺà°ķ
Ġà°īà°ª à°¸à°°
Ġà°ķà°° à°µà°¡
à°Ī à°Ĳ
Ġ3 66
Ġ4 13
Ġ4 18
Ġ4 21
Ġ4 68
à°¨à°¸ à°ķ
à°¿? ,
à°³à°¨ à°¬
à°¾.. '
Ġà°ķà°¦ à°ªà°Ł
à°¿... âĢĺ
à°°à°Ĺ à°Ĺà°²
à°°à°Ĺ à°µà°²à°¸
Ġ5 25
à°Ńà°µ à°¶
à±įâĢĮ. ,
ÂłÂłÂłĠÂłÂłÂłĠ ÂłÂłÂłĠÂłÂłĠÂłĠÂłĠÂłĠÂłĠÂłĠÂłĠÂłĠÂłĠÂłĠÂłĠÂłĠÂłĠÂłĠÂłĠÂłĠÂłĠÂłĠÂłĠÂłĠÂł
Ġà°Ĺà°° à°Ĺà°°à°²
à±ģ: ,
à°ķà°Ĺ à°ľà°ªà°¤
ĠÂłĠÂłĠÂłĠÂłĠÂłĠÂłĠÂłĠÂłĠÂłĠÂłĠÂłĠÂłĠÂłĠÂłĠÂłĠÂł ĠÂł
à°¯à°ªà°¡ à°ķà°ª
Ġà°Ńà°µà°¨ à°¨
ĠÂłÂł ĠÂłĠÂłĠ
à±Ģ: "
à±į' ...
107 2
à°ĤâĢĻ ..
104 06201742
à±Ĥ... ?"
126 12201751
127 0820174
119 062016255
117 032016218
130 0920151
à°¿..... !
120 0120157
à±ĭ- -
Ġà°µà°£ à°ķà°Ł
à°Ĥ.... ....
1230 72017442
à°ļà°¬à°¡ à°¡
1250 1
105 112016329
à°½ à°¥à°®
ÂłÂłÂłÂłÂłÂłÂłÂłÂłÂłÂłÂłÂłÂłÂłÂłÂłÂłÂłÂłÂłÂłÂłÂłÂłÂłÂłÂłÂłÂłÂłÂłÂłÂłÂłÂłÂłÂłÂłÂłÂłÂłÂłÂłÂłÂłÂłÂłÂłÂłÂłÂłÂłÂłÂłÂłÂłÂłÂłÂłÂłÂłÂłÂł ÂłÂłÂłÂłÂłÂł
ĠI t
à°ħà°¸ à°®à°°
Ġ36 7
Ġà°¸à°µà°°à°£ à°²à°¤
ÂłÂłĠÂłÂłÂłĠÂłÂłÂłÂłÂłÂłÂłÂłÂłÂłÂłÂłÂłÂłÂłÂł ÂłÂłÂłÂłÂłÂłÂłÂłÂłÂłÂłÂłÂłÂłÂł
ĠA N
il e
ÂłÂłĠÂłÂłÂłĠÂłÂłÂłÂłÂłÂłÂłÂłÂłÂłÂłÂłÂłÂłÂłÂłÂłÂłÂłÂłÂłÂłÂłÂłÂłÂłÂłÂłÂłÂłÂłÂł ÂłÂłÂłÂłÂłÂłÂłÂłÂłÂłÂłÂłÂłÂłÂł
Ġà°Ĩà°ªà°¦ à°²à°¨
à°¡à°ķà°² à°Ĺ
à±įâĢĮ? âĢĻ
ÂłÂłÂłĠÂłÂłÂłĠÂłÂłĠÂłĠÂłĠÂłĠÂłĠÂłĠÂłĠÂłĠÂłĠÂłĠÂłĠÂłĠÂłĠÂłĠÂłĠÂłĠÂł ĠÂłĠÂłĠÂł
à±įâĢĮâĢĮâĢĮ âĢĮâĢĮ
ÂłÂłÂłĠÂłĠÂłĠÂłĠÂł ĠÂłĠÂłĠÂłĠÂłÂł
ÂłÂłÂłĠÂłĠÂłĠÂłĠÂłĠÂłĠÂłĠÂłĠÂłĠÂłĠÂłĠÂłĠÂłĠÂłĠÂłĠÂłĠÂł ĠÂłĠÂłĠÂłÂł
ul l
Ġà°®à°°à°ķ à°²à°¤
12610201748 18
12810201748 27
1231220175 107
11304201739 78
1110920151 509
10812201750 34
1160520174 127
12203201738 5
1011220151 78
1010920151 468
10207201626 09
11703201738 36
11607201626 67
ĠG o
12501201736 13
1210620174 28
11803201738 38
12007201744 13
10310201747 18
10107201626 06
10501201735 38
1011120163 286
ug u
10312201750 08
11512201634 58
10911201517 08
11109201746 29
1011020163 178
10904201739 59
10302201736 49
11211201749 01
12212201634 86
12011201517 45
13101201736 34
12407201744 29
1010720174 337
10903201737 99
11312201634 50
11312201634 48
13010201516 69
12003201738 45
12003201738 48
11911201749 39
10509201746 05
1220920163 136
10612201518 05
1020620162 48
1010820162 924
10902201620 49
11206201625 26
11206201625 28
11206201625 27
1310720162 919
10412201634 18
11308201745 15
11201201619 48
12406201512 26
1250220162 109
11505201624 14
12705201511 36
12705201511 38
10201201735 26
11210201747 57
à°Łà°¸à°Ń à°²à°²
em y
11408201514 02
10801201619 34
12503201622 16
1110220158 39
11111201517 14
1140220158 49
10308201629 30
1040220158 24
11411201517 25
10302201620 27
11504201510 07
1280120158 07
12405201511 29
1310320162 24
1010220158 15
12001201619 76
1170320159 28
1110320159 13
12008201514 24
11506201625 39
TI ON
12703201622 25
Ġà°¯à°¨à°® à°²à°ķ
1040420159 77
1150320162 18
10102201620 2
101032015 889
11202201620 59
Ġpe ople
1200120157 88
5 566
6 21
8 29
i vers
p r
Ġ Ĕ
Ġ ÂłÂłĠÂłÂłÂłÂłĠ
à±ģ à±ģ.
à°° à°¡à°Ĺ
à°² à°®à°°
à°ķ à°ķà°®
à°¤ à°µà°¸
à°¤ à°¡à°®
à°¤ à°®à°¨à°¸
à°¦ à°¹à°¸
à±ĩ ||
à°¡ à°§
à°ª à°°à°¯
à°µ à°®à°µ
à°® à°ĸ
à°® à°¹à°¨
à°® à°°à°£à°®
à°ļ à°Łà°ķ
à°ļ à°®à°£
à±įâĢĮ âĢĺâĢĺ
à°¿. Ą
Ġà°° à°£à°®
à°ľ à°§à°°
Ġà°Ĩ à°°à°¤
à±Ī âĢĮ
à°¬ à°°à°¸
à°¶ à°¨à°Ĺà°°
à°§ à°µà°Ĺ
Ġà°ĩ à°§
à°£ à°¤à°²
à°¹ à°¤à°²à°ª
Ġà°İ à°«à°°
Ġà°İ à°°à°Ĺà°¦
Ġà°² à°¯à°¤à°ª
Ġà°ħà°¨ à°¦à°Ĺ
à°¾à°Ĥ ......"
à±Ĩà°Ĥ ....
à°¥ à°¨à°ª
Ġà°Ń à°¯à°µ
Ġà°ı à°²à°¨à°¨
Ġà°ı à°ĵà°¸
Ġà°Ī à°³
Ġà°¹ à°ļ
à°¦à°° à°¶
à°ĸ à°®à°²
à°ĸ à°ħà°®à°°
à°İ à°¨à°¯
à°« à°¥
à°°à°ķ à°¨à°Ł
à°Łà°° à°Ł
Ġà°Ĵà°ķ à°¡à°¯
à°ħ à°µà°°
à°ħ à°¦à°²
Ġà°ħà°¤à°¨ à°¡
.... ......"
à°µà°¨ à°¡
à°ļà°¨ à°¯
à°¤à°® à°Ł
à°ĩ à°¦à°¨
à°·à°£ à°°à°¹
Ġà°¤à°® à°ķà°¨
Ġà°ĸ à°®à°°
à°ļà°° à°ļ
Ġà°Ĩà°² à°¯à°®
à°Ĳ à°Ĳà°ª
à°Ĳ à°Ĵà°¸
à°®à°ķ à°µ
Ġà°Ĭ à°¤à°¯
à°Ī à°¯à°¨à°ķ
Ġ3 14
Ġ3 44
Ġ3 200
Ġ3 82
Ġ4 38
Ġ4 55
à°³à°¨ à°²à°ª
à°®à°¯ à°ľ
Ġà°ľà°¨ à°Ĺà°£à°®à°¨
à°¿... âĢĻ
à°¦à°ķ à°¬
Ġà°Ĺà°¡ à°ªà°Ĺà°²
Ġà°¨à°Ł à°ľ
Ġà°§à°° à°ĸ
Ġ5 26
Ġ19 10
19 10
19 49
à°¸à°¨ à°Ĺà°°
Ġ8 30
Ġ9 999
à°²à°¬à°¡ à°®à°¨
à±ĩ! ....
à°Ľ à°ľ
Ġà°Ľ à°°
Ġà°¤à°ķ à°¦
ÂłÂłÂłĠÂłÂłÂłĠ ÂłÂłÂłĠÂłÂłÂłÂłÂł
Ġà°ķà°¥ à°¨à°®
38 00
à°İà°¨ à°Ń
à°ĵ à°²à°ķ
à°Ĥ! ...
ĠÂłĠÂłĠÂłĠÂłĠÂłĠÂłĠÂłĠÂłĠÂłĠÂłĠÂłĠÂłĠÂłĠÂłĠÂłĠÂł ĠÂłĠÂł
Ġà°¥ à°²
Ġ50 4
108 0420159
109 0
109 02201736
Ġà°¬à°¯à°Łà°ªà°¡ à°µ
Ġà°¦à°¶ à°²à°¨
116 0820174
117 092016310
124 102016326
Ġà°°à°ĺ à°¨
Ġà°ªà°Ĺ à°ķ
à±Ĥ? !
ÂłÂłÂłÂłÂłÂłÂłÂłÂłÂłÂłÂłÂłÂłÂłÂłÂłÂłÂłÂłÂłÂłÂłÂłÂłÂłÂłÂłÂłÂłÂłÂłÂłÂłÂłÂłÂłÂłÂłÂłÂłÂłÂłÂłÂłÂłÂłÂłÂłÂłÂłÂłÂłÂłÂłÂłÂłÂłÂłÂłÂłÂłÂłÂł ÂłÂłÂłÂłÂłÂłÂłÂłÂłÂłÂłÂłÂł
à°°à°¬à°¡ à°¨
in à°²
à±ĩà°Ĥ? ...
Ġà°®à°¡ à°®à°¤
Ġa d
à°¿...... ?
Ġà°¤à°¡à°¬à°¡ à°ķ
Ġà°ľà°¤ à°ªà°°
Ġs ub
Ġth ere
ĠÂłĠÂłĠ ÂłÂłÂłÂł
ÂłÂłĠÂłÂłÂłĠÂłÂłÂłĠ ÂłÂłÂłÂłÂłÂłÂłÂłÂłÂłÂłÂłÂłÂłÂłÂłÂł
Ġà°¦à°¹ à°¨à°¸
ĠT h
ÂłÂłÂłĠÂłĠÂłĠÂłĠÂłĠÂłĠÂłĠÂłĠÂłĠÂłĠÂłĠÂłĠÂł ĠÂłĠÂłÂł
Ġ89 77
à°Ĥ__ "
ÂłÂłÂłĠÂłÂłÂłĠÂłĠÂłĠÂłĠÂłĠÂłĠÂłĠÂłĠÂłĠÂłĠÂłĠÂłĠÂłĠÂłĠÂłĠÂłĠÂł ĠÂł
ÂłÂłĠÂłÂłÂłĠÂłÂłÂłĠÂłÂłÂłÂłÂłÂłÂłÂłÂłÂłÂłÂłÂłÂłÂłÂłÂłÂłÂłÂłÂłÂłÂłÂłÂłÂłÂłÂłÂłÂłÂłÂłÂłÂłÂłÂłÂłÂłÂłÂłÂłÂłÂłÂłÂłÂłÂłÂł ÂłÂłÂł
1040520162 369
1211020174 796
11711201749 28
11711201749 29
11411201749 14
10712201750 29
12810201748 28
11103201738 05
11001201735 58
11603201738 30
13006201626 01
10703201737 87
10812201750 30
12201201736 04
10401201735 3
10401201735 36
12603201738 76
11309201746 37
10607201626 27
12111201749 49
11010201747 49
11510201632 24
10611201516 98
1240520174 177
12907201629 13
11609201746 49
11502201737 01
10809201746 14
13103201739 13
10412201750 14
11807201744 03
1230920163 14
11512201634 56
12806201743 18
12806201743 17
11706201625 48
1011020163 176
12508201630 15
12502201737 46
10204201739 24
12906201743 20
12408201745 59
10206201742 14
12909201747 05
12909201747 02
10407201626 18
12102201737 26
12808201630 27
11708201745 30
13009201747 09
10811201517 05
1200420174 0
10711201748 76
12112201750 99
1120820151 396
12007201513 13
12701201736 20
1050820151 369
10301201619 14
1050220158 27
12503201622 18
11111201517 16
1040320162 14
10512201634 2
1180320159 3
11611201749 24
12204201510 27
12605201511 35
12907201744 48
125052015 1130
1250320159 49
11807201626 76
10206201511 57
1150220158 50
1200320159 37
1130320159 17
1020520162 35
1120320159 15
11712201634 66
1060320159 01
10305201510 58
==== ====
12302201620 99
123042015 1030
1280920174 700
Ġ955000 1188
130042015 1050
12501 20158
1160820174 52
8 35
8 31
8 59
d uc
g t
l t
o ve
p t
s o
u se
Ġ ÂłÂłÂłÂłÂłÂłÂłÂłÂłÂłÂłÂłÂłÂł
à°¾ ġ
à°ķ à°ľà°®
à°ķ à°µà°¦
à°¤ à°¹à°°
à°Ł à°µà°®
à°¯ à°Ĺà°¤
à°¸ à°¡à°²
à°¸ à°Īà°Ĩà°°
à°® à°¬à°¦
à°® à°Ĺà°²à°°
à°Ĺ à°¶à°ķ
à±Ģ `
à°ļ à°ķà°²
Ġà°µ à°Ĺà°¯
Ġà°ħ à°ļà°²
à±Ĥ --
Ġà°¨ à°ķà°¨
à±ģ. Ď
Ġà°° à°Ń
Ġà°° à°ķà°°
à°· à°ķà°Ł
Ġà°Ĩ à°¨à°®
à°¬ à°¯à°Łà°¨
à°³ à°®à°µ
à°§ à°®à°²
à°§ à°¨à°¸
Ġà°¬ à°¦à°¨
Ġà°¬ à°·à°°
à°¹ à°¬à°²
Ġà°ľ à°¯à°µ
Ġà°² à°ķà°¡
à°²à°ķ à°ļà°°
Ġà°Ń à°Ń
Ġà°¶ à°¤à°ª
Ġà°Ī à°²à°ª
ÂłÂłÂłĠ ÂłÂłĠčĊ
Ġ" ....."
Ġà°Ĵ à°²à°ķà°ª
à°« à°¬
à°°à°ķ à°¨à°ª
à°°à°ķ à°®à°¯
Ġà°« à°³
Ġà°¸à°® à°µà°°
à°ħ à°°à°¸
à°ħ à°Łà°ķ
à°Ĩ à°¶à°¯
à°ªà°¡ à°ķà°®
Ġà°ħà°µ à°ļ
Ġà°ħà°¯ à°¤
Ġà°ķà°² à°µà°¡à°®
Ġà°®à°¨ à°ªà°¨
à°ķà°¡ à°¬à°¡
à°µà°¡ à°¯
10 112201750
à°ķà°² à°¬
à°µà°² à°µ
Ġà°¤à°° à°Ĺà°²
à°¯à°® à°¹
à°Łà°¨ à°µà°¸à°°
.... ......
à°ļà°¨ à°ħà°®à°°
à°¨à°¨ à°®
à°ªà°° à°ļà°¬à°¡
à°¬à°° à°ļ
Ġà°ªà°¦ à°ĺà°Ł
à°ı à°Ĳà°İà°¸
à°ĩ à°¨à°¸
à°·à°£ à°²à°ª
Ġà°· à°¡à°¨
Ġà°Ĳ à°Ĺ
Ġà°İà°µà°° à°¦
à°ł à°§
Ġà°ĩà°ļ à°Łà°¨
à°¾. -
à±ĩ. -
à°¡à°Ĺ à°ª
Ġà°¸à°¹ à°§à°°
Ġ3 49
Ġ3 99
Ġ3 36677
Ġà°¨à°¡ à°ªà°¡à°®
Ġ4 71
Ġà°Ĩà°Ĺ à°¯
à°ŀ à°°
à°ŀ à°ľ
Ġà°Ĩà°¡ à°¦à°¯
Ġà°ķà°¦ à°²à°¨à°¨
à°¿! ..
Ġ19 08
Ġ19 21
Ġ8 02
à°ªà°¦ à°²à°ķ
à°Ĵ à°Ĺ
Ġ9 86
à°ī à°µ
à°ī à°ªà°¸
Ġà°¤à°¯ à°°à°¯
ÂłÂłÂłĠÂłÂłÂłĠ ÂłÂłÂłĠÂłÂłÂłĠÂłÂłÂłĠÂłĠÂłĠÂłĠÂłĠÂłĠÂłĠÂłĠÂłĠÂłĠÂłĠÂłĠÂłĠÂłĠÂłĠÂłĠÂłĠÂłĠÂłĠÂłĠÂłĠÂłĠÂłĠÂłĠÂłĠÂłĠÂłĠÂłĠÂłĠÂłĠÂłĠÂłĠÂł
à±ģâĢĻ -
à°İà°¨ à°ľ
à°ħà°¨ à°§
Ġ18 94
à±ĭ. '
à°ħà°µ à°¯à°µ
à°ĵ à°®
Ġ50 2
ĠÂłÂł ĠÂłĠ
à°¤à°¸ à°¤
à°¤à°Ł à°¤
à°ļà°Ĺà°² à°Ĺà°Ł
Ġà°ķà°¨à°¬à°¡ à°°
104 052015
à±ģ..... '
Ġ28 9
à±į- -
127 112016338
119 12201518
à°Ĭ à°Ł
à°Ńà°ķ à°¶
à±įâĢĮâĢĮ :
à±ĭ.... ?"
1150 1201577
Ġà°ıà°®à°¨ à°²
à°¨à°¬à°¡ à°¨à°Ł
à°¨à°ªà°¡ à°¦
à±įâĢĮ... !
ÂłÂłÂłĠÂłÂłÂłĠÂłÂłÂłÂłÂłÂłÂłÂłÂłÂłÂłÂłÂłÂłÂłÂłÂłÂłÂłÂłÂłÂłÂłÂłÂłÂłÂłÂłÂłÂłÂłÂł ÂłÂłÂłÂłÂłÂłÂłÂłÂłÂłÂł
à°¦à°¶ à°°à°§
Ġà°¯à°® à°Ńà°Ł
ĠÂłĠÂłĠÂłĠÂłĠÂłĠÂłĠÂłĠÂłĠÂłĠÂłĠÂłĠÂłĠÂłĠÂłĠÂłĠÂłĠÂłĠÂłĠÂłĠÂłĠÂłĠÂłĠÂłĠÂł ĠÂł
à°¦à°¬ à°¯à°²
à°®à°°à°¸ à°ª
à°£à°¦ à°²à°²
Ġà°īà°Ńà°¯ à°ªà°ķ
Ġs ome
ar s
or d
Ġà°ķà°²à°Ĺ à°¦à°¨
Ġc l
Ġ".... ..."
ÂłÂłĠÂłÂłÂłĠÂłÂłÂłÂłÂłÂłÂłÂłÂłÂłÂłÂłÂłÂłÂłÂł ÂłÂłÂłÂłÂłÂłÂłÂłÂłÂłÂłÂłÂł
Ġm ake
Ġp re
Ġt al
à±ĩ) .
ÂłÂłÂłĠÂłÂłĠÂłĠÂłĠÂłĠÂł ĠÂł
à°Ļ à°ª
Ġ102 50
ĠC h
ÂłÂłÂłĠÂłÂłÂłĠÂłÂłÂłĠÂłÂłÂłÂłÂłÂłÂłÂłÂłÂłÂłÂłÂłÂłÂłÂł ÂłÂłÂłÂłÂłÂłÂłÂł
ÂłÂłÂłĠÂłÂłÂłĠÂłĠÂłĠÂłĠÂłĠÂłĠÂłĠÂłĠÂłĠÂłĠÂłĠÂłĠÂłĠÂłĠÂłĠÂłĠÂł ĠÂłÂł
à°ķà°®à°ķ à°Ĺ
Ġà°½ à°§à°°
Ġà°ľà°²à°ľà°² à°®à°¨
Ġà°ļà°µà°ķ à°¬
11711201749 27
ation s
11411201749 13
12010201516 37
13110201516 76
10911201633 17
12107201627 08
1050820174 479
10712201634 28
11802201737 14
12802201737 58
10510201747 27
10212201634 07
10912201634 35
1040720174 347
1110520174 09
1110520174 099
12908201630 30
11107201626 48
11411201633 37
13008201630 34
1010620174 20
1010620174 209
12607201744 35
ÂłÂłĠÂłÂłÂłĠÂłÂłĠÂłĠÂłĠÂłĠÂłĠÂłĠÂłĠÂłĠÂłĠÂłĠÂłĠÂłĠÂłĠÂłĠÂłĠÂłĠÂłĠÂłĠÂłĠÂłĠÂłĠÂłĠÂłĠÂłĠÂł ĠÂłĠÂł
1110520162 396
1260920163 149
12011201517 47
10206201742 15
13101201736 37
1010520174 057
1140720174 388
10509201746 02
12910201516 67
1240420174 027
10601201619 27
1251220175 117
10711201748 77
12903201739 05
10602201620 37
11201201619 49
13112201519 04
12801201620 05
11508201514 07
1010920174 587
12208201630 04
10301201619 16
und er
1210820174 54
11605201624 18
1050220158 25
12106201512 15
11608201745 25
1180520151 107
10201201619 13
1111020163 214
1040320162 13
12807201744 46
1160320159 24
11404201510 04
1170720174 399
Ġà°¦à°¯à°µ à°²à°¨
12709201746 96
12901201620 07
12405201624 48
1270120158 04
1070320162 150
11801201735 86
1220420174 01
1220420174 019
1120820174 50
1120820174 509
13006201512 46
1170320159 27
1041220151 799
12911201749 88
1090320159 08
10306201511 58
11311201633 34
1310120158 13
12310201516 48
12104201510 24
1120720174 379
12903201622 30
1070120157 49
10112201750 00
104052015 1059
11912201518 59
! ..
" -
% .
) ...
) --------
. (
2 100
8 97
9 59
A P
I A
L L
e x
m er
ĉ ĠĠ
Ġ ):
à±į âĢĵ
à°¨ à°²à°¯
à°° à°²à°¯
à°ķ à°µà°¸à°°à°®
à°¤ à°¦à°¯
à°¦ à°ħ
Âł ĠÂłĠÂłĠÂł
Âł ĠĠĠ
à°Ł à°¸à°®
à°¯ à°Ńà°¦
à°¡ à°°à°¯
à°¡ à°ªà°°
à°µ à°¤à°°à°Ĺà°¤
à°® à°ļà°ķ
à°® à°Ńà°ķ
à°ļ à°®à°°
Ġà°ħ à°ĸà°°
Ġà°ħ à°¶à°¨
à±įâĢĮ ġ
Ġà°¸ à°¬à°²
à±ģ. ]
Ġà°¤ à°·
Ġà°° à°¹à°¤
à°· à°ªà°¡à°¤
à°ľ à°ªà°Ł
à°³ à°ªà°¡
à°³ à°Ĺà°²à°¦
Ġà°Ĺ à°¦à°²
Ġà°Ĺ à°²à°°
à°¹ à°²à°²
à°¹ à°ķà°®
Ġà°İ à°Łà°ª
Ġà°ľ à°ķà°µà°°
Ġà°ħà°¨ à°¯
Ġà°ħà°¨ à°µà°°
à°²à°¨ à°µ
à°¥ à°Ń
à°¥ à°ªà°¦
à°µà°° à°¶à°°
Ġà°¹ à°°à°ª
à°¦à°¨ à°ļ
à°ķà°° à°ªà°²
Ġà°ªà°° à°¨
à°°à°ķ à°³à°¨
Ġà°« à°°à°®
Ġà°¸à°® à°¤à°²
à±ĩà°Ĥ âĢĻâĢĻ
à°Ĩ à°Łà°µ
à°ªà°¡ à°µà°¨
ÂłÂłÂłÂłÂłÂłÂłÂł ÂłÂłĠčĊ
Ġà°®à°¨ à°¡
à°²à°² à°Ĺ
à°°à°¸ à°µà°®
10 11120174
à°Ĺà°° à°µà°¡
à°¸à°° à°³à°ķ
à°ķà°² à°µà°²
Ġà°ķà°¨ à°°
à°²à°¤ à°¡
à°¯à°® à°²
à°°à°µ à°ªà°¦
Ġà°ªà°¨ à°²
à°¤à°² à°®à°§
12 34
12 52
à°µà°¨ à°²à°ķ
Ġà°§ à°°à°Ĺ
à°¡à°² à°ªà°°
Ġà°¤à°² à°Ĭà°ª
à°¬à°¡ à°¨
Ġà°®à°¹ à°µ
Ġà°¤à°® à°¹
Ġà°¤à°® à°¦à°¨
à°¨à°µ à°¤à°¨
Ġ- (
à°ł à°®à°µ
à°Ĳ à°²à°¤
à°Ĳ à°²à°ª
à°¾! -
Ġà°Ĩà°¸ à°²
à°®à°ķ à°³
à°®à°ķ à°§
à°®à°ķ à°¥à°¤
ĠÂłĠÂłĠÂłĠÂłĠÂłĠÂłĠÂłĠÂł Ġ
à°°à°§ à°°à°°
à±Ĥ, "
à±ĭ, "
Ġ3 51
Ġ3 93
à°¯à°¸ à°¨à°ªà°°
Ġ4 12
Ġ4 05
Ġ4 31
Ġ4 57
Ġ4 44
Ġ: _
à°ŀ à°¤à°²à°¨
Ġà°ĺ à°Łà°®
Ġà°¸à°Ń à°ª
Ġà°®à°¨à°¸ à°¨
à°¦à°ķ à°¤à°²
Ġà°¤à°¨à°ķ à°³
Ġ5 14
19 44
19 41
Ġ8 11
à±į! ....
Ġ7 70
à°²à°¬à°¡ à°¬
à°µà°¦ à°µ
à°ī à°ªà°ķ
Ġà°¢ à°ķ
à°¦à°¯ à°Ń
ĠâĢĺâĢĺ âĢĺ
à±Ģ. à±į
à°µà°°à°£ à°ª
Ġà°İà°Ĺ à°Ĺ
à°Ĥ.. :
Ġà°Ĺà°° à°Ĺà°°
Ġà°¥ à°ķ
à°Ĵà°ķ à°³
à±Ģ.. "
à°§à°ķ à°¬
à°ħà°ª à°ļ
42 50
109 03201738
à°¥à°¨ à°²à°¨
à±ģ' ...
Ġà°Ńà°¯à°ªà°¡ à°¦
Ġà°§à°¨ à°µà°¤
Ġà°®à°Ĺ à°ķ
116 1020174776
126 06201512
126 06201743
118 052016242
119 0120157
à°ģ -
ÂłÂłÂłÂłÂłÂłÂłÂłÂłÂłÂłÂł ÂłÂłĠčĊ
Ġà°ķà°¦à°² à°Ĺ
114 0420162
à°°à°¥ à°®à°®
à±ģâĢĻâĢĻ ..
ÂłÂłÂłĠÂłÂł ĠÂłĠÂłÂł
ĠÂłĠÂłĠÂłĠÂłĠÂłĠÂłĠÂłĠÂłĠÂłĠÂłĠÂłĠÂł ĠÂłĠÂłĠÂł
1020174 80
Ġà°ħà°µà°¤à°² à°Ĺ
1030 920151
à±Ģ.... !
à±Ģ.... ....
à°ħà°¤ à°£
Ġà°ħà°¡à°Ĺ à°Łà°®
à°¸à°¨à°¸à°Ń à°²à°ķ
ÂłÂłÂłÂłÂłÂłÂł čĊ
ĠI N
Ġ..... ?"
Ġà°¨à°°à°ķ à°ķ
Ġà°°à°ļà°¨ à°²à°ª
à±Ģ' .
à°¦à°³ à°ªà°¤
122 10201632
Ġà°¨à°Ĺà°² à°ª
Ġà°ľà°°à°ª à°ķà°ª
ÂłÂłÂłÂłÂłÂłÂłÂłÂłÂł ÂłÂłÂłĠčĊ
Ġà°ļà°²à°¨ à°°à°¹
an s
re at
ÂłÂłÂłĠÂłÂłÂłÂłÂłÂłÂłÂłÂłÂłÂłÂłÂłÂłÂłÂłÂłÂłÂłÂłÂłÂłÂłÂłÂłÂłÂłÂłÂłÂłÂłÂł ÂłÂłÂłÂłÂłÂłÂłÂłÂłÂłÂłÂłÂłÂł
Ġw om
ÂłÂłĠÂłÂłÂłĠÂłÂłÂłĠ ÂłÂłÂłÂłÂłÂłÂłÂłÂłÂłÂłÂłÂłÂłÂł
à°¤à°ªà°° à°ļà°¡
à°¾à°ĥ ,
Ġà°¤à°²à°ªà°¡ à°Ĺ
ÂłÂłĠÂłÂłÂłĠÂłÂłÂłÂłÂłÂłÂłÂłÂłÂłÂłÂłÂłÂłÂłÂłÂłÂłÂłÂłÂłÂłÂłÂłÂłÂłÂłÂłÂłÂłÂłÂł ÂłÂłÂłÂłÂłÂłÂłÂłÂłÂłÂłÂłÂłÂłÂłÂłÂł
à°·à°ľ à°²à°®
à°¶à°¨à°Ĺ à°ªà°ª
ÂłÂłÂłĠÂłĠÂłĠÂłĠÂłĠÂłĠÂłĠÂłĠÂł ĠÂł
1220163 509
à°¾_ "
Ġà°Ĺà°²à°Ĺà°² à°®à°¨
ad emy
à±ĭ_ "
ÂłÂłÂłĠÂłÂłÂłĠÂłĠÂłĠÂłĠÂłĠÂłĠÂłĠÂłĠÂł ĠÂłĠÂłĠÂł
à±Ĥ__ "
ÂłÂłĠÂłĠÂłĠÂłĠÂłĠÂłĠÂłĠÂłĠÂł ĠÂł
10404201739 36
11602201737 04
1110920151 507
11512201518 45
12603201738 78
11912201750 88
11309201746 36
1010920151 466
11312201750 6
1201020163 246
11703201738 35
10610201747 30
12408201630 13
1210620174 289
11003201738 03
1040820151 366
10312201750 06
13008201630 35
10111201748 46
10302201736 48
11009201746 2
12407201744 28
12509201746 8
10806201742 37
10604201739 45
12308201630 08
11211201633 29
11111201748 99
1210920151 54
11301201735 69
11409201630 88
1110620174 249
12310201748 04
10811201517 06
10601201619 25
1200420174 010
13007201629 16
12903201739 07
11805201624 25
10906201625 16
11303201738 17
121022015 868
1211220151 867
11408201745 17
1211020163 247
12105201624 39
11210201747 58
11401201619 59
12506201512 27
11608201745 26
1190920163 106
11709201630 99
12307201627 35
10311201516 86
11002201736 76
1130220158 45
12210201747 99
12806201512 39
12307201744 25
1190320159 3
1230320162 209
1120520162 399
10809201630 66
1280320159 58
1120320159 16
Ġ949 06
11902201620 86
1090320159 09
12302201620 98
11508201629 78
11808201745 34
1210320159 39
12310201516 47
120042015 102
1021020163 179
1250720162 76
1250120158 00
1011120174 84
10903201738 00
1190120157 86
12210201632 50
' ...
c tion
đ āđ
Ġ if
à±į à°Ĥ
à°¿ ġ
à°¨ à°Ĺà°²à°¦
à°² à°°à°¯
à°ķ à°ķà°°
à°ķ à°ħà°®à°°
à°ķ à°Łà°¨à°°
à°¤ à°ķà°°à°®
à°¤ à°Ńà°µà°¨
à°¦ à°£
à°¦ à°ĺ
à°¦ à°¯à°°
à±ĩ à°¿
à°Ł à°§
à°Ł à°µà°Ĺ
à°ª à°¤à°²
à°¸ à°µà°¡
à°¸ à°µà°¤
à°¸ à°Ĳà°Ĩà°°
à°µ à°µà°¨
à°® à°°à°£à°ķ
à°® à°³à°®
à°Ĺ à°¶à°¤
à°ļ à°¹
à°ļ à°¦à°°à°ª
Ġà°µ à°¯à°²
Ġà°ķ à°¬à°²
Ġà°ķ à°¤à°¡
Ġà°ķ à°µà°²à°ª
Ġà°® à°°à°®à°¤
à±Ĥ âĢĮ
à°ľ à°Ĺà°®
à°ľ à°Ĺà°ľ
à±Ī âĢĻ,
à°³ à°¶
à°³ à°®à°¯
à°³ à°Ĺà°²à°¡
à°¶ à°®à°¦
à°¶ à°Ńà°¦
à°§ à°§
à°§ à°¬à°²
Ġà°Ĺ à°¦à°¨
à°£ à°Ńà°µà°¨
Ġà°ľ à°¨à°ªà°¨
Ġà°² à°¯à°Ĺ
à°Ń à°Ĺà°²
à±Ĩà°Ĥ ..
à°²à°ķ à°®à°µ
Ġà°Ń à°Ĺà°¦
Ġà°ı à°°à°ķ
Ġà°Ī à°¡à°ķ
à°¦à°° à°ªà°¡à°Ł
à°¦à°¨ à°²à°²
à±ĥ .
Ġà°Ĵ à°°à°²
à°°à°¤ à°°à°®
à°°à°® à°ļ
Ġà°¸à°® à°°à°Ń
à±ĩà°Ĥ ...."
à°¤à°¨ à°®à°¨
à°¤à°¨ à°ķà°²
à°¤à°¨ à°®à°¯
à°¯à°ķ à°¸
à°Ĩ à°¦à°¯
à±ĭà°Ĥ !
Ġà°ķà°² à°µà°ļ
à°ķà°¡ à°Ĺ
à°°à°¸ à°Ĺ
à°°à°¸ à°¨à°¤
à°°à°¸ à°µà°µ
10 10
Ġà°¤à°° à°Ĺà°Ł
à°Łà°² à°·
Ġà°ħà°¡ à°ķà°¤
à°°à°¨ à°°à°¸
Ġà°ħà°² à°ª
Ġà°ħà°² à°Ĺà°¡
Ġà°ªà°¨ à°®
à°ķà°ª à°¦
.... '
à°¦à°² à°¡
à°ľà°¨ à°Ĺà°£à°®à°¨
à°ªà°² à°¸
à°ĺ à°®à°¨
à°ļà°¡ à°¯
Ġà°¤à°® à°ªà°¨
à°ķà°¨ à°°
à°ķà°¨ à°®
à°¨à°ķ à°Ń
à±ģ" ,
à°²à°® à°ļ
à°°à°² à°¦
Ġà°İà°¦ à°Ł
à°²à°µ à°Łà°®
à°°à°¹ à°£à°®
Ġà°¬à°¯à°Ł à°Ĺ
Ġ3 92
Ġ3 85
à°¯à°¸ à°²à°¹
Ġ4 17
Ġ4 56
Ġ4 32
Ġà°Ĩà°¡ à°ľ
Ġà°Ĩà°¡ à°µà°ļ
à°Łà°® à°®
Ġà°Ĺà°¤ à°ª
à°¹à°° à°ļà°¨à°²
Ġ5 11
Ġ5 500
19 57
à°¡à°ķ à°²à°¨
à°ªà°¦ à°²à°¤
Ġ9 400
à°¿?" "
à±ĩ! ''
à°¤à°ª à°°à°®
à°Ľ à°¤à°ķ
Ġà°ªà°¤ à°¯
Ġà°Ľ à°³
ÂłÂłÂłĠÂłÂłÂłĠ ÂłÂłÂłĠÂłÂłĠÂłĠÂłĠÂłĠÂłĠÂłĠÂłĠÂłĠÂłĠÂłĠÂłĠÂłĠÂłĠÂłĠÂłĠÂłĠÂł
Ġà°ħà°¬ à°²à°¨
à±Ģ! ''
à°¯à°Ĺ à°£
à°Ĥ! ?
Ġà°®à°¤ à°ķà°²
à±ĭ.. "
à°ĥ âĢĻ
Ġà°ħà°¶ à°°
Ġà°°à°® à°£à°²
à°§à°ªà°¡ à°µà°²à°¸
Ġà°¤à°¡ à°ªà°¡
107 102016320
à°¸à°¹ à°Ĺà°®à°¨
Ġ28 7
126 052015
118 112015174
à°°à°³ à°¯à°®
117 0
129 0620174
114 0120157
à°Ĥ- --
à±ģâĢĻâĢĻ -
ÂłÂłÂłĠÂłÂł ĠÂł
Ġà°ĺà°¨ à°¤à°²
120 042017400
Ġ__ ________________________________
à°¦à°ª à°ķà°ª
Ġà°Ńà°Ĺ à°µà°¨
1150 72015
à±Ģ.... ?
à°¨à°ļ à°ª
à°½ à°§à°¨
à°½ à°Ľ
Ġà°¸à°°à°¸ à°°
à°ªà°µà°¨ à°¦
ÂłÂłÂłÂłÂłÂłÂłÂłÂłÂłÂłÂłÂłÂłÂłÂłÂłÂłÂłÂłÂłÂłÂłÂłÂłÂłÂłÂłÂłÂłÂłÂłÂłÂłÂłÂłÂłÂłÂłÂłÂłÂłÂłÂłÂłÂłÂłÂłÂłÂłÂłÂłÂłÂłÂłÂłÂłÂłÂłÂłÂłÂłÂłÂł ÂłÂłÂłÂł
à±įâĢĮ! ..
à°± à°µ
ÂłÂłÂłÂłÂłÂłÂł ĠÂłčĊ
à±į..... ?"
115 11201633
à°¤à°ªà°¡ à°¨
à°¹à°°à°£ à°¨
à°Ĥ..... ?
ÂłÂłÂłÂłÂłÂłÂłÂłÂłÂłÂłÂłÂłÂłÂłÂłÂłÂłÂłÂłÂłÂłÂłÂłÂłÂłÂłÂłÂłÂłÂłÂłÂłÂłÂłÂłÂłÂłÂłÂłÂłÂłÂłÂłÂłÂłÂłÂł ÂłÂłÂłÂłÂłÂłÂł
Ġà°µà°°à°¸ à°¯
Ġs p
Ġà°Ĺà°¡à°ª à°Ĺà°¡à°ªà°ķ
ÂłÂłÂłĠÂłÂłÂłÂłÂłÂłÂłÂłÂłÂłÂłÂłÂłÂłÂłÂłÂłÂłÂłÂłÂłÂłÂłÂłÂłÂłÂłÂłÂłÂłÂłÂł ÂłÂłÂłÂłÂłÂłÂłÂłÂłÂłÂł
is s
ĠÂłĠÂłĠ ÂłÂłĠ
Ġà°¨à°µà°¨ à°µà°²
à±ģà°ģ ,
ÂłÂłĠÂłÂłÂłĠÂłÂłÂłÂłÂłÂłÂłÂłÂłÂłÂłÂłÂłÂłÂłÂł ÂłÂłÂł
Ġm ay
Ġp ower
Ġthe y
ÂłÂłĠÂłÂłÂłĠÂłÂłÂłĠÂłÂłÂłÂłÂłÂłÂłÂłÂłÂłÂłÂłÂłÂłÂłÂłÂłÂłÂłÂłÂłÂłÂłÂłÂłÂłÂłÂłÂłÂłÂłÂł ÂłÂłÂłÂłÂłÂłÂłÂłÂłÂłÂłÂłÂłÂł
à±ĩ...... ...
à±į...... ...
ĠT V
Ġà°¸à°¡ à°²à°²
à°¨à°Ĺà°² à°ª
ÂłÂłÂłÂłÂłÂłÂłÂłÂłÂłÂłÂłÂłÂłÂłÂłÂłÂłÂłÂłÂłÂłÂłÂłÂłÂłÂłÂłÂłÂłÂłÂłÂłÂłÂłÂłÂłÂłÂłÂłÂłÂłÂłÂłÂłÂłÂłÂłÂłÂłÂłÂłÂłÂłÂłÂłÂłÂłÂłÂłÂłÂłÂłÂłÂłÂłÂłÂłÂłÂłÂłÂłÂłÂłÂłÂłÂłÂłÂłÂłÂłÂłÂłÂłÂłÂłÂłÂłÂłÂłÂłÂłÂłÂłÂłÂł ÂłÂłÂł
ÂłÂłÂłÂłÂłÂłÂłÂłÂłÂłÂłÂłÂłÂłÂłÂłÂłÂłÂłÂłÂłÂłÂłÂłÂłÂłÂłÂłÂłÂłÂłÂłÂłÂłÂłÂłÂłÂłÂłÂłÂłÂłÂłÂłÂłÂłÂłÂłÂłÂłÂłÂłÂłÂłÂłÂłÂłÂłÂłÂłÂłÂłÂłÂłÂłÂłÂłÂłÂłÂłÂłÂłÂłÂłÂłÂłÂłÂłÂłÂłÂłÂłÂłÂłÂłÂłÂłÂłÂłÂłÂłÂłÂłÂłÂłÂł ÂłÂłÂłÂłÂłÂłÂłÂłÂł
à°¹à°¹ à°¹
ĠÂłÂłĠÂłĠÂłĠÂłĠÂłĠÂłĠÂłĠÂłĠÂł ĠÂłĠÂł
Ġ1800 425
ĠE x
ÂłÂłÂłĠÂłÂłÂłĠÂłĠÂłĠÂłĠÂłĠÂłĠÂłĠÂłĠÂłĠÂłĠÂłĠÂłĠÂł ĠÂłÂł
Ġe very
ÂłÂłĠÂłÂłÂłĠÂłĠÂłĠÂłĠÂłĠÂłĠÂłĠÂłĠÂłĠÂłĠÂłĠÂłĠÂłĠÂłĠÂłĠÂłĠÂłĠÂłĠÂłĠÂłĠÂł ĠÂłĠÂł
ter n
ig n
ÂłÂłĠÂłÂłÂłĠÂłÂłÂłĠÂłĠÂłĠÂłĠÂłĠÂłĠÂłĠÂłĠÂłĠÂłĠÂłĠÂłĠÂłĠÂłĠÂłĠÂłĠÂłĠÂłĠÂłĠÂłĠÂłĠÂłĠÂłĠÂłĠÂł ĠÂłĠÂł
ÂłÂłÂłĠÂłÂłĠÂłĠÂłĠÂłĠÂłĠÂłĠÂłĠÂłĠÂłĠÂłĠÂłĠÂłĠÂłĠÂłĠÂłĠÂłĠÂłĠÂłĠÂłĠÂłĠÂłĠÂłĠÂłĠÂłĠÂłĠÂłĠÂłĠÂłĠÂł ĠÂłÂł
10212201750 04
11112201750 48
12510201748 10
12510201748 14
10512201750 17
12201201736 02
12203201738 59
1011220151 787
11407201626 57
10811201633 13
11607201626 69
12501201736 14
10710201747 35
1011220174 997
10812201518 15
12703201738 79
10709201746 13
1110720174 376
10510201747 26
11609201746 5
11003201738 04
13103201739 17
11311201749 08
11509201746 46
12602201737 49
12311201749 59
11908201745 38
13112201635 17
10801201735 50
10904201739 57
10206201742 16
11008201629 58
10612201634 25
10806201742 38
1130520174 118
12107201744 16
im p
11409201630 89
1010320162 126
12109201746 69
1310720162 920
10602201620 39
10209201630 45
13112201519 05
11406201625 37
Ġk now
10506201742 25
10506201742 26
10408201629 36
1270220162 11
11411201517 24
11411201517 26
12002201620 89
12807201744 45
1160320159 25
10302201620 26
1110420162 27
12305201624 47
11101201619 45
10810201747 39
1040320158 97
12005201624 35
10602201736 59
1110320159 14
10409201746 01
1240120157 96
1040920174 599
10305201510 57
1310120158 14
11202201736 89
1210320159 38
1070720174 359
11901201735 89
1031220151 797
ĠInd ia
10706201742 34
125012015 799
Ġà°ıà°²à°¨ à°¨à°Ĺ
1300920151 57
126052015 113
1290620174 32
1140120157 76
115072015 1299
11511201633 39
" ......"
, (
A M
M D
f er
h il
i te
i al
o th
o re
Ġ >
Ġ Đ
Ġ our
Ġ under
à°¿ ]
à°¨ à°Ĺà°¤
à°¨ à°¬à°²
à°¨ à°Ĺà°²à°¡
à°° à°ļà°ķ
à°² à°¡à°ķ
à°ķ à°ķà°¨
à°ķ à°¸à°®
à°ķ à°¦à°Ĺ
à°¤ à°°à°®à°¯
à°¤ à°Ĺà°²à°¡
à°¦ à°Ĺà°²à°°
à°¸ à°ĺ
à°¸ à°Ĳà°ª
à°® à°¦à°²
à°® à°®à°Ĺ
à°Ĺ à°¤à°°à°Ĺ
Ġà°ª à°ļà°¨à°®
Ġà°ļ à°¯
Ġà°¨ à°¤à°¨
Ġà°¤ à°ķà°°
Ġà°¤ à°¡à°®
Ġà°° à°®à°ķ
à°· à°µà°²
à±ģà°Ĥ ...
à±Ī âĢĻâĢĻ
à°¶ à°°à°¨
à°¶ à°®à°Ĺ
à°§ à°¡
à°§ à°µà°¤
Ġà°¬ à°Ĺà°°
Ġà°Ĺ à°®à°Ĺ
à°¹ à°µà°¸à°¤
Ġà°ľ à°®à°²
Ġà°² à°¯à°ķ
à°²à°¨ à°Ĺà°°
à°¾à°Ĥ __
à±Ĩà°Ĥ ),
20 25
à°²à°ķ à°²à°ļ
Ġà°¹ à°µà°²
à°¦à°° à°£à°¨
à°ĸ à°®à°¨
Ġà°ªà°° à°®à°¸
à°İ à°İà°¨
à°°à°ķ à°¥à°²
à°ħ à°¡à°Ĺà°¨
Ġà°®à°° à°¯
à°°à°Ń à°¸
à°µà°¡ à°¬
Ġà°Ĩà°° à°²
à°°à°µ à°§à°ķ
Ġà°ªà°¨ à°µ
à°¤à°² à°µà°²
à°¤à°² à°®à°µ
Ġà°ªà°¡ à°µà°ķ
à°¦à°² à°°
Ġà°İà°¨ à°ľ
à°¬à°° à°ª
à°ı à°µà°¨
à°¾? ?"
à°ķà°¨ à°ķà°¦
Ġà°Ĳ à°Īà°ı
à°Ĳ à°Ī
à°²à°® à°¸
Ġà°ķà°° à°ķà°°à°²
Ġà°¸à°¹ à°¨à°®
à±ģ... ,
Ġà°ªà°² à°µà°²
Ġ3 47
Ġà°¨à°¡ à°µà°ķà°ª
à°¯à°¸ à°ĸ
à°¯à°¸ à°®à°¸
Ġ4 02
Ġ4 34
Ġ4 27
Ġ4 47
à°ľà°¯ à°¹
à°¨à°¸ à°¸à°°
Ġà°ıà°¦ à°¡
à°ŀ à°µà°°
à°ŀ à°¸à°®
Ġà°Ĩà°¡ à°Ĺà°²
à°°à°Ĺ à°¦à°¨
Ġà°Ĺà°¡ à°ªà°¬
Ġà°¬à°² à°Ńà°¦
19 37
19 58
19 53
à°¿." "
Ġ10 100
Ġ10 200
Ġà°Ĩà°ª à°¬
à°ī à°Ń
à°ī à°ªà°®
à°ī à°°à°µà°ķ
Ġà°Ĵà°ķà°° à°¯
ÂłÂłÂłĠÂłÂłÂłĠ ÂłÂłÂłĠÂłÂłÂłĠÂłÂłĠÂłĠÂłĠÂłĠÂłĠÂłĠÂłĠÂłĠÂłĠÂłĠÂłĠÂłĠÂłĠÂłĠÂłĠÂłĠÂłĠÂłĠÂłĠÂłĠÂłĠÂłĠÂłĠÂłĠÂłĠÂłĠÂłĠÂłĠÂłĠÂłĠÂłĠÂłĠÂł
Ġà°Ĭà°° à°Łà°Ĺ
Ġà°ħà°¬ à°²à°²
à±Ģ! ....
Ġà°ªà°¥à°ķ à°®à°¨
à°İà°¨ à°¬
à±ĩ... âĢĺ
à°¶à°¨ à°Ń
Ġ18 90
à°ĵ à°İà°²
à±ĭ! ....
à±ĭ! !"
à±Ģ.. :
à±Ģ.. âĢĻ
à°¯à°ķà°° à°®à°¯
116 0520151
à±Ĥ... ?
119 052016243
129 2
129 06201512
à°Ĭ à°¸à°°à°µ
124 062015
..... ?"
1120174 90
Ġà°ªà°²à°ķ à°µ
à°Łà°¤ à°²à°¨
Ġ? ''
1230 220158
1130 62015119
Ġà°¶à°µ à°ªà°°
112 112017490
Ġà°ħà°¸à°¹ à°ľà°¤
à±Ģ.... !"
Ġà°ľà°Ĺ à°¨à°¨
à°ªà°Ĺà°² à°®
à°¨à°ªà°¡ à°¨
à±ĩ..... ?
Ġ36 3
ĠÂłĠÂłĠÂłĠÂłĠÂłĠÂłĠÂłĠÂłĠÂłĠÂłĠÂłĠÂłĠÂłĠÂłĠÂłĠÂłĠÂłĠÂłĠÂłĠÂł ĠÂłĠÂłĠÂłÂł
Ġà°£ à°ķ
à±ĭ' .
com www
à°°à°Ĺà°¬à°¡ à°Ł
ÂłÂłĠÂłĠÂłĠÂłĠÂł ĠÂłĠÂłĠÂłĠÂłÂł
ĠÂłĠÂłĠÂłĠ ÂłÂłÂłÂł
ÂłÂłĠÂłÂłÂłĠÂłÂłÂłÂłÂłÂłÂłÂłÂłÂłÂłÂłÂłÂłÂłÂłÂłÂłÂłÂłÂłÂłÂłÂłÂłÂłÂłÂłÂłÂłÂłÂł ÂłÂł
Ġ98 48
it a
Ġà°ªà°ķà°ªà°ķ à°®à°¨
Ġo ther
ÂłÂłÂłĠÂłÂłÂłĠÂłÂłÂłĠÂłÂłÂłĠ ÂłÂłÂłĠčĊ
à°ıà°Ĳ à°¬
à°Łà°¬à°¯à°² à°¯
Ġà°ıà°ķà°° à°µ
ÂłÂłÂłĠÂłÂłÂłĠÂłĠÂłĠÂłĠÂłĠÂłĠÂłĠÂłĠÂłĠÂłĠÂłĠÂłĠÂłĠÂłĠÂłĠÂłĠÂł ĠÂłĠÂłĠÂłĠÂłĠÂłĠÂłĠÂłĠÂłĠÂłĠÂłĠÂłĠÂłĠÂłĠÂłĠÂłĠÂłĠÂłĠÂłĠÂłĠÂłĠÂłĠÂłĠÂłĠÂł
Ġ___ "
Ġà°Ĺà°ľà°Ĺà°ľ à°®à°¨
ÂłÂłĠÂłÂłÂłĠÂłĠÂłĠÂłĠÂłĠÂłĠÂłĠÂłĠÂłĠÂłĠÂłĠÂłĠÂłĠÂłĠÂłĠÂłĠÂłĠÂłĠÂłĠÂłĠÂł ĠÂłĠÂłĠÂłĠÂłÂł
ÂłÂłĠÂłÂłÂłĠÂłÂłÂłĠÂłÂłÂłÂłÂłÂłÂłÂłÂłÂłÂłÂłÂłÂłÂłÂłÂłÂłÂłÂłÂłÂłÂłÂłÂłÂłÂłÂłÂłÂłÂłÂłÂłÂłÂłÂłÂłÂłÂłÂłÂłÂłÂłÂłÂłÂłÂłÂł ÂłÂłÂłÂłÂłÂłÂłÂłÂł
Ġbe en
12604201623 39
ĠL O
11711201749 30
11511201749 17
11811201749 35
11411201749 10
à±Ģ__ "
11602201737 06
11112201750 45
11304201739 76
12510201748 13
11504201739 88
1160520174 14
12410201748 07
10104201739 18
11610201516 2
1011220151 788
10301201735 30
13108201630 38
10607201626 29
10203201737 68
11312201750 59
12012201634 77
10403201737 77
11703201738 3
11703201738 34
1060720174 358
10309201630 5
à±Ĥ_ "
12802201737 57
ÂłÂłĠÂłÂłÂłĠÂłÂłÂłĠÂłĠÂłĠÂłĠÂłĠÂłĠÂłĠÂłĠÂłĠÂłĠÂłĠÂłĠÂł ĠÂłĠÂłĠÂłĠÂłÂł
1110720174 377
11609201515 27
10503201737 79
10907201626 39
12311201749 58
10911201517 09
1110620162 524
1110620162 525
10904201739 58
10204201739 27
1260920163 150
11211201749 03
12407201513 27
13101201736 36
[...]
