{"<|endoftext|>":0,"<DOCNO>":1,"</DOCNO>":2,"!":3,"\"":4,"#":5,"$":6,"%":7,"&":8,"'":9,"(":10,")":11,"*":12,"+":13,",":14,"-":15,".":16,"/":17,"0":18,"1":19,"2":20,"3":21,"4":22,"5":23,"6":24,"7":25,"8":26,"9":27,":":28,";":29,"<":30,"=":31,">":32,"?":33,"@":34,"A":35,"B":36,"C":37,"D":38,"E":39,"F":40,"G":41,"H":42,"I":43,"J":44,"K":45,"L":46,"M":47,"N":48,"O":49,"P":50,"Q":51,"R":52,"S":53,"T":54,"U":55,"V":56,"W":57,"X":58,"Y":59,"Z":60,"[":61,"\\":62,"]":63,"^":64,"_":65,"`":66,"a":67,"b":68,"c":69,"d":70,"e":71,"f":72,"g":73,"h":74,"i":75,"j":76,"k":77,"l":78,"m":79,"n":80,"o":81,"p":82,"q":83,"r":84,"s":85,"t":86,"u":87,"v":88,"w":89,"x":90,"y":91,"z":92,"{":93,"|":94,"}":95,"~":96,"¡":97,"¢":98,"£":99,"¤":100,"¥":101,"¦":102,"§":103,"¨":104,"©":105,"ª":106,"«":107,"¬":108,"®":109,"¯":110,"°":111,"±":112,"²":113,"³":114,"´":115,"µ":116,"¶":117,"·":118,"¸":119,"¹":120,"º":121,"»":122,"¼":123,"½":124,"¾":125,"¿":126,"À":127,"Á":128,"Â":129,"Ã":130,"Ä":131,"Å":132,"Æ":133,"Ç":134,"È":135,"É":136,"Ê":137,"Ë":138,"Ì":139,"Í":140,"Î":141,"Ï":142,"Ð":143,"Ñ":144,"Ò":145,"Ó":146,"Ô":147,"Õ":148,"Ö":149,"×":150,"Ø":151,"Ù":152,"Ú":153,"Û":154,"Ü":155,"Ý":156,"Þ":157,"ß":158,"à":159,"á":160,"â":161,"ã":162,"ä":163,"å":164,"æ":165,"ç":166,"è":167,"é":168,"ê":169,"ë":170,"ì":171,"í":172,"î":173,"ï":174,"ð":175,"ñ":176,"ò":177,"ó":178,"ô":179,"õ":180,"ö":181,"÷":182,"ø":183,"ù":184,"ú":185,"û":186,"ü":187,"ý":188,"þ":189,"ÿ":190,"Ā":191,"ā":192,"Ă":193,"ă":194,"Ą":195,"ą":196,"Ć":197,"ć":198,"Ĉ":199,"ĉ":200,"Ċ":201,"ċ":202,"Č":203,"č":204,"Ď":205,"ď":206,"Đ":207,"đ":208,"Ē":209,"ē":210,"Ĕ":211,"ĕ":212,"Ė":213,"ė":214,"Ę":215,"ę":216,"Ě":217,"ě":218,"Ĝ":219,"ĝ":220,"Ğ":221,"ğ":222,"Ġ":223,"ġ":224,"Ģ":225,"ģ":226,"Ĥ":227,"ĥ":228,"Ħ":229,"ħ":230,"Ĩ":231,"ĩ":232,"Ī":233,"ī":234,"Ĭ":235,"ĭ":236,"Į":237,"į":238,"İ":239,"ı":240,"Ĳ":241,"ĳ":242,"Ĵ":243,"ĵ":244,"Ķ":245,"ķ":246,"ĸ":247,"Ĺ":248,"ĺ":249,"Ļ":250,"ļ":251,"Ľ":252,"ľ":253,"Ŀ":254,"ŀ":255,"Ł":256,"ł":257,"Ń":258,"à°":259,"à±":260,"Ġà°":261,"à±į":262,"à°¿":263,"à±ģ":264,"à°¾":265,"à°¨":266,"à°°":267,"à°Ĥ":268,"à°²":269,"à°ķ":270,"à°¤":271,"à°¦":272,"Âł":273,"à±ĩ":274,"à±ĭ":275,"à°Ł":276,"à°¯":277,"à°¡":278,"à°ª":279,"à°¸":280,"à°µ":281,"à°®":282,"à°Ĺ":283,"à±Ģ":284,"à°ļ":285,"à±Ĩ":286,"Ġà°ª":287,"ÂłÂł":288,"Ġà°µ":289,"čĊ":290,"Ġà°ķ":291,"Ġà°ħ":292,"âĢ":293,"âĢĮ":294,"Ġà°®":295,"à±įâĢĮ":296,"à°¿à°Ĥ":297,"Ġà°¸":298,"à±Ĥ":299,"Ġà°ļ":300,"Ġà°¨":301,"à±ģ.":302,"Ġà°¤":303,"à°¿.":304,"Ġà°°":305,"à°·":306,"à°ľ":307,"Ġà°Ĩ":308,"à±ģà°Ĥ":309,"à±Ī":310,"à°¬":311,"à°³":312,"à°¶":313,"à°§":314,"à±Ĭ":315,"ÂłÂłÂł":316,"..":317,"Ġà°¬":318,"Ġà°¦":319,"Ġà°ĩ":320,"Ġà°Ĺ":321,"à°£":322,"à°¹":323,"Ġà°İ":324,"Ġà°ľ":325,"Ġà°ī":326,"Ġà°²":327,"Ġà°ħà°¨":328,"à°Ń":329,"à°²à°¨":330,"à°¾à°Ĥ":331,"à±Ĩà°Ĥ":332,"à°¥":333,"ĠÂł":334,"20":335,"à°µà°°":336,"à°²à°ķ":337,"Ġà°Ń":338,"Ġà°¶":339,"Ġà°ı":340,"Ġà°Ī":341,"ÂłÂłÂłĠ":342,"201":343,"ÂłÂłÂłÂł":344,"Ġà°¹":345,"à°¦à°°":346,"NO":347,"DO":348,"DOC":349,"DOCNO":350,"Ġ\"":351,"à°¦à°¨":352,"à±ģ,":353,"ĠÂłĠÂł":354,"à±ĥ":355,"à°¿,":356,"à°ĸ":357,"Ġà°¡":358,"Ġà°Ĵ":359,"à°¯à°¨":360,"à°ķà°°":361,"Ġà°Ł":362,"Ġà°ªà°°":363,"ÂłÂłĠ":364,"à°°à°¤":365,"à°İ":366,"à°°à°®":367,"à°«":368,"Ġà°¯":369,"à°°à°ķ":370,"à°®à°¨":371,"Ġà°«":372,"Ġ1":373,"Ġà°¸à°®":374,"à±ĩà°Ĥ":375,"à±Ĭà°Ĥ":376,"à°¤à°¨":377,"à°Łà°°":378,"à°¯à°ķ":379,"Ġà°¤à°¨":380,"Ġà°Ĵà°ķ":381,"à°ħ":382,"à°Ĩ":383,"Ġà°µà°ļ":384,"...":385,"à°¨à°Ł":386,"à°ªà°¡":387,"à±ĭà°Ĥ":388,"Ġà°®à°°":389,"Ġà°ħà°µ":390,"à°·à°¨":391,"nd":392,"Ġà°īà°¨":393,"te":394,"of":395,"ut":396,"end":397,"xt":398,"</":399,"text":400,"<|":401,"|>":402,"oftext":403,"utf":404,"endoftext":405,"Ġà°ħà°¯":406,"Ġà°ķà°²":407,"Ġà°ľà°°":408,"ÂłÂłÂłÂłÂłÂłÂłÂł":409,"à±Į":410,"Ġà°®à°¨":411,"à°ªà°Ł":412,"à°ķà°¡":413,"âĢĻ":414,"à°¯à°²":415,"âĢĺ":416,"Ġà°Ĩà°®":417,"à°²à°²":418,"Ġà°ĵ":419,"à±įâĢĮ,":420,"à°°à°Ń":421,"à°°à°¸":422,"à°µà°¡":423,"10":424,"à°¤à°°":425,"?\"":426,"à°Ĺà°°":427,"Ġà°ħà°®":428,"ĠÂłĠÂłĠÂłĠÂł":429,"Ġà°Ĩà°°":430,"à°¸à°°":431,"à°ķà°²":432,"Ġà°ķà°¨":433,"Ġà°ħà°§":434,"ĠÂłčĊ":435,"à°µà°²":436,"2017":437,"Ġà°ħà°¦":438,"Ġà°¤à°°":439,"Ġà°¸à°°":440,"à°Łà°²":441,"à°°à°£":442,"Ġà°ħà°°":443,"ÂłÂłĠÂłčĊ":444,"à°²à°¤":445,"Ġà°ħà°¡":446,"2016":447,"à°¯à°®":448,"à°°à°¨":449,"à°°à°ľ":450,"Ġà°ħà°²":451,"à°°à°µ":452,"Ġà°ªà°¨":453,"11":454,"ÂłÂłÂłĠčĊ":455,"Ġà°Ĩà°¯à°¨":456,"à°¾,":457,"à°°à°¯":458,"à°¤à°²":459,"ĠâĢĺ":460,"Ġà°ħà°¤à°¨":461,"Ġ2":462,"2015":463,"12":464,"à°Łà°¨":465,"à°ķà°ª":466,"....":467,"à°Ĥ.":468,"Ġà°ªà°¡":469,"Ġà°ĩà°¦":470,"Ġ(":471,"Ġ0":472,"ĠčĊ":473,"à°¦à°²":474,"Ġà°µà°°":475,"Ġà°ħà°¤":476,"à°µà°¨":477,"Ġà°ħà°ª":478,"à°¯à°µ":479,"Ġà°ħà°ķ":480,"à°ļà°¨":481,"Ġà°µà°¸":482,"Ġà°§":483,"Ġà°ªà°Ł":484,"à°¡à°²":485,"Ġà°īà°¦":486,"à±Ģ,":487,"à°Ĥ,":488,"à°¤à°®":489,"Ġà°İà°ķ":490,"Ġà°¤à°²":491,"à±Ĥ.":492,"Ġà°İà°¨":493,"à°¨à°¨":494,"à°ľà°¨":495,"à°µà°¤":496,"à°¬à°¡":497,"Ġà°ħà°Ń":498,"à°ªà°¤":499,"à°·à°¯":500,"à°ªà°°":501,"Ġà°ĩà°ª":502,"à°¨à°¦":503,"à°Ĺà°²":504,"à°¬à°°":505,"à°Ĩà°°":506,"Ġà°ªà°¦":507,"à°ı":508,"à°ªà°²":509,"à°ĩ":510,"à°¤à°ķ":511,"!\"":512,"à°¾?":513,"à°ĺ":514,"à°·à°£":515,"à°ļà°¡":516,"Ġà°¤à°ª":517,"Ġà°®à°¹":518,"à°²à°ª":519,"à°®à°°":520,"Ġà°·":521,"Ġà°¤à°®":522,"à°°à°ª":523,"Ġà°ĸ":524,"à°¨à°µ":525,"à°²à°¯":526,"Ġà°²à°ķ":527,"à°ķà°¨":528,"Ġà°®à°§":529,"à±į.":530,"Ġà°ıà°°":531,"Ġà°İà°²":532,"Ġ-":533,"Ġà°ħà°¸":534,"à°¯à°Ł":535,"à°İà°¸":536,"30":537,"à°ļà°°":538,"à°¨à°ª":539,"à°¨à°ķ":540,"Ġà°Ĳ":541,"à°·à°²":542,"Ġà°İà°µà°°":543,"Ġà°Ĩà°¦":544,"à±ģ\"":545,"50":546,"à°µà°ļ":547,"Ġà°ļà°°":548,"ÂłÂłÂłÂłÂłÂłÂłÂłÂłÂłÂłÂłÂłÂłÂłÂł":549,"à°¨à°°":550,"Ġà°Ĩà°²":551,"Ġà°¨à°µ":552,"à°°à°¦":553,"à°ł":554,"à±Ģà°Ĥ":555,"Ġà°ķà°³":556,"Ġà°µà°¦":557,"Ġà°¦à°Ĺ":558,"à°¯à°¤":559,"à°¯à°°":560,"à°Ĺà°¤":561,"à°ķà°Ł":562,"à°®à°²":563,"Ġà°ıà°®":564,"Ġà°ĩà°ļ":565,"à°¨à°®":566,"à°¾.":567,"à°¨à°²":568,"à°¯à°¡":569,"à°Ĳ":570,"à±ĩ.":571,"à°¾!":572,"Ġà°Ĩà°¸":573,"Ġà°īà°¤":574,"à°ļà°²":575,"à°¾?\"":576,"à°µà°¹":577,"à°²à°®":578,"Ġà°ĩà°ķ":579,"Ġà°ĩà°²":580,"à°®à°ķ":581,"ĠÂłĠÂłĠÂłĠÂłĠÂłĠÂłĠÂłĠÂł":582,"à°°à°²":583,"à°ªà°ķ":584,"Ġ'":585,"Ġà°¨à°®":586,"à°¡à°¨":587,"à°ľà°°":588,"Ġà°Ĭ":589,"à°°à°¶":590,"Ġà°İà°¦":591,"à°°à°§":592,"Ġà°ıà°¡":593,"Ġà°īà°ª":594,"Ġà°¤à°Ĺ":595,"Ġà°µà°°à°ķ":596,"Ġà°ħà°¤à°¡":597,"à±Īà°Ĥ":598,"Ġà°ĩà°µ":599,"Ġà°ķà°°":600,"à°²à°°":601,"à°¡à°Ĺ":602,"Ġà°Ĩà°¶":603,"à°²à°µ":604,"à±Ĥ,":605,"à°°à°¹":606,"Ġà°¬à°¯à°Ł":607,"Ġà°¸à°¹":608,"Ġà°ķà°®":609,"à°£à°¯":610,"Ġà°¦à°°":611,"Ġ*":612,"à±ĭ,":613,"00":614,"à°¦à°Ł":615,"à°Ī":616,"à°¿)":617,"à±ģ...":618,"Ġà°ªà°²":619,"Ġ3":620,"Ġà°¨à°¡":621,"à°¤à°Ĺ":622,"à±ĩ,":623,"à±ģ.\"":624,"à°¯à°¸":625,"Ġà°ĩà°¨":626,"Ġà°ħà°µà°ķ":627,"à±į,":628,"08":629,"à°Ĺà°¨":630,"Ġ4":631,"07":632,"04":633,"à°®à°¤":634,"Ġà°¸à°®à°¯":635,"09":636,"à°ľà°¯":637,"Ġ:":638,"Ġà°°à°ķ":639,"à°Łà°ķ":640,"à°¨à°¸":641,"à°¿\"":642,"Ġà°ıà°¦":643,"Ġà°Ĩà°Ĺ":644,"à±ģ!":645,"à°ŀ":646,"05":647,"20174":648,"Ġà°Ĩà°¡":649,"Ġà°µà°²":650,"à±ģ..":651,"06":652,"à°¹à°¨":653,"à°¿?":654,"à°²à°Ĺ":655,"à°³à°¨":656,"à°®à°¯":657,"à°ľà°ķ":658,"Ġà°ľà°¨":659,"à°¾..":660,"Ġà°ĺ":661,"à°¡à°°":662,"Ġà°ķà°¦":663,"Ġà°ļà°¦":664,"à°ľà°®":665,"Ġà°¸à°Ń":666,"à°µà°ķ":667,"à°°à°¯à°¤":668,"à°¾à°Ĥ.":669,"Ġà°Ĩà°¨":670,"à°Łà°®":671,"Ġà°Ĺà°¤":672,"03":673,"à°¥à°²":674,"Ġà°®à°¨à°¸":675,"à°ªà°¨":676,"Ġà°ªà°ķ":677,"Ġà°®à°³":678,"à°¿...":679,"Ġà°ķà°Ł":680,"à°¿..":681,"02":682,"01":683,"à°¿!":684,"à°¡à°Ł":685,"Ġà°Ĩà°«":686,"Ġà°Ĩà°§":687,"à°°à°¬":688,"à±ģ?":689,"Ġà°İà°¸":690,"à°¦à°ķ":691,"Ġà°Ńà°°":692,"Ġà°¡à°¬":693,"à°¸à°²":694,"Ġ20":695,"Ġà°¸à°®à°¸":696,"Ġà°ıà°ª":697,"Ġà°İà°®":698,"à°µà°°à°ķ":699,"Ġà°ĩà°¸":700,"à°°à°Ĺ":701,"Ġà°İà°ª":702,"Ġà°ħà°Ł":703,"Ġà°¨à°¨":704,"Ġà°Ńà°¯":705,"à°¿):":706,"à°°à°ľà°²":707,"Ġà°Ĺà°¡":708,"à°®à°µ":709,"à°¢":710,"Ġà°ĩà°Ł":711,"à°µà°Ł":712,"à°³à°²":713,"à°¡à°¦":714,"20162":715,"à°¶à°ķ":716,"à°µà°¸":717,"Ġà°¨à°Ł":718,"Ġ6":719,"Ġà°Ĩà°µ":720,"à°°à°ķà°Ł":721,"à°¯à°µà°¸":722,"Ġà°§à°°":723,"à°¡à°µ":724,"Ġà°¨à°²":725,"20151":726,"à°ļà°ķ":727,"...\"":728,"Ġà°Ĩà°¤":729,"à°¹à°°":730,"Ġà°¤à°¨à°ķ":731,"Ġà°ħà°Ĺ":732,"Ġ5":733,"à°§à°¨":734,"Ġà°Ĺà°¦":735,"Ġà°¬à°²":736,"à°¨à°¤":737,"Ġ19":738,"19":739,"Ġà°¸à°¤":740,"à°¸à°¨":741,"à°Ĺà°³":742,"à±Ĥà°Ĥ":743,"à±ĩ..":744,"à°¡à°ķ":745,"Ġ8":746,"à°¿.\"":747,"à°²à°¡":748,"à°ķà°°à°£":749,"à°ķà°®":750,"à°ªà°¦":751,"Ġ10":752,"à°Ĵ":753,"à°Ĺà°¦":754,"à°®à°¹":755,"ĠĠ":756,"à°ĸà°°":757,"à°Ńà°µ":758,"à±į!":759,"Ġ7":760,"à±Įà°Ĥ":761,"Ġà°¨à°Ĺà°°":762,"à°¬à°Ł":763,"Ġ02":764,"Ġà°ĸà°°":765,"à°¥à°ķ":766,"__":767,"à°¡à°¡":768,"à°Ĺà°®":769,"13":770,"Ġ9":771,"à°²à°¬à°¡":772,"à°¤à°µ":773,"à°¿âĢĻ":774,"Ġ12":775,"à°¿?\"":776,"à°ªà°·":777,"à±ĩ!":778,"à°°à°ļ":779,"16":780,"à°µà°Ĺ":781,"à±ģ?\"":782,"Ġà°İà°¤":783,"à°§à°µ":784,"Ġà°Ĩà°ķ":785,"15":786,"Ġà°¨à°°":787,"à°¨à°Ĺà°°":788,"Ġà°ķà°·":789,"25":790,"à°³à°ķ":791,"Ġà°°à°µ":792,"Ġ15":793,"à°¦à°®":794,"à°¾...":795,"Ġ01":796,"Ġà°¬à°¸":797,"à°¤à°ª":798,"à°Ľ":799,"18":800,"à°£à°²":801,"Ġà°ħà°µà°¸à°°":802,"17":803,"Ġà°ªà°¤":804,"à°Łà°¡":805,"Ġà°Ľ":806,"14":807,"à°µà°¦":808,"à°µà°¯":809,"Ġà°Ĩà°ª":810,"Ġà°¹à°°":811,"Ġà°ĩà°·":812,"à°ī":813,"Ġà°¤à°¯":814,"à°ħà°¦":815,"à±įâĢĮ)":816,"à±įâĢĮâĢĻ":817,"à°¦à°µ":818,"Ġà°¢":819,"Ġà°®à°¦":820,"à°¨à°¯":821,"24":822,"à°Ĺà°¡":823,"Ġà°ħà°®à°²":824,"Ġà°ħà°¸à°²":825,"à°ļà°Ł":826,"à°ªà°¥":827,"Ġà°¸à°¨":828,"Ġà°ļà°Ł":829,"à°İà°²":830,"Ġà°¶à°°":831,"à°®à°¦":832,"à±įâĢĮ.":833,"26":834,"à±ģ-":835,"Ġà°¤à°ķ":836,"à°¨à°Ĺ":837,"à°¸à°®":838,"à°¯à°£":839,"à°ĸà°²":840,"28":841,"à°¦à°¯":842,"à°ķà°¸":843,"Ġà°Ĩà°Ł":844,"à°®à°Ĺ":845,"à°®à°£":846,"Ġà°Ĵà°ķà°°":847,"Ġà°¤à°¦":848,"ÂłÂłÂłĠÂłÂłÂłĠ":849,"à°¯à°ª":850,"à°°à°µà°°":851,"29":852,"34":853,"Ġà°Ĳà°¦":854,"à°¦à°Ĺ":855,"27":856,"Ġà°ķà°¥":857,"ĠâĢĺâĢĺ":858,"35":859,"à°ķà°¤":860,"Ġà°Ĩà°¯":861,"à°¸à°µ":862,"36":863,"à±ģâĢĻ":864,"Ġà°®à°²":865,"Ġà°Ĭà°°":866,"Ġà°ĩà°¤à°°":867,"Ġà°Ĵà°ķà°Ł":868,"Ġà°ħà°¬":869,"à°Ĺà°µ":870,"Ġ11":871,"Ġà°«à°²":872,"37":873,"à°ķà°ķ":874,"Ġà°¬à°¹":875,"à°¿-":876,"à°Łà°ª":877,"Ġà°¦à°ķ":878,"à°ľà°¯à°µ":879,"à±Ĩ.":880,"39":881,"à±Ģ!":882,"à±Ģ.":883,"38":884,"Ġà°Ĩà°¹":885,"Ġà°īà°¦à°¯":886,"à°§à°°":887,"ÂłÂłÂłÂłÂłÂłÂłÂłÂłÂłÂłÂłÂłÂłÂłÂłÂłÂłÂłÂłÂłÂłÂłÂłÂłÂłÂłÂłÂłÂłÂłÂł":888,"à°ļà°¯":889,"à°µà°°à°£":890,"Ġà°ªà°¥à°ķ":891,"à°İà°¨":892,"à±ĩ...":893,"à°«à°°":894,"à°¾!\"":895,"à°¡à°¤":896,"à°¡à°®":897,"à°¹à°¸":898,"à°ħà°¨":899,"à°¶à°¨":900,"à°ıà°®":901,"à°µà°²à°¸":902,"Ġ00":903,"Ġà°²à°Ń":904,"22":905,"Ġ18":906,"Ġà°ĩà°¬":907,"Ġà°¤à°¨à°¨":908,"à°¤à°¯":909,"Ġà°¶à°ķ":910,"à°·à°ķ":911,"à±ĭ.":912,"à°¯à°¦à°°":913,"Ġà°İà°Ĺ":914,"Ġà°¬à°¯à°Łà°ķ":915,"Ġ14":916,"Ġ16":917,"à°ħà°µ":918,"à°Ĥ..":919,"Ġà°İà°°":920,"à°ĵ":921,"à°§à°®":922,"à°¯à°¦":923,"à°°à°Ł":924,"Ġà°ļà°²":925,"Ġà°¤à°°à°²":926,"23":927,"à°¯à°Ĺ":928,"Ġà°Ĵà°ª":929,"Ġà°°à°¦":930,"Ġà°Ĺà°®à°¨":931,"Ġà°ķà°¡":932,"Ġà°ļà°ķ":933,"Ġà°Ĺà°°":934,"à±ģ:":935,"Ġà°¸à°¦":936,"Ġà°ıà°³":937,"à±ģ....":938,"à°ħà°¯":939,"à±į\"":940,"Ġ03":941,"21":942,"à°¾\"":943,"à°Łà°²à°ķ":944,"Ġà°¨à°·":945,"à°·à°®":946,"Ġ17":947,"Ġ23":948,"à°®à°®":949,"Ġ30":950,"à°Ĥ!":951,"Ġà°ľà°²":952,"à°£à°®":953,"à°¬à°²":954,"à°ķà°Ĺ":955,"Ġ13":956,"Ġà°īà°ªà°¯":957,"à±ĥà°Ĥ":958,"ĠÂłĠÂłĠÂłĠÂłĠÂłĠÂłĠÂłĠÂłĠÂłĠÂłĠÂłĠÂłĠÂłĠÂłĠÂłĠÂł":959,"à°®à°¹à°¤":960,"à°ªà°Ĺ":961,"à°°à°¦à°°":962,"à±įâĢĮ:":963,"à°¶à°²":964,"Ġà°ħà°µà°¸":965,"à°²à°¬":966,"Ġà°¹à°¤":967,"Ġà°®à°¤":968,"Ġ201":969,"Ġà°Ĺà°Ł":970,"à°Ĺà°³à°µ":971,"à°ļà°¨à°²":972,"à°ĩà°¦":973,"Ġà°ĩà°°":974,"à°ľà°²":975,"....\"":976,"à°¦à°¤":977,"Ġà°¬à°°":978,"à°ļà°Ĺ":979,"à±įâĢĮ-":980,"Ġà°¥":981,"Ġà°¸à°®à°°":982,"Ġ!":983,"Ġà°İà°Ł":984,"à°¨à°¡":985,"à°Ĺà°Ł":986,"Ġà°¶à°¨":987,"à±ĭ..":988,"à°ķà°¯":989,"à°µà°®":990,"Ġà°Ńà°¦":991,"à°·à°¨à°°":992,"à°ħà°²":993,"Ġà°ıà°ķ":994,"à°ħà°¤à°¨":995,"45":996,"à°ĥ":997,"Ġà°ĺà°Łà°¨":998,"à°§à°¤":999,"à°¯à°ªà°¡":1000,"Ġà°µà°¯à°¸":1001,"à°ħà°®":1002,"à±į...":1003,"48":1004,"Ġà°¬à°Ł":1005,"à°µà°°à°²":1006,"à°Ĵà°ķ":1007,"Ġà°ħà°®à°°":1008,"20163":1009,"à°¶à°®":1010,"Ġà°ľà°Ĺà°¨":1011,"),":1012,"Ġà°ħà°¶":1013,"49":1014,"Ġà°ķà°¸":1015,"Ġ50":1016,"à°Ĩà°®":1017,"Ġà°¬à°¡":1018,"à°ĺà°Łà°¨":1019,"Ġà°ħà°µà°¸à°°à°®":1020,"à°¹à°¦":1021,"56":1022,"47":1023,"à°Ĺà°°à°ķ":1024,"Ġà°¬à°¦":1025,"46":1026,"à±Ĥ!":1027,"Ġà°¸à°²":1028,"Ġà°ªà°¦à°µ":1029,"Ġà°®à°°à°£":1030,"à°ªà°®":1031,"Ġà°Ńà°ķ":1032,"à°¦à°¡":1033,"à±ģ!\"":1034,"à±ĭ!":1035,"58":1036,"Ġà°ľà°¯":1037,"Ġà°¶à°¤":1038,"Ġà°¬à°¯à°²":1039,"31":1040,"Ġà°ķà°ª":1041,"57":1042,"Ġà°īà°Ĺ":1043,"59":1044,"Ġà°°à°®":1045,"à°²à°¸":1046,"à±Ĥ..":1047,"Ġà°Ńà°µà°¨":1048,"40":1049,"Ġà°İà°ķà°°":1050,"à°¤à°¤":1051,"à°¿:":1052,"à°¿....":1053,"ĠÂłÂł":1054,"Ġà°Ńà°µ":1055,"Ġà°ĩà°³":1056,"à°¥à°®":1057,"à°ľà°§":1058,"Ġà°ķà°µ":1059,"à°²à°¦":1060,"à°¡à°ª":1061,"Ġà°¸à°¬":1062,"à°Łà°ªà°¡":1063,"à°³à°¤":1064,"à°®à°¡":1065,"Ġà°ľà°Ł":1066,"Ġà°İà°¯":1067,"Ġ22":1068,"Ġà°ļà°¨":1069,"à°¤à°¸":1070,"à°¯à°µà°¹":1071,"à±Ģ:":1072,"à°¸à°Ĺ":1073,"à°¯à°®à°¨":1074,"à°¤à°Ł":1075,"Ġà°¬à°¤":1076,"à°ķà°¦":1077,"55":1078,"à°®à°¸":1079,"à°Ĥ:":1080,"à°§à°ªà°¡":1081,"Ġà°Ĭà°¹":1082,"à°¤à°µà°°à°ķ":1083,"Ġà°ľà°µ":1084,"Ġ21":1085,"âĢĻâĢĻ":1086,"à°Ĥ...":1087,"44":1088,"à°°à°ķà°Łà°¨":1089,"à°Ĺà°¸":1090,"à°łà°¶":1091,"Ġà°µà°¡":1092,"......":1093,"à±įâĢĮ..":1094,"Ġà°ªà°¶":1095,"à±Ģ..":1096,"Ġà°Ĺà°²":1097,"à°Łà°¯":1098,"à°¯à°µà°¹à°°":1099,"à±į:":1100,"à°§à°ķ":1101,"Ġà°µà°¨":1102,"32":1103,"à°ĩà°ª":1104,"à°²à°ľ":1105,"à±į'":1106,"à°ħà°ª":1107,"à±ĭ...":1108,"Ġà°¤à°®à°ķ":1109,"Ġà°¨à°ļ":1110,"Ġ25":1111,"Ġà°Ĩà°¯à°¨à°ķ":1112,"33":1113,"à°¹à°²":1114,"Ġà°īà°®":1115,"à°¿!\"":1116,"à±į!\"":1117,"Ġà°ľà°°à°Ĺ":1118,"à°ķà°µ":1119,"54":1120,"Ġà°Ĩà°Ĺà°¸":1121,"Ġà°¦à°³":1122,"Ġà°ªà°¸":1123,"Ġà°īà°²":1124,"Ġà°®à°¨à°ķ":1125,"Ġà°¤à°¡":1126,"à°·à°°":1127,"à°¯à°ķà°°":1128,"Ġà°Ĩà°¸à°ķ":1129,"à°°à°ľà°²à°ķ":1130,"à°İà°«":1131,"Ġ,":1132,"Ġà°ĵà°Ł":1133,"à°ļà°Ĺà°²":1134,"à°°à°°":1135,"à°Łà°£":1136,"à±į..":1137,"42":1138,"Ġà°¹à°ķ":1139,"108":1140,"Ġà°İà°¡":1141,"à°¤à°¦":1142,"Ġà°ħà°²à°µ":1143,"Ġà°ĵà°µà°°":1144,"Ġà°ĵà°ª":1145,"à±ģ)":1146,"à°·à°¨à°²":1147,"à°Łà°Ĺ":1148,"à°£à°ķ":1149,"107":1150,"à°¾....":1151,"52":1152,"Ġà°Ĳà°Ł":1153,"Ġà°¨à°ķ":1154,"Ġà°Īà°¸":1155,"à°¸à°Ń":1156,"43":1157,"à°¯à°¬":1158,"Ġà°ķà°¨à°¬à°¡":1159,"Ġà°Ĺà°µà°°":1160,"109":1161,"à°¥à°¨":1162,"à±ģ'":1163,"à°ľà°ķà°µà°°":1164,"à±ĩ\"":1165,"110":1166,"à°¯à°²à°ķ":1167,"à°ĤâĢĻ":1168,"à°¡à°¬":1169,"Ġà°Ĭà°ª":1170,"Ġ24":1171,"53":1172,"Ġà°¸à°µ":1173,"à°¡à°¯":1174,"Ġà°ļà°ª":1175,"Ġà°¬à°¯à°Łà°ªà°¡":1176,"Ġà°Ĩà°²à°¯":1177,"à°¶à°ª":1178,"à°¬à°¤":1179,"à°İà°µà°°":1180,"à°§à°¨à°²":1181,"Ġà°Ńà°¯à°ªà°¡":1182,"Ġà°¯à°ľà°®":1183,"à°°à°¸à°¨":1184,"à°Ńà°®":1185,"à°¸à°¹":1186,"106":1187,"à°¯à°²à°¨":1188,"à±Ģ...":1189,"Ġà°¦à°°à°ĸ":1190,"à°¡à°¦à°¨":1191,"à°Łà°µ":1192,"à°¹à°®":1193,"Ġà°§à°¨":1194,"Ġà°Ķ":1195,"51":1196,"Ġà°īà°°":1197,"à±Ģ)":1198,"ÂłÂłÂłÂłÂł":1199,"41":1200,"à°Ĺà°ľ":1201,"Ġà°¯à°ľ":1202,"à±Ģ-":1203,"104":1204,"Ġà°¸à°ķ":1205,"Ġà°«à°°":1206,"à°Ńà°ľà°¨":1207,"à°¿'":1208,"à°¸à°ķ":1209,"Ġà°Ĺà°£":1210,"ĠĠĠĠ":1211,"à°Ĺà°£":1212,"à°¾-":1213,"à°¯à°Ĺà°²":1214,"Ġà°µà°¹":1215,"à°¦à°¨à°²":1216,"ÂłčĊ":1217,"Ġà°¤à°Ł":1218,"Ġà°ħà°¦à°¨":1219,"à°µà°ª":1220,"à°µà°µ":1221,"Ġà°ªà°µà°¨":1222,"Ġà°¨à°¦":1223,"Ġà°Ĵà°¤":1224,"Ġà°ľà°¨à°µà°°":1225,"à°¦à°ľ":1226,"à°¤à°¡":1227,"Ġà°¸à°²à°¹":1228,"Ġà°Ĩà°ªà°°":1229,"Ġà°®à°®":1230,"Ġà°ľà°¡":1231,"Ġà°®à°Ĺ":1232,"Ġà°Ĩà°ļ":1233,"Ġà°¶à°¶":1234,"à±ģ.....":1235,"à°·à°¤":1236,"000":1237,"à°Łà°¬":1238,"à°°à°£à°ķ":1239,"à°µà°°à°°":1240,"Ġà°ħà°ľ":1241,"à°¹à°¤":1242,"Ġà°¦à°¶":1243,"à°¯à°ľ":1244,"à°°à°ªà°¤":1245,"Ġà°ıà°Ł":1246,"Ġà°¸à°°à°«à°°":1247,"Ġà°ķà°¬":1248,"à°¹à°ķ":1249,"à°µà°°à°Ĺ":1250,"Ġà°Ĩà°¡à°ª":1251,"Ġ28":1252,"116":1253,"à±į....":1254,"à°¡à°¤à°¨":1255,"à±į-":1256,"Ġà°ħà°µà°Ĺ":1257,"99":1258,"à°ľà°¸":1259,"à°ļà°ķà°ª":1260,"à±Ĥ...":1261,"Ġà°Ĩà°ķà°°":1262,"à±į?\"":1263,"Ġ.":1264,"500":1265,"à°ªà°£":1266,"Ġà°ļà°ļ":1267,"Ġà°ľà°¸":1268,"Ġà°ħà°£":1269,"126":1270,"à°²à°²à°ķ":1271,"127":1272,"118":1273,"à°¶à°µ":1274,"à°µà°¡à°®":1275,"119":1276,"à°Ĺà°¬":1277,"Ġà°¸à°ļ":1278,"à°°à°³":1279,"128":1280,"ÂłÂłÂłĠÂłÂłÂł":1281,"à°ķà°³":1282,"Ġà°ªà°ļ":1283,"117":1284,"Ġà°Ĩà°²à°¸":1285,"à°ħà°°":1286,"à°ģ":1287,"Ġà°ıà°µ":1288,"Ġ27":1289,"à°¯à°¶":1290,"à°ħà°ķ":1291,"à°°à°¡":1292,"Ġà°Ĩà°¦à°°":1293,"Ġà°°à°¹à°¸":1294,"à°ªà°£à°²":1295,"Ġà°ĵà°¡":1296,"Ġà°¸à°®à°ķ":1297,"Ġà°¨à°Ĺà°¦":1298,"à°ĩà°ķ":1299,"à°¾à±į":1300,"à°Ĥ?":1301,"Ġ26":1302,"Ġà°ľà°®":1303,"à°¯à°¤à°²":1304,"129":1305,"à±ĩ....":1306,"Ġà°¸à°¦à°¸":1307,"à°ļà°µà°ļ":1308,"à°³à°®":1309,"à°¦à°¸":1310,"à°¯à°Łà°¨":1311,"à°¶à°ķà°¤":1312,"à°·à°¯à°®":1313,"à°¾âĢĻ":1314,"Ġà°Ĺà°¨":1315,"à°ļà°¬":1316,"à°Ĭ":1317,"Ġà°īà°ļ":1318,"Ġà°Ĵà°ķà°¸":1319,"Ġà°¸à°¹à°ķ":1320,"Ġà°ħà°ĸ":1321,"124":1322,"Ġà°ķà°¤":1323,"Ġà°®à°Ł":1324,"à°¶à°¬":1325,"à°¡à°¸":1326,"à°İà°ķ":1327,"à°Ĥ\"":1328,"ÂłÂłÂłÂłÂłÂłÂłÂłÂłÂłÂłÂł":1329,"Ġà°ķà°¦à°²":1330,"Ġà°ıà°¸":1331,"Ġà°Īà°¨":1332,"Ġà°¹à°¨":1333,"114":1334,"à°ħà°®à°°":1335,"à±Ī,":1336,"Ġà°Ĵà°ķà°µ":1337,"à°®à°Ł":1338,"Ġà°Ĵà°¡":1339,"à±įâĢĮ(":1340,"Ġà°¤à°°à°Ĺà°¤":1341,"à°°à°ªà°¡":1342,"à°ķà°¡à°ķ":1343,"à°Ĥ-":1344,"Ġà°°à°ļà°¯":1345,"130":1346,"à°¤à°²à°ķ":1347,"Ġà°§à°°à°²":1348,"Ġà°°à°¹à°¦":1349,"à°®à°§":1350,"Ġà°¶à°¬":1351,"à±Ĥ?\"":1352,"à°Ĺà°ª":1353,"à°¿âĢĻâĢĻ":1354,"76":1355,"à°°à°®à°²":1356,"Ġ29":1357,"Ġà°ħà°¹":1358,"Ġà°ĭ":1359,"à±ĩ-":1360,"Ġà°¸à°Ĺ":1361,"à°¦à°°à°Ĺ":1362,".....":1363,"à°ĸà°ªà°Ł":1364,"à°«à°²":1365,"ĠÂłĠÂłĠÂł":1366,"à°Ńà°ķ":1367,"à°ķà°²à°¨":1368,"Ġ40":1369,"Ġà°¦à°¶à°²":1370,"Ġà°°à°ĺ":1371,"à°·à°¸":1372,"à°Ńà°°":1373,"à°ļà°²à°¨":1374,"à°¬à°¦":1375,"Ġà°ľà°¨à°°":1376,"à°¸à°ª":1377,"Ġà°¬à°²à°µ":1378,"à°²à°µà°°":1379,"à±ģ...\"":1380,"ÂłĠÂłčĊ":1381,"Ġà°Ĺà°¬":1382,"Ġà°ıà°ľ":1383,"à°Łà°Ł":1384,"Ġà°¸à°Ńà°²":1385,"à°®à°ļ":1386,"Ġà°ħà°ļ":1387,"à°¯à°¯":1388,"à°°à°¥":1389,"à°¸à°¤":1390,"Ġà°ķà°ł":1391,"à°¨à°¦à°¨":1392,"Ġà°¸à°¹à°ķà°°":1393,"à°ªà°²à°ķ":1394,"Ġ....":1395,"Ġà°°à°®à°£":1396,"à°²à°Ł":1397,"86":1398,"ÂłÂłÂłÂłĠ":1399,"1120174":1400,"à±ģâĢĻâĢĻ":1401,"Ġà°ĩà°°à°µ":1402,"Ġà°ķà°¥à°¨":1403,"à°µà°¤à°²":1404,"à°°à°¤à°¦":1405,"Ġà°®à°¸":1406,"ÂłÂłÂłĠÂłÂł":1407,"Ġà°ħà°¡à°µ":1408,"à°°à°®à°£":1409,"à°µà°²à°¨":1410,"à°°à°£à°®":1411,"à°¯à°¯à°¨":1412,"à°ķà°°à°®":1413,"à°Ńà°¯":1414,"à°ĸà°®":1415,"Ġà°ĺà°¨":1416,"Ġà°ªà°°à°®":1417,"Ġà°ªà°²à°ķ":1418,"à°µà°£":1419,"à±Ģ!\"":1420,"Ġà°¸à°¸":1421,"à°¿.....":1422,"Ġà°İà°«":1423,"à°ļà°¦":1424,"à°ĩà°²":1425,"Ġà°ªà°¬":1426,"96":1427,"à°²à°Ń":1428,"à±ĭ\"":1429,"Ġà°ķà°®à°²":1430,"Ġ100":1431,"120":1432,"à±ģà°ĥ":1433,"201516":1434,"77":1435,"à±ĩ!\"":1436,"Ġà°ªà°Ĺ":1437,"à°¦à°²à°ķ":1438,"à±Ģ\"":1439,"à°¾:":1440,"à°¨à°¹":1441,"Ġà°¦à°¯":1442,"Ġà°¨à°°à°¸":1443,"à°°à°Ĺà°¡":1444,"88":1445,"à°¯à°§":1446,"à±ĭ-":1447,"Ġà°µà°£":1448,"122017":1449,"à°Ńà°¦":1450,"à°Łà°²à°¨":1451,"Ġ__":1452,"à°¬à°¨":1453,"à°·à°ª":1454,"à°¦à°ª":1455,"Ġà°«à°¸":1456,"à°¶à°Ĺ":1457,"Ġà°¤à°°à°¹":1458,"Ġ31":1459,"à°Łà°¤":1460,"à°¡à°µà°ļ":1461,"ĠÂłĠÂłĠÂłĠÂłĠÂłĠÂłĠÂłĠÂłĠÂłĠÂłĠÂłĠÂł":1462,"à°Ĺà°°à°Ĺ":1463,"1020174":1464,"Ġà°ħà°µà°®":1465,"à°ķà°²à°ķ":1466,"à°ķà°°à°ķ":1467,"à°ļà°¡à°®":1468,"Ġ09":1469,"Ġà°ľà°¨à°°à°²":1470,"à°ļà°µ":1471,"à°¦à°²à°¯":1472,"à°®à°³":1473,"à°²à°ļ":1474,"Ġà°Ĩà°«à°°":1475,"Ġà°°à°¸":1476,"Ġà°¬à°²à°¹":1477,"à°®à°¶":1478,"Ġà°ľà°°à°Ĺà°¨":1479,"Ġà°ħà°¬à°¦":1480,"1120163":1481,"Ġà°Ĩà°ĸà°°":1482,"Ġà°ķà°²à°¸":1483,"Ġà°Ĳà°¸":1484,"à°Ĺà°ķ":1485,"--":1486,"à°¾à°Ĥ\"":1487,"98":1488,"Ġà°Īà°µ":1489,"à°µà°¸à°°":1490,"Ġà°ĩà°®":1491,"à°ªà°µ":1492,"Ġà°īà°ķ":1493,"à±Ĥ!\"":1494,"Ġà°ħà°°à°µ":1495,"à°ļà°®":1496,"Ġà°¬à°²à°®":1497,"à°¶à°°":1498,"à±Ĥ?":1499,"à°¯à°ķà°ª":1500,"à°Ĥ....":1501,"à°ªà°ļ":1502,"201634":1503,"Ġ?":1504,"Ġà°¤à°²à°ª":1505,"à°¤à°²à°¨":1506,"78":1507,"à±įâĢĻ":1508,"Ġà°°à°¹":1509,"à°¬à°¸":1510,"à±įâĢĮâĢĮ":1511,"Ġà°¸à°¹à°ľ":1512,"Ġà°ªà°µà°°":1513,"Ġ60":1514,"à°Ĩà°¯à°¨":1515,"____":1516,"à°ªà°¡à°¤":1517,"à°¤à°®à°µ":1518,"à°°à°®à°¤":1519,"Ġà°ħà°¨à°¡":1520,"Ġà°īà°·":1521,"à°§à°²":1522,"Ġà°¨à°¯":1523,"1230":1524,"à°ıà°¸":1525,"à°Ĺà°¯":1526,"à°ļà°¬à°¡":1527,"1250":1528,"1130":1529,"à±ģ....\"":1530,"à°ŀà°ª":1531,"à°®à°ª":1532,"Ġà°¶à°µ":1533,"201630":1534,"à°Ĥ)":1535,"à°³à°¯":1536,"Ġà°¹à°¡":1537,"Ġà°Ĺà°ľ":1538,"à±ĭ?":1539,"à°¯à°ķà°¤":1540,"Ġ2014":1541,"à°¤à°ľ":1542,"à°°à°£à°²":1543,"à°¾)":1544,"à°¶à°¯":1545,"Ġà°ħà°µà°¤à°²":1546,"à°¦à°ªà°¡":1547,"Ġà°İà°²à°ķ":1548,"à°¥à°°":1549,"à°µà°³":1550,"1220151":1551,"Ġà°¬à°ķ":1552,"à°µà°¹à°£":1553,"Ġà°ĸà°®":1554,"Ġ04":1555,"Ġà°ķà°²à°²":1556,"à±ĢâĢĻ":1557,"201746":1558,"à±ĭ....":1559,"Ġ2015":1560,"Ġà°Ńà°Ĺ":1561,"à°¤à°®à°¯":1562,"Ġà°¹à°µ":1563,"1030":1564,"Ġà°ľà°ª":1565,"ÂłÂłÂłĠÂłÂłÂłĠÂłÂłÂłÂłÂłÂłÂłÂłÂłÂłÂłÂłÂłÂłÂłÂł":1566,"Ġà°ħà°¦à°¨à°ª":1567,"Ġà°ł":1568,"Ġà°²à°¬":1569,"à°¸à°Ł":1570,"à°¿...\"":1571,"105":1572,"201737":1573,"Ġà°¤à°®à°¨":1574,"1150":1575,"Ġ...":1576,"Ġà°Ĩà°ķà°Ł":1577,"1050":1578,"à°ħà°¬":1579,"à°·à°£à°²":1580,"1020163":1581,"à°Ńà°²":1582,"Ġà°ķà°¥à°²":1583,"Ġà°°à°ķà°°à°ķ":1584,"Ġà°ħà°°à°Ĺ":1585,"à°ıà°ª":1586,"112":1587,"à°¾'":1588,"Ġà°Īà°®":1589,"à°¯à°µà°ļ":1590,"à°°à°ķà°Łà°¨à°²":1591,"à°¸à°¨à°¸":1592,"201736":1593,"Ġà°Ĩà°¡à°¦":1594,"à°ļà°°à°£":1595,"Ġ|":1596,"à°£à°¨":1597,"Ġà°Ĳà°ª":1598,"à°Ľà°¨":1599,"à°ªà°ª":1600,"à°ľà°°à°¯":1601,"à°ªà°¯":1602,"à±ĩ?\"":1603,"à°ªà°°à°ļ":1604,"Ġ07":1605,"à°ªà°¬":1606,"Ġà°ķà°ķ":1607,"à°¯à°¤à°¨":1608,"Ġà°ķà°¨à°ªà°¡":1609,"Ġà°Ĩà°¡à°µ":1610,"Ġ2016":1611,"à±ģ(":1612,"à°·à°§":1613,"Ġà°µà°²à°¨":1614,"à°Ĳà°¸":1615,"à°ķà°¬":1616,"ÂłÂłĠÂłÂłÂłĠ":1617,"Ġà°Ńà°Ĺà°µ":1618,"à°°à°¤à°²":1619,"à°Ĥ?\"":1620,"Ġà°ıà°¨":1621,"à°¯à°²à°ª":1622,"1220":1623,"201739":1624,"à°ħà°¸à°²":1625,"Ġà°Ĩà°Łà°Ĺ":1626,"1020":1627,"à°ŀà°®":1628,"Ġà°¤à°µ":1629,"âĢĵ":1630,"à°§à°Ĺ":1631,"à°·à°£à°ķ":1632,".\"":1633,"Ġà°¸à°ª":1634,"à°¾.\"":1635,"97":1636,"à°¯à°ķà°²":1637,"Ġà°ħà°¸à°¹":1638,"Ġà°¸à°°à°¦":1639,"103":1640,"Ġà°°à°¨":1641,"Ġà°¦à°¤":1642,"à°Łà°¸":1643,"à±į?":1644,"0420162":1645,"à°µà°¶":1646,"201626":1647,"à°·à°£à°®":1648,"Ġà°ªà°³":1649,"Ġà°µà°¨à°°":1650,"à°°à°ľà°²à°¨":1651,"Ġà°ªà°µ":1652,"Ġà°ĩà°µà°¨":1653,"à±Ģ....":1654,"Ġà°°à°ľà°¨":1655,"Ġà°µà°°à°²":1656,"Ġà°°à°·":1657,"Ġà°®à°Ĺà°µ":1658,"Ġà°·à°°":1659,"1120":1660,"Ġà°µà°¸à°¤":1661,"Ġà°¨à°®à°¸":1662,"à°²à°ķà°²":1663,"Ġà°Ĵà°³":1664,"à°ķà°¶":1665,"à°ĸà°ķ":1666,"Ġà°ķà°¶":1667,"à±ĩ?":1668,"12201634":1669,"Ġà°ħà°Łà°µ":1670,"à°ıà°¦":1671,"à±į.\"":1672,"à°¾.....":1673,"à°¯à°®à°¯":1674,"Ġà°¹à°ł":1675,"Ġà°Łà°¨":1676,"à°·à°²à°ķ":1677,"à±Ģà±įâĢĮ":1678,"à°¯à°ļ":1679,"Ġà°ĺà°Łà°¨à°²":1680,"Ġà°²à°²":1681,"à°¨à°ļ":1682,"Ġà°Ĭà°³":1683,"à°ªà°¸":1684,"Ġà°ıà°®à°¨":1685,"Ġà°ħà°ªà°°":1686,"60":1687,"à±Ĥ\"":1688,"à°²à°²à°¨":1689,"à°§à°®à°¯":1690,"à°½":1691,"à°¨à°¬":1692,"Ġà°¸à°µà°°":1693,"201735":1694,"Ġà°®à°¹à°¬":1695,"à±ĭ!\"":1696,"Ġà°µà°ķ":1697,"à°¬à°¯":1698,"à°Ĺà°ªà°¡":1699,"à°ľà°¶":1700,"Ġà°Ĺà°¬à°Ĺà°¬":1701,"à±Ģ?":1702,"Ġà°īà°¸":1703,"Ġà°®à°£":1704,"à°¤à°°à°ª":1705,"à±Ģ?\"":1706,"Ġà°¬à°¯":1707,"Ġ08":1708,"à°§à°®à°µ":1709,"Ġà°Ĩà°µà°°":1710,"à°«à°²à°®":1711,"Ġ06":1712,"Ġà°¸à°°à°¸":1713,"Ġà°ªà°²à°ķà°°":1714,"Ġà°²à°µ":1715,"Ġà°¹à°¸":1716,"Ġà°ħà°²à°°":1717,"à±Ī:":1718,"Ġà°¤à°°à°«":1719,"20158":1720,"Ġà°Īà°°":1721,"Ġà°¤à°¨à°²":1722,"Ġà°ħà°«":1723,"201738":1724,"à°Ĥ'":1725,"1120151":1726,"102":1727,"Ġà°¤à°°à°ļ":1728,"à°Łà°¦":1729,"à°¸à°¯":1730,"à°ªà°ľ":1731,"Ġà°Ĩà°ķà°²":1732,"70":1733,"à°ļà°¸":1734,"10201516":1735,"à°²à°ªà°²":1736,"Ġà°Īà°ľ":1737,"à°ĸà°¨":1738,"75":1739,"à°ĩà°¨":1740,"à°¯à°¡à°®":1741,"à°¬à°ķ":1742,"Ġà°Ńà°°à°¤":1743,"âĢĺâĢĺ":1744,"à±Ĥ-":1745,"79":1746,"à°³à°¦":1747,"201619":1748,"12201750":1749,"à°¾...\"":1750,"Ġà°®à°¨à°®":1751,"à°ħà°¤":1752,"Ġà°ľà°Ĺ":1753,"Ġà°ľà°¬":1754,"à°°à°¤à°ķ":1755,"Ġà°ħà°¨à°µà°¸à°°":1756,"Ġà°Ĵà°ķà°ª":1757,"à°¿....\"":1758,"à°¦à°¦":1759,"à°Ĳà°Ł":1760,"80":1761,"à°ªà°µà°¨":1762,"Ġà°¸à°®à°¨":1763,"à°¡à°µà°²":1764,"à°³à°¡":1765,"à°¯à°¨à°Ĺà°°":1766,"Ġà°Ĳà°ķ":1767,"Ġà°ħà°¡à°Ĺ":1768,"Ġà°ĵà°Łà°®":1769,"à°¯à°²à°¸":1770,"0720174":1771,"Ġà°Īà°¶":1772,"à°İà°®":1773,"Ġà°¸à°¦à°°":1774,"à°¤à°ķà°¨":1775,"Ġ70":1776,"12201518":1777,"201620":1778,"à°ĺà°Łà°¨à°²":1779,"à°Ĩà°¦":1780,"Ġà°ĵà°Łà°°":1781,"0920151":1782,"à°µà°Ń":1783,"à°°à°Łà°°":1784,"à°ķà°°à°£à°²":1785,"0620174":1786,"Ġà°İà°µ":1787,"Ġ80":1788,"à±Ĩà±įâĢĮ":1789,"Ġà°¨à°Ĺ":1790,"à°®à°ľ":1791,"à°Ńà°¨":1792,"à°°à°Ĺà°¤":1793,"Ġà°Ĳà°¡":1794,"Ġà°ķà°ļ":1795,"Ġà°¤à°¨à°¤":1796,"à°²à°ķà°®":1797,"ÂłÂłÂłÂłÂłÂłÂłÂłÂłÂłÂłÂłÂłÂłÂłÂłÂłÂłÂłÂłÂłÂłÂłÂłÂłÂłÂłÂłÂłÂłÂłÂłÂłÂłÂłÂłÂłÂłÂłÂłÂłÂłÂłÂłÂłÂłÂłÂłÂłÂłÂłÂłÂłÂłÂłÂłÂłÂłÂłÂłÂłÂłÂłÂł":1798,"Ġà°¤à°°à°ª":1799,"Ġà°µà°°à°¦":1800,"Ġà°ªà°¡à°ķ":1801,"à°¿(":1802,"à°¯à°¬à°¡":1803,"Ġà°ķà°µà°°":1804,"Ġà°°à°ļ":1805,"0820174":1806,"0520162":1807,"0520174":1808,"à±įâĢĮ!":1809,"à°Īà°µ":1810,"à°¾à±įâĢĮ":1811,"Ġà°Ĩà°¶à°²":1812,"à°ļà°®à°¨":1813,"66":1814,"Ġà°Ĵà°°":1815,"à±įâĢĮ),":1816,"Ġà°ħà°¸à°¹à°¨":1817,"ÂłĠčĊ":1818,"à°£à°µ":1819,"à°³à°¨à°ķ":1820,"à°Ĥ.\"":1821,"Ġà°Ĩà°¯à°¨à°¨":1822,"ĠÂłÂłÂłÂłĠ":1823,"à°ĺà°µ":1824,"à°ªà°Ĺà°²":1825,"Ġà°¤à°²à°¨":1826,"ÂłÂłÂłĠÂłÂłÂłÂłÂłÂłÂłÂłÂłÂłÂłÂłÂłÂłÂłÂł":1827,"Ġ200":1828,"Ġà°µà°¦à°²":1829,"à°°à°£à°®à°¨":1830,"à°¡à°Ĺà°²":1831,"à°¸à°¨à°¸à°Ń":1832,"Ġà°ĵà°¸":1833,"Ġà°ħà°µà°¨":1834,"Ġà°¤à°²à°ķ":1835,"0820151":1836,"à°°à°¬à°¡":1837,"à°İà°ª":1838,"à°ķà°ļ":1839,"Ġà°¤à°¤":1840,"Ġ150":1841,"à°¯à°²à°²":1842,"ĠĠĠĠĠĠĠĠ":1843,"90":1844,"Ġà°§à°¨à°®":1845,"à°Łà°®à°¨":1846,"Ġà°¬à°¨":1847,"Ġ500":1848,"à°±":1849,"à°¨à°¬à°¡":1850,"à°¨à°ªà°¡":1851,"Ġ?\"":1852,"Ġà°¬à°ľ":1853,"à°²à°¨à°²":1854,"Ġà°Ĵà°ķà°¡":1855,"à°ªà°¦à°¨":1856,"à°¤à°²à°¤":1857,"à±Ĩ,":1858,"Ġà°¸à°®à°Ĺ":1859,"à°Łà°²à°¤":1860,"à°Łà°®à°°":1861,"à°£à°¤":1862,"à°ħà°¤à°¡":1863,"100":1864,"0620162":1865,"in":1866,"Ġ_":1867,"Ġà°Ĩà°ľ":1868,"à°·à°Ĺ":1869,"Ġà°ĩà°¤à°¨":1870,"à°¯à°µà°§":1871,"Ġà°ĺà°°":1872,"à±ĩ.\"":1873,"Ġà°°à°¤":1874,"à°Ĥ!\"":1875,"à±į...\"":1876,"Ġà°®à°°à°²":1877,"ÂłÂłÂłÂłÂłÂł":1878,"ÂłÂłÂłĠÂłÂłÂłĠÂłÂłÂł":1879,"Ġà°Īà°¡":1880,"Ġà°®à°¹à°¤":1881,"à±įâĢĮ/":1882,"à±Ĥ....":1883,"Ġà°ıà°®à°¯":1884,"Ġà°Ĵà°²":1885,"Ġà°ĩà°ķà°ª":1886,"Ġà°¯à°¶":1887,"Ġà°µà°ľ":1888,"Ġ90":1889,"à°¯à°£à°°":1890,"ÂłÂłÂłÂłÂłÂłÂł":1891,"à°ļà°µà°²":1892,"à°°à°®à°¨":1893,"à°®à°¬":1894,"Ġà°¸à°ľ":1895,"à°¨à°ķà°°":1896,"à°µà°¬":1897,"Ġ35":1898,"ÂłÂłĠÂł":1899,"Ġà°¶à°°à°¤":1900,"à°¦à°°à°®":1901,"à±ģ\".":1902,"à°īà°¤":1903,"à°ľà°ª":1904,"à°īà°¦":1905,"à°¾..?":1906,"94":1907,"à°ıà°¡":1908,"à°µà°ľ":1909,"Ġà°¯à°¤":1910,"à°¯à°Ń":1911,"Ġà°®à°¨à°²":1912,"à°£à°ª":1913,"à°¥à°²à°ķ":1914,"200":1915,"à°¯à°ªà°°":1916,"Ġà°¹à°¯":1917,"09201746":1918,"à°ķà°°à°£à°ķ":1919,"Ġà°¸à°Ĺà°Ł":1920,"à°ĩà°Ł":1921,"68":1922,"à°īà°¨":1923,"Ġà°Łà°°":1924,"Ġà°ĭà°·":1925,"Ġà°ľà°°à°Ĺà°¡":1926,"Ġà°®à°ķ":1927,"à°¸à°Ńà°²":1928,"ĠI":1929,"à°°à°ķà°²":1930,"95":1931,"Ġ2017":1932,"Ġà°¨à°µà°²":1933,"Ġà°ķà°¸à°°à°¤":1934,"Ġà°ķà°£":1935,"Ġà°®à°ļ":1936,"à°¯à°µà°°":1937,"Ġà°¯à°¨":1938,"Ġà°ĵà°°":1939,"à°®à°²à°ķ":1940,"Ġà°®à°°à°ļ":1941,"Ġà°¹à°²":1942,"à°°à°µà°¹":1943,"à°®à°°à°£":1944,"Ġà°¤à°²à°µ":1945,"à°¨à°²à°ķ":1946,"à°ļà°µà°²à°¸":1947,"Ġ45":1948,"à°ķà°¬à°¡":1949,"à°¦à°¨à°¨":1950,"à°¶à°¨à°®":1951,"à°ľà°¯à°¨à°Ĺà°°":1952,"à°²à°µà°²":1953,"Ġà°ľà°Ĺà°¦":1954,"à°³à°ª":1955,"ÂłÂłĠÂłÂłÂł":1956,"à°ĩà°µ":1957,"à°Ĺà°¤à°¨":1958,"Ġà°ľà°²à°®":1959,"à±¦":1960,"Ġ..":1961,"à°Ĳà°ª":1962,"à°¡à°ķà°ª":1963,"à±įâĢĮ...":1964,"à°¦à°²à°µ":1965,"à±į.....":1966,"Ġà°Ķà°·à°§":1967,"à°²à°§à°¨":1968,"Ġ2013":1969,"à°°à°¥à°®":1970,"ĠÂłĠÂłÂł":1971,"Ġà°īà°ªà°¸":1972,"Ġà°ĵà°ķ":1973,"à°Ĩà°¨":1974,"Ġ.....":1975,"à°¾à°Ĥ!":1976,"à°°à°¤à°¨":1977,"à°³à°²à°ķ":1978,"92":1979,"Ġà°īà°¡":1980,"à°¯à°²à°¤":1981,"Ġà°¸à°¯":1982,"65":1983,"74":1984,"à°ħà°¡":1985,"à°ªà°¬à°¡":1986,"Ġà°°à°ľ":1987,"Ġà°ľà°¯à°²à°²":1988,"à±į)":1989,"Ġà°ıà°²":1990,"Ġà°¨à°°à°ķ":1991,"ww":1992,"à°ķà°µà°°":1993,"à°³à°µ":1994,"à±ģ......":1995,"à°ħà°Ń":1996,"à°Ĩà°¸":1997,"Ġà°²à°¤":1998,"à°ħà°§":1999,"Ġà°Ŀ":2000,"Ġà°Īà°¯à°¨":2001,"Ġà°®à°ľ":2002,"Ġà°µà°§":2003,"Ġà°ħà°ľà°¯":2004,"Ġà°¤à°Ĺà°²":2005,"à°ľà°Ĺ":2006,"Ġà°ªà°¤à°ķ":2007,"85":2008,"Ġà°ĩà°¤":2009,"à°Ĺà°²à°¨":2010,"Ġà°ķà°²à°µà°°":2011,"Ġà°ªà°¡à°¤":2012,"à°Ńà°°à°£":2013,"Ġà°ķà°²à°µ":2014,"à°Ńà°®à°¯":2015,"Ġà°¨à°Łà°¨":2016,"ÂłÂłÂłĠÂłÂłÂłĠÂłÂłÂłÂłÂłÂłÂłÂłÂłÂłÂłÂłÂłÂłÂłÂłÂłÂłÂłÂłÂłÂłÂłÂłÂłÂłÂłÂłÂłÂłÂłÂł":2017,"à°¯à°®à°µ":2018,"Ġà°ķà°¡à°ª":2019,"Ġà°ªà°Ĺà°²":2020,"ĠÂłĠÂłĠÂłÂł":2021,"Ġà°ľà°°à°Ĺà°²":2022,"Ġà°İà°µà°¡":2023,"Ġà°¸à°°à°¸à°¨":2024,"à°¦à°¶":2025,"72":2026,"à°İà°¤":2027,"Ġà°µà°³":2028,"à±ĩà°Ĥ?":2029,"à°ĺà°ķ":2030,"Ġà°®à°¡":2031,"Ġà°¤à°¨à°¦":2032,"Ġà°ħà°¨à°°":2033,"à°¾à°ĤâĢĻâĢĻ":2034,"à±ĩâĢĻ":2035,"à°°à°®à°¯":2036,"89":2037,"à°ķà°°à°²":2038,"Ġà°°à°£":2039,"20159":2040,"Ġà°ħà°²à°¸":2041,"th":2042,"052015":2043,"Ġà°¸à°ķà°²":2044,"à°°à°£à°¯":2045,"à°¨à°µà°¨":2046,"à°¤à°°à°£":2047,"à°Ńà°µà°¨":2048,"à°§à°ª":2049,"115":2050,"Ġà°Ńà°Ł":2051,"Ġà°Īà°²":2052,"à°¯à°µà°²à°¸":2053,"Ġà°°à°ļà°¨":2054,"Ġà°®à°¨à°¦":2055,"Ġà°¤à°¨à°ª":2056,"à°³à°Ĺ":2057,"à°¦à°°à°ª":2058,"à°³à°¨à°²":2059,"ĠÂłĠÂłĠÂłĠÂłÂł":2060,"062015":2061,"à±ĭ?\"":2062,"Ġà°µà°¤":2063,"à°Łà°³":2064,"ÂłÂłÂłĠÂłÂłÂłĠÂłÂł":2065,"01201735":2066,"à±ĩ.....":2067,"à±Ģ'":2068,"Ġà°ıà°¬":2069,"à°°à°¸à°¤":2070,"à°¾à°Ĥ..":2071,"Ġà°Ĩà°Łà°²":2072,"à°¤à°ªà°¡":2073,"300":2074,"à°Ĺà°¦à°°":2075,"à°¹à°°à°£":2076,"à°¸à°¨à°²":2077,"07201626":2078,"à°¤à°¬":2079,"125":2080,"Ġà°®à°¯":2081,"à°Ĩà°²":2082,"0320162":2083,"84":2084,"à°ķà°£":2085,"à°¦à°³":2086,"Ġà°ĸà°ļ":2087,"à±ĩà±į":2088,"à°ħà°¸":2089,"à°¾à°Ĥ,":2090,"0820162":2091,"Ġà°īà°ªà°¨":2092,"Ġà°Ĺà°®":2093,"Ġà°ħà°¥":2094,"87":2095,"Ġà°¤à°¹à°¸":2096,"Ġà°ªà°ª":2097,"Ġà°¤à°°à°¬à°¡":2098,"Ġ36":2099,"Ġà°¬à°¯à°Łà°ª":2100,"à°¨à°¤à°¨":2101,"à°Ĺà°®à°¨":2102,"Ġa":2103,"à°ľà°µ":2104,"Ġà°ħà°¨à°²":2105,"à°Ĺà°Ĺ":2106,"11201749":2107,"à°Ĳà°¡":2108,"Ġà°Ĳà°¶":2109,"Ġà°¸à°µà°°à°£":2110,"Ġà°ħà°¨à°Ĺ":2111,"Ġà°ķà°²à°ķà°²":2112,"123":2113,"Ġà°¯à°®":2114,"ĠÂłĠÂłĠÂłĠÂłĠÂłĠÂłĠÂłĠÂłĠÂłĠÂłĠÂłĠÂłĠÂłĠÂłĠÂłĠÂłĠÂłĠÂłĠÂłĠÂłĠÂłĠÂłĠÂłĠÂł":2115,"Ġà°ħà°¯à°¨":2116,"à°ŀà°¤à°²":2117,"Ġà°°à°ª":2118,"Ġ32":2119,"122":2120,"à°°à°ªà°°":2121,"à°¦à°¨à°ķ":2122,"à°¾....\"":2123,"à°¦à°®à°¨":2124,"Ġà°ļà°¤":2125,"à°½à°§":2126,"à±Ģà±į":2127,"ĠÂłÂłÂł":2128,"à°°à°²à°ķ":2129,"à°¦à°¬":2130,"à°¶à°®à°¨":2131,"à±ĭâĢĻ":2132,"Ġ300":2133,"Ġà°¡à°¯":2134,"03201738":2135,"Ġà°ķà°²à°°":2136,"à°¨à°µà°¤":2137,"à°µà°ķà°ª":2138,"Ġà°ªà°°à°¸":2139,"042015":2140,"à°Ĺà°ļ":2141,"Ġà°ļà°°à°£":2142,"Ġà°Ĩà°¯à°¨à°¤":2143,"à°ªà°®à°¨":2144,"à±ĩà°Ĥ?\"":2145,"à°²à°¯à°¨":2146,"à°ıà°İà°¸":2147,"à±ĩ:":2148,"à°°à°·":2149,"Ġà°ĺà°¨à°¤":2150,"Ġà°¯à°¥":2151,"à°¯à°Łà°¨à°²":2152,"Ġà°¨à°Ĺà°²":2153,"à°ķà°¡à°¨":2154,"à°µà°¤à°®":2155,"11201517":2156,"ÂłÂłÂłÂłÂłÂłÂłÂłÂł":2157,"Ġà°¬à°²à°Ĺ":2158,"à±ĩ...\"":2159,"à±įâĢĮ):":2160,"à°°à°ĸ":2161,"Ġà°ªà°¡à°Ĺ":2162,"Ġ33":2163,"à°ķà°ľ":2164,"à°ªà°¨à°ķ":2165,"113":2166,"________":2167,"Ġà°ĵà°¦":2168,"ĠÂłĠÂłĠÂłĠÂłĠÂłĠÂłĠÂłĠÂłĠÂłĠÂłĠÂłĠÂłĠÂłĠÂłĠÂłĠÂłĠÂłĠÂłĠÂłĠÂł":2169,"67":2170,"Ġà°¤à°²à°²":2171,"111":2172,"Ġà°µà°¯":2173,"Ġà°¸à°°à°³":2174,"93":2175,"Ġà°ªà°¦à°ķ":2176,"à°®à°¨à°¸":2177,"à°Ĵà°°":2178,"......\"":2179,"Ġà°Ńà°¯à°®":2180,"à°¯à°¸à°Ń":2181,"à°ĺà°Ł":2182,"à°¤à°¨à°ķ":2183,"Ġà°¤à°¨à°µ":2184,"à°ħà°Ł":2185,"à°Ńà°ľ":2186,"420162":2187,"à°°à°ªà°Ł":2188,"Ġà°µà°²à°¸":2189,"520162":2190,"à°¹à°°à°£à°ķ":2191,"à°Ĺà°£à°¨à°²":2192,"64":2193,"à°ĺà°¨":2194,"Ġà°Ĳà°İà°¸":2195,"à°Ĥ(":2196,"à°¬à°¸à°Ń":2197,"à°³à°Ł":2198,"à°¯à°µà°¸à°°":2199,"à°®à°ķà°®":2200,"Ġà°ļà°²à°ªà°¤":2201,"à°¿à±įâĢĮ":2202,"Ġà°Ķà°Ł":2203,"à°Ŀ":2204,"101":2205,"à°ķà°²à°²":2206,"à°³à°¬":2207,"Ġà°Īà°ķ":2208,"à°ªà°¡à°Ł":2209,"Ġà°ħà°¨à°ķ":2210,"à°®à°°à°¸":2211,"Ġà°Ĺà°£à°¨":2212,"Ġ75":2213,"10201747":2214,"à°¾à°Ĥ...":2215,"à°°à°¸à°ķ":2216,"à°¾à°Ĥ.\"":2217,"à±ĭ:":2218,"à±ĸ":2219,"à°µà°Łà°®":2220,"Ġà°¨à°²à°Ń":2221,"er":2222,"04201739":2223,"69":2224,"à°¦à°ķà°°":2225,"à°ľà°¡":2226,"82":2227,"à°ķà°ªà°ķ":2228,"Ġà°ĺà°Ł":2229,"Ġà°Ńà°²":2230,"Ġà°ªà°¡à°Ł":2231,"à°¶à°®à°¯":2232,"à°¤à°¶":2233,"à°Īà°¸":2234,"Ġà°Ĩà°µà°°à°£à°²":2235,"à°²à°µà°¡":2236,"à°§à°µà°°":2237,"Ġà°ļà°µ":2238,"à°µà°²à°ª":2239,"à°Ĥ.....":2240,"Ġà°ªà°¯à°¨":2241,"Ġà°®à°¹à°°":2242,"à°Ĳà°İ":2243,"à°ĸà°¤":2244,"à°°à°®à°¦":2245,"à±ģ__":2246,"ÂłÂłÂłĠÂłÂłĠÂłĠÂłĠÂłĠÂłĠÂłĠÂłĠÂłĠÂł":2247,"Ġà°ħà°°à°ļ":2248,"à°°à°²à°¨":2249,"à°¤à°²à°ª":2250,"à°¿..!":2251,"à°Ńà°¤":2252,"à°°à°«":2253,"01201619":2254,"**":2255,"Ġà°ªà°¤à°¨":2256,"à±ģ_":2257,"à°¨à°µà°°":2258,"à°°à°¸à°°":2259,"à°²à°ķà°¨":2260,"à°Łà°ªà°°":2261,"Ġà°ħà°°à°ķ":2262,"à°ķà°²à°¤":2263,"à°¦à°²à°ļ":2264,"à°łà°ķ":2265,"à°°à°®à°¬à°¦":2266,"à°¿......":2267,"Ġà°¦à°Ł":2268,"Ġà°°à°¬":2269,"à°²à°¨à°¨":2270,"Ġà°«à°£":2271,"à°¯à°µà°²":2272,"à°²à°²à°¤":2273,"0720151":2274,"ÂłÂłÂłÂłÂłÂłÂłÂłÂłÂłÂłÂłÂłÂłÂłÂłÂłÂłÂłÂłÂłÂłÂłÂłÂłÂłÂłÂłÂłÂłÂłÂłÂłÂłÂłÂłÂłÂłÂłÂłÂłÂłÂłÂłÂłÂłÂłÂł":2275,"Ġà°ķà°¨à°ķ":2276,"Ġà°İà°µà°°à°¨":2277,"à°¥à°²à°¨":2278,"Ġà°£":2279,"à°¡à°®à°¨":2280,"Ġà°ħà°µà°¯à°µ":2281,"Ġà°Łà°ķ":2282,"à°ªà°¶":2283,"Ġà°ľà°°à°Ĺà°¬":2284,"à°ļà°ª":2285,"Ġà°²à°Ĺ":2286,"Ġà°İà°¡à°®":2287,"à°ĩà°¸":2288,"à°ļà°°à°°":2289,"Ġ2012":2290,"Ġà°ĺà°Łà°¨à°ª":2291,"Ġà°ħà°µà°²":2292,"Ġà°Ĩà°Ńà°°à°£":2293,"à°¾?'":2294,"62":2295,"Ġ2019":2296,"à±ģ-\"":2297,"à°·à°²à°¨":2298,"on":2299,"à°¿__":2300,"Ġà°¶à°°à°£":2301,"Ġà°®à°¨à°µ":2302,"à°ļà°¨à°Ĺ":2303,"ÂłÂłĠÂłÂłÂłÂłĠ":2304,"à°Ĺà°¢":2305,"Ġà°ħà°¨à°¸":2306,"à°Łà°²à°ª":2307,"1220175":2308,"Ġà°ľà°°à°ª":2309,"Ġà°Ĵà°¬":2310,"720174":2311,"Ġà°¤à°¨à°®":2312,"à°µà°¸à°¨":2313,"Ġà°ľà°¨à°¸":2314,"à°ªà°ķà°²":2315,"à°¾à°Ĥ:":2316,"à°®à°µà°°":2317,"à°¬à°¯à°Ł":2318,"Ġà°µà°¶":2319,"820174":2320,"83":2321,"Ġà°ļà°¸":2322,"Ġà°Ĩà°¶à°¯":2323,"Ġà°®à°¦à°¨":2324,"à°ķà°²à°ª":2325,"à°¸à°¸":2326,"ÂłÂłÂłÂłÂłÂłÂłÂłÂłÂł":2327,"73":2328,"à°Ĭà°°":2329,"om":2330,"920151":2331,"à°¨à°¤à°²":2332,"Ġà°ļà°¦à°µ":2333,"Ġ42":2334,"à°Łà°ķà°²":2335,"à±į....\"":2336,"Ġà°²à°¨":2337,"Ġà°¸à°Ńà°ķ":2338,"02201737":2339,"à±ģ.....\"":2340,"Ġ''":2341,"Ġà°¶à°¸":2342,"à±ĭ)":2343,"à°¨à°®à°¯":2344,"ÂłÂłÂłĠÂł":2345,"Ġà°ķà°°à°£":2346,"à°Īà°¡":2347,"à±ĭ.....":2348,"à°ļà°ļ":2349,"0920163":2350,"1201":2351,"02201620":2352,"Ġà°ħà°µà°¸à°°à°®à°¨":2353,"à°ľà°¨à°²":2354,"à°¬à°¶":2355,"à°¶à°¶":2356,"à°ªà°¨à°²":2357,"Ġà°īà°¬":2358,"!!":2359,"Ġà°ķà°¨à°¬à°°":2360,"Ġà°Ĳà°ıà°İà°¸":2361,"à°ªà°¡à°ķ":2362,"Ġà°¤à°¡à°¬à°¡":2363,"à°®à°²à°¨":2364,"Ġà°®à°°à°®":2365,"à°ªà°°à°®":2366,"à±ĩà°Ĥ.":2367,"à°²à°¨à°Ĺ":2368,"0420174":2369,"à°°à°®à°ķ":2370,"Ġà°ļà°®":2371,"à°¤à°°à°Ĺà°¤":2372,"à°µà°²à°ķ":2373,"ÂłÂłÂłÂłÂłÂłÂłÂłÂłÂłÂłÂłÂłÂł":2374,"à°īà°ª":2375,"ÂłÂłÂłÂłÂłÂłÂłÂłÂłÂłÂł":2376,"Ġà°§à°°à°ķ":2377,"à±Ī.":2378,"ÂłÂłĠčĊ":2379,"Ġà°ĩà°¹":2380,"ÂłÂłÂłÂłÂłÂłÂłÂłÂłÂłÂłÂłÂłÂłÂłÂłÂłÂł":2381,"à°Łà°Ĺà°²":2382,"à°°à°Ńà°¦":2383,"Ġà°īà°ªà°°":2384,"à°¡à°¤à°²":2385,"à°¬à°®":2386,"Ġ400":2387,"Ġà°®à°¹à°®":2388,"Ġà°ħà°·":2389,"à°¤à°°à°®":2390,"Ġà°°à°Ĺ":2391,"Ġ:-":2392,"à°¤à°®à°¨":2393,"à°µà°¨à°°":2394,"Ġà°¤à°²à°®":2395,"à°®à°²à°²":2396,"Ġà°¤à°¨à°¯":2397,"91":2398,"à°¾à°ĤâĢĻ":2399,"Ġà°¤à°²à°¦":2400,"Ġà°ļà°²à°¨":2401,"Ġà°Ĵà°ķà°¦":2402,"Ġà°ľà°°à°Ĺà°ķ":2403,"520174":2404,"à°ķà°·":2405,"à°ªà°ķà°ª":2406,"Ġà°ľà°¤":2407,"à°ļà°¯à°®":2408,"Ġà°µà°°à°¸":2409,"à°ıà°²":2410,"71":2411,"à°¦à°ļ":2412,"à°µà°¤à°ķ":2413,"à±ĩ'":2414,"à°²à°ķà°ª":2415,"à°µà°ľà°®":2416,"à°¤à°¹":2417,"à°¡à°ļ":2418,"à°¶à°¤":2419,"à°Ĩà°µ":2420,"à°¿\".":2421,"à°µà°Ĺà°²":2422,"Ġà°¹à°¤à°®":2423,"Ġ34":2424,"à°²à°ķà°°":2425,"Ġà°ħà°£à°ļ":2426,"à±Ģ(":2427,"):":2428,"à°Ńà°¸":2429,"à°¥à°¤":2430,"à±ģ..!":2431,"à°Ĳà°²":2432,"Ġ2011":2433,"63":2434,"à°²à°¨à°ķ":2435,"à°µà°¨à°Ĺ":2436,"à°°à°®à°µ":2437,"à°µà°°à°®":2438,"ÂłÂłÂłÂłÂłÂłÂłÂłÂłÂłÂłÂłÂłÂłÂł":2439,"Ġà°īà°ªà°ķ":2440,"Ġà°Ńà°¯à°ª":2441,"0320159":2442,"Ġ48":2443,"à°Łà°ļ":2444,"à°ĺà°®":2445,"à°®à°ªà°ķ":2446,"à°īà°¦à°¯":2447,"à±ģ.)":2448,"Ġà°¥à°°":2449,"à°°à°®à°°":2450,"à°ķà°¤à°¨":2451,"à°£à°Ĺ":2452,"Ġà°ħà°Ĺà°°":2453,"an":2454,"à°µà°¤à°²à°ķ":2455,"Ġà°ªà°¡à°¡":2456,"à°ĺà°°":2457,"ÂłÂłĠÂłÂł":2458,"Ġà°¦à°¸à°°":2459,"620174":2460,"Ġà°ĩà°¡":2461,"à°£à°¸":2462,"Ġà°ħà°ķà°¸":2463,"Ġà°¯à°§":2464,"Ġà°Ĳà°°":2465,"à°®à°¹à°¬":2466,"à±Ģ.....":2467,"ÂłÂłÂłÂłÂłÂłÂłÂłÂłÂłÂłÂłÂłÂłÂłÂłÂł":2468,"10201748":2469,"à°£à°¦":2470,"Ġà°®à°²à°¯":2471,"Ġà°°à°ļà°¨à°²":2472,"Ġà°°à°ķà°®":2473,"à°Ĺà°³à°Ĺ":2474,"à°¸à°¬":2475,"à°¡à°Łà°®":2476,"Ġà°Ĩà°¸à°°":2477,"à°°à°®à°¶":2478,"Ġ38":2479,"Ġà°Īà°ª":2480,"à°ªà°¡à°¨":2481,"Ġà°¸à°¹à°¨":2482,"Ġà°īà°§":2483,"à°ıà°µ":2484,"à°§à°¨à°²à°ķ":2485,"820151":2486,"1020151":2487,"Ġà°Ĭà°Ĺ":2488,"Ġà°Łà°µà°°":2489,"à°Ĩà°«":2490,"à±Ĩà°Ĥ.":2491,"ÂłÂłÂłĠÂłÂłÂłĠčĊ":2492,"Ġà°ħà°µà°°":2493,"Ġà°°à°¥":2494,"Ġà°īà°Ńà°¯":2495,"à°¦à°¤à°¨":2496,"Ġ2018":2497,"Ġà°Ĭà°¡":2498,"à°¦à°İà°¤":2499,"Ġà°¨à°¯à°¨":2500,"Ġà°ļà°¦à°°à°ª":2501,"à°ªà°µà°ļ":2502,"à°¾à°Ĥ!\"":2503,"ÂłÂłÂłÂłÂłÂłÂłÂłÂłÂłÂłÂłÂł":2504,"Ġà°¤à°²à°¤":2505,"Ġà°¸à°¹à°ļà°°":2506,"à°¸à°®à°¯":2507,"à°·à°¤à°¨":2508,"620162":2509,"à°¿/":2510,"Ġ||":2511,"à±ĩ....\"":2512,"à°§à°¨à°²à°¨":2513,"à±ģ),":2514,"à°µà°®à°¨":2515,"Ġà°¦à°®":2516,"Ġà°°à°¥à°®":2517,"à°¯à°¤à°²à°¨":2518,"à°¬à°ľ":2519,"Ġà°¹à°®":2520,"à°Ĩà°Ĺ":2521,"''":2522,"à±ĭ.\"":2523,"à°°à°Ĺà°¨":2524,"à°¨à°ªà°¤":2525,"Ġà°®à°®à°¤":2526,"Ġ65":2527,"400":2528,"à°¶à°µà°°":2529,"à°¦à°²à°¤":2530,"ĠÂłĠÂłĠÂłĠÂłĠÂłĠÂłĠÂłĠÂłĠÂłĠÂłĠÂłĠÂłĠÂłĠÂłĠÂłĠÂłĠÂłĠÂłĠÂłĠÂłĠÂłĠÂłĠÂłĠÂłĠÂłĠÂłĠÂłĠÂł":2531,"Ġà°ĭà°¤":2532,"à°¤à°¨à°¨":2533,"à°®à°Ń":2534,"à°°à°ªà°ķ":2535,"Ġà°Ĩà°¦à°°à°£":2536,"à°ľà°Ĺà°¨":2537,"à°°à°µà°¡":2538,"à±ĭ'":2539,"à°ıà°¯":2540,"à°¯à°¦à°¨":2541,"à°µà°°à°¨":2542,"Ġà°µà°Ł":2543,"re":2544,"Ġà°ħà°µà°¤":2545,"à°¯à°¸à°Ńà°²":2546,"Ġà°ªà°¡à°²":2547,"09201630":2548,"Ġà°Īà°¦":2549,"à°¿.....\"":2550,"à°İà°¦":2551,"Ġà°¨à°µà°²à°²":2552,"Ġs":2553,"Ġà°¬à°ļ":2554,"Ġà°ıà°¯":2555,"Ġà°§à°°à°£":2556,"à°µà°ļà°¨":2557,"à°¡à°²à°ķ":2558,"à°¦à°²à°¨":2559,"Ġà°ħà°¸à°Ń":2560,"Ġ43":2561,"à°°à°ķà°°":2562,"à°Łà°ķà°ª":2563,"à°Ĩà°ķ":2564,"Ġà°Ĺà°£à°ªà°¤":2565,"9201746":2566,"à°®à°Łà°²":2567,"ÂłÂłĠÂłÂłÂłĠÂłÂłÂłĠÂłÂłÂłÂłÂłÂłÂłÂłÂłÂłÂłÂłÂłÂłÂłÂł":2568,"à°°à°£à°¨":2569,"Ġà°Ľà°¤":2570,"Ġà°ªà°ł":2571,"à°Ķ":2572,"à°µà°¹à°£à°²":2573,"à°¿_":2574,"à°¦à°ķà°°à°®":2575,"à°¤à°¨à°®":2576,"à°Ĳà°ķ":2577,"62015":2578,"à°¹à°¬":2579,"52015":2580,"à°ıà°³":2581,"Ġà°ļà°ķà°ļà°ķ":2582,"à°ĩà°Ĵ":2583,"012015":2584,"à°¶à°¨à°²":2585,"à°ŀà°¤":2586,"à°¡à°²à°¨":2587,"à°Ĩà°¶":2588,"à°ªà°¡à°¡":2589,"Ġà°¨à°¶":2590,"à°Ńà°®à°µ":2591,"à°ķà°°à°°":2592,"Ġ!\"":2593,"Ġà°¬à°¤à°ķ":2594,"Ġà°·à°°à°¤":2595,"à°ķà°Łà°°":2596,"Ġà°īà°Ł":2597,"Ġà°¤à°²à°¸":2598,"à°Ĩà°ª":2599,"à°Ĳà°İà°¸":2600,"Ġth":2601,"à°¡à°Ĺà°Ł":2602,"Ġà°Ĺà°¡à°ª":2603,"à°¬à°¹":2604,"à°µà°¹à°£à°ķ":2605,"à±ģ;":2606,"Ġà°ħà°µà°§":2607,"Ġà°µà°Ĺ":2608,"Ġà°Ńà°°à°¦":2609,"à°¡à°³":2610,"à°ļà°¦à°¨":2611,"à±ĩà±įâĢĮ":2612,"Ġà°Ĵà°¦":2613,"Ġà°īà°ľ":2614,"à°Ĳà°¦":2615,"à°µà°ľà°¨":2616,"à±Ĩà°Ĥ,":2617,"à°³à°¨à°Ĺ":2618,"à°·à°µ":2619,"à°Ĺà°²à°µ":2620,"Ġà°µà°ª":2621,"02201736":2622,"à°¨à°®à°¨":2623,"à°ļà°¨à°ķ":2624,"à°ĺà°µà°°":2625,"ĠÂłÂłĠÂłĠÂłĠÂłĠÂł":2626,"Ġà°¶à°¤à°ķ":2627,"Ġà°¯à°¸":2628,"à°°à°£à°¬":2629,"Ġà°ķà°§":2630,"Ġà°Ĵà°ķà°¨":2631,"Ġà°¦à°¹à°¨":2632,"à°ķà°¹":2633,"Ġ44":2634,"à°¦à°®à°¯":2635,"Ġà°ıà°¦à°¯":2636,"81":2637,"à°¿-\"":2638,"Ġà°ĸà°¨":2639,"à°ļà°¨à°²à°¨":2640,"à°¦à°µà°ļ":2641,"à°ıà°ķ":2642,"08201514":2643,"à°Ĺà°¶":2644,"Ġà°¤à°²à°ļ":2645,"600":2646,"Ġà°İà°¨à°°":2647,"320162":2648,"ĠÂłĠ":2649,"à°ķà°¡à°ª":2650,"à°§à°®à°¨":2651,"à°ļà°¨à°¨":2652,"à°¡à°µà°²à°¸":2653,"Ġ37":2654,"61":2655,"Ġà°¹à°¦":2656,"ÂłÂłÂłĠÂłÂłÂłÂłÂłÂłÂłÂłÂłÂłÂłÂłÂłÂłÂłÂłÂłÂłÂłÂłÂłÂłÂłÂłÂłÂłÂłÂłÂłÂłÂłÂł":2657,"à°Ĺà°²à°¦":2658,"Ġà°ķà°²à°ª":2659,"Ġà°Ĩà°¨à°µ":2660,"à°īà°¹":2661,"Ġà°ĩà°¤à°¡":2662,"à°°à°¸à°µ":2663,"à°ĵà°¹":2664,"à°¦à°°à°¦":2665,"à°¨à°µà°¸à°°":2666,"Ġ2009":2667,"à°£à°¹":2668,"Ġà°ĵà°²":2669,"à°¥à°®à°¯":2670,"à°§à°¸":2671,"Ġà°Ĵà°ķà°ļ":2672,"Ġ2010":2673,"à°²à°®à°¯":2674,"com":2675,"à°°à°µà°²":2676,"al":2677,"à°µà°¤à°¨":2678,"Ġà°¶à°°à°µ":2679,"Ġà°¤à°ªà°¸":2680,"www":2681,"07201744":2682,"0220158":2683,"Ġà°ªà°°à°ļ":2684,"09201515":2685,"à°¯à°ķà°Ł":2686,"Ġ250":2687,"Ġ55":2688,"Ġà°İà°Ĺà°°":2689,"Ġ1000":2690,"Ġà°İà°µà°°à°¯":2691,"à°°à°¹à°°":2692,"à°²à°ªà°°":2693,"à°¥à°ª":2694,"Ġà°ľà°¯à°¶":2695,"Ġà°ħà°¨à°¬":2696,"Ġà°ħà°¡à°Ĺà°²":2697,"à°¾âĢĻâĢĻ":2698,"à°ľà°¯à°ķ":2699,"Ġà°Ĵà°Ł":2700,"à°°à°Ĺà°¬à°¡":2701,"Ġ......":2702,"à°Łà°¬à°¡":2703,"0720162":2704,"is":2705,"à°ĸà°ª":2706,"Ġà°Ĳà°Ĳà°Ł":2707,"à°ļà°ľ":2708,"Ġà°¯à°¨à°®à°²":2709,"Ġà°ľà°¨à°¤":2710,"Ġà°Ĩà°¯à°ķà°Ł":2711,"Ġ39":2712,"Ġà°ķà°²à°ķ":2713,"à°§à°¨à°ķ":2714,"Ġà°Ĩà°ļà°°":2715,"à±Ģ...\"":2716,"Ġà°ļà°¦à°µà°¡":2717,"800":2718,"ÂłÂłĠÂłĠÂłĠÂłĠÂł":2719,"à°ħà°Ĺ":2720,"à°Ĺà°µà°°":2721,"à°ľà°¨à°°":2722,"Ġà°¹à°¬":2723,"1000":2724,"7201626":2725,"à°¥à°®à°µ":2726,"Ġà°ĩà°¯à°°":2727,"072015":2728,"à°¾......":2729,"ÂłÂłĠÂłÂłÂłĠÂłÂłÂł":2730,"Ġà°Ĩà°ķà°¸":2731,"Ġà°ħà°¸à°®":2732,"à°µà°§":2733,"Ġà°ħà°ĺ":2734,"am":2735,"à°Ĺà°µà°¤":2736,"à°«à°²à°®à°¯":2737,"4201739":2738,"à°¤à°ļ":2739,"ar":2740,"or":2741,"Ġà°Īà°Łà°²":2742,"à°¹à°¨à°°":2743,"Ġ47":2744,"à°ķà°¥":2745,"à°ļà°µà°¦":2746,"à°°à°¸à°¨à°Ĺ":2747,"Ġà°Ĩà°¯à°¨à°ª":2748,"à°İà°¡":2749,"à±ģ/":2750,"à°°à°³à°²":2751,"Ġà°²à°¡":2752,"à°°à°¦à°ķ":2753,"ĠĠĠ":2754,"à°¨à°°à°¸":2755,"Ġà°ķà°®à°°":2756,"Ġà°Ĺà°Ĺ":2757,"à°®à°²à°¤":2758,"à°Ĩà°Ł":2759,"à±ĭ...\"":2760,"Ġà°ħà°¡à°Ĺà°¡":2761,"à°²à°²à°ª":2762,"à°Ĥ),":2763,"à°ľà°°à°µ":2764,"à°¦à°¨à°¡":2765,"à°²à°ªà°ķ":2766,"Ġà°ªà°¡à°µ":2767,"Ġ99":2768,"à°¤à°ķà°°":2769,"ÂłĠ":2770,"à°¦à°°à°ķ":2771,"à°Ĩà°¤":2772,"Ġ120":2773,"à°·à°£à°¨":2774,"Ġà°¬à°²à°ªà°¡":2775,"à°¡à°µà°¨":2776,"à°¬à°£":2777,"à°İà°Ł":2778,"à°¡à°¡à°®":2779,"à°²à°®à°¨":2780,"à°Ĺà°²à°¡":2781,"à°µà°°à°¸":2782,"à°¯à°Łà°¨à°ķ":2783,"Ġ41":2784,"à°ľà°¨à°ķ":2785,"Ġà°ĵà°¬":2786,"Ġà°ħà°²à°ľà°¡":2787,"à°³à°²à°¨":2788,"Ġà°ķà°²à°Ĺ":2789,"----":2790,"Ġà°¨à°¡à°ķ":2791,"à°¯à°¤à°°à°Ĺà°¤":2792,"Ġà°§à°¨à°µ":2793,"à°Łà°¬à°¦":2794,"Ġà°·à°¬":2795,"à°°à°ķà°¡":2796,"à°¯à°µà°¦":2797,"Ġà°Ĳà°İ":2798,"Ġà°ľà°Ĺà°¤":2799,"Ġà°¯à°µ":2800,"Ġà°«à°ķ":2801,"à°°à°Ĺà°²":2802,"Ġà°īà°ªà°Ĺ":2803,"à°Ľà°Ĺ":2804,"Ġà°ľà°ķ":2805,"à°°à°ķà°®":2806,"Ġà°µà°°à°¦à°²":2807,"à°İà°°":2808,"Ġà°¦à°¶à°ķ":2809,"Ġà°ĩà°ľ":2810,"Ġ52":2811,"à°£à°¶":2812,"Ġà°ªà°¦à°¹":2813,"à°®à°¨à°ķ":2814,"en":2815,"à°¯à°¬à°Ł":2816,"à°¸à°¨à°®":2817,"150":2818,"à°Łà°µà°ļ":2819,"04201510":2820,"Ġà°¸à°¹à°ľà°®":2821,"Ġà°Ĭà°°à°Ł":2822,"3201738":2823,"à°Ĺà°²à°°":2824,"Ġ2008":2825,"à±Ģ.\"":2826,"Ġà°ľà°²à°µà°¨à°°":2827,"à°¤à°®à°Ĺ":2828,"Ġ!!":2829,"Ġà°ľà°¯à°ļ":2830,"à°¿à±į":2831,"Ġà°ľà°²à°ª":2832,"à°¦à°°à°²":2833,"Ġà°ħà°¤à°£":2834,"à±į(":2835,"Ġ46":2836,"à°Ĵà°ķà°°":2837,"à±Ĥ.....":2838,"04201623":2839,"à±Ĩ!":2840,"Ġà°İà°ľ":2841,"es":2842,"à°¹à°¨à°¦":2843,"à°Īà°²":2844,"à°µà°¤à°²à°¨":2845,"ĠÂłĠÂłĠ":2846,"à°Ĩà°¹":2847,"820162":2848,"à°¾(":2849,"à°Łà°µà°¶":2850,"à°°à°¤à°¤":2851,"11201633":2852,"Ġà°¸à°¡à°¨":2853,"à°¤à°¨à°²":2854,"à°Ĺà°°à°²":2855,"à°ļà°¨à°²à°¤":2856,"à°ªà°²à°¨":2857,"Ġà°ªà°¡à°¨":2858,"Ġà°īà°ªà°¶à°®à°¨":2859,"à°ĤâĢĻâĢĻ":2860,"Ġà°Ĺà°¨à°ķ":2861,"Ġà°§à°µà°¨":2862,"Ġà°ħà°²à°ķ":2863,"Ġà°¦à°¨":2864,"Ġà°¤à°°à°µ":2865,"à°²à°Ĺà°¡":2866,"à°±à°ķ":2867,"700":2868,"à°¥à°µ":2869,"Ġà°İà°®à°°":2870,"08201630":2871,"06201625":2872,"à°µà°¹à°°":2873,"Ġà°¸à°Ńà°¨":2874,"Ġ600":2875,"ĠÂłĠÂłĠÂłĠ":2876,"ÂłĠÂłÂłÂłÂłĠ":2877,"Ġà°ĵà°¨à°°":2878,"à°°à°Ĺà°Ł":2879,"à°°à°·à°¨":2880,"Ġà°¸à°¡à°²":2881,"Ġà°ľà°¯à°ª":2882,"Ġà°ıà°ķà°Ĺ":2883,"Ġà°ħà°¹à°²":2884,"à°İà°¯":2885,"à°°à°µà°ķ":2886,"à°¾...?":2887,"à°Ĵà°ķà°µ":2888,"Ġà°ªà°ķà°¡":2889,"Ġà°¸à°¤à°®":2890,"Ġà°ĵà°¯":2891,"Ġà°®à°¹à°¦":2892,"Ġà°¨à°¸":2893,"Ġà°Ĩà°Ĺà°²":2894,"à°ļà°¨à°¤":2895,"Ġw":2896,"à°¦à°ªà°²":2897,"à°ªà°§":2898,"à±Ĩà±ĸ":2899,"Ġà°ħà°¦à°°à°Ĺ":2900,"à°¦à°°à°ªà°¡":2901,"à°¦à°¨à°²à°¨":2902,"Ġ49":2903,"Ġà°Ĩà°Ĺà°¡":2904,"ĠÂłĠÂłĠÂłĠÂłĠÂłĠÂłĠÂłĠÂłĠÂłĠÂłĠÂłĠÂłĠÂłĠÂłĠÂłĠÂłĠÂłĠÂłĠÂłĠÂłĠÂłĠÂłĠÂłĠÂłĠÂłĠÂłĠÂłĠÂłĠÂłĠÂłĠÂłĠÂł":2905,"ti":2906,"ĠâĢĵ":2907,"10201632":2908,"05201511":2909,"Ġ05":2910,"Ġ108":2911,"à°¤à°ªà°²":2912,"à°¨à°ķà°²":2913,"à°²à°Ĺà°ª":2914,"à°²à°ªà°¡":2915,"à°£à°®à°¨":2916,"à°¨à°ķà°¨":2917,"Ġà°łà°ķ":2918,"ÂłÂłÂłčĊ":2919,"Ġà°ıà°®à°µ":2920,"à°ħà°¹":2921,"Ġà°ħà°°à°¬":2922,"Ġc":2923,"Ġà°Ńà°°à°£":2924,"Ġà°¹à°ľ":2925,"Ġà°¨à°µà°¨":2926,"à°¿),":2927,"Ġà°ħà°µà°¡":2928,"à°°à°¹à°®":2929,"Ġà°ľà°¯à°¦":2930,"à°ķà°°à°®à°¨":2931,"42015":2932,"à°¨à°ªà°²":2933,"à°Łà°¡à°®":2934,"à°Ĺà°¬à°¡":2935,"Ġà°ķà°²à°Ĺà°²":2936,"à±ĩ..!":2937,"01201736":2938,"2201620":2939,"11201516":2940,"Ġb":2941,"à°°à°²à°¤":2942,"à°¯à°ķà°®":2943,"Ġà°¸à°«":2944,"Ġ2004":2945,"220158":2946,"à±Ī..":2947,"à°¶à°Ńà°ķ":2948,"à°®à°¨à°°":2949,"Ġà°ħà°µà°¤à°°":2950,"à±ģ!!":2951,"ou":2952,"à°¤à°¬à°¡":2953,"à±ģà°ģ":2954,"à°ļà°Łà°®":2955,"Ġ\"....":2956,"à°¯à°¨à°®":2957,"à°ľà°¨à°®":2958,"Ġà°¶à°¬à°°":2959,"à°¨à°®à°¸":2960,"à°¿.-":2961,"Ġà°Ĩà°·":2962,"à°Ĳà°ı":2963,"à°¨à°ķà°°à°¨":2964,"à°¾):":2965,"Ġà°ķà°¥à°ķ":2966,"Ġà°Ĩà°¶à°¤":2967,"ĠĠĠĠĠĠĠĠĠĠĠĠĠĠĠĠ":2968,"à°¤à°°à°ķ":2969,"Ġà°¦à°¯à°ļ":2970,"Ġà°®à°¸à°ķ":2971,"à°Ĳà°Ĩà°°":2972,"à°°à°¯à°²":2973,"Ġà°ķà°¦à°²à°ķ":2974,"ÂłÂłĠÂłÂłÂłĠÂłÂłÂłÂłÂłÂłÂłÂłÂłÂłÂłÂłÂłÂłÂłÂł":2975,"à°°à°¸à°°à°«à°°":2976,"Ġ56":2977,"Ġà°¤à°ªà°¨":2978,"à°¿..?":2979,"Ġà°Łà°ļ":2980,"à°Łà°ľ":2981,"à°ªà°µà°°":2982,"à°¿!!":2983,"Ġà±į":2984,"à°ªà°¡à°²":2985,"à°¯à°µà°¤":2986,"ÂłÂłÂłĠÂłÂłĠÂłĠÂłĠÂłĠÂłĠÂłĠÂłĠÂłĠÂłĠÂłĠÂłĠÂłĠÂł":2987,"Ġà°°à°ľà°¤":2988,"à°°à°®à°²à°ķ":2989,"Ġà°·à°Ł":2990,"Ġà°ĸà°ľ":2991,"Ġ58":2992,"ÂłÂłÂłĠÂłčĊ":2993,"9201630":2994,"à°²à°¶":2995,"Ġà°«à°°à°µ":2996,"Ġà°¤à°®à°¦":2997,"Ġà°®à°¦à°°":2998,"à°¨à°²à°¨":2999,"03201737":3000,"à±Ĥ...\"":3001,"Ġà°§à°°à°²à°¨":3002,"à°¬à°²à°ķ":3003,"Ġà°Ĩà°¶à°Ĺ":3004,"à°¸à°¨à°¸à°Ńà°²":3005,"Ġà°Ķà°¨":3006,"Ġà°ħà°°à°£":3007,"05201624":3008,"Ġ85":3009,"72015":3010,"Ġ`":3011,"Ġà°¦à°¬":3012,"à°¯à°¸à°®":3013,"à°¤à°µà°®":3014,"à°°à°ĺ":3015,"ÂłÂłĠÂłÂłÂłĠÂłÂłÂłĠ":3016,"Ġà°ķà°¡à°¤":3017,"Ġà°ľà°µà°¹à°°":3018,"à°¤à°ªà°°":3019,"Ġà°®à°¬":3020,"à°¶à°¦":3021,"Ġ51":3022,"Ġà°ªà°Ĺà°Ł":3023,"à°¥à°¸":3024,"Ġ2007":3025,"Ġà°ħà°°à°Ł":3026,"à°²à°µà°ķ":3027,"Ġà°ıà°¦à°¨":3028,"à°¾..!":3029,"à°¡à°µà°¦":3030,"ÂłÂłĠÂłÂłÂłĠÂłčĊ":3031,"à°¾!'":3032,"à°µà°¨à°®":3033,"à°Ĥ...\"":3034,"à°ķà°®à°¨":3035,"à°ıà°°":3036,"Ġà°µà°°à°¦à°°":3037,"Ġà°¬à°¬":3038,"à°¨à°¦à°®":3039,"à°¸à°®à°¸":3040,"à°°à°¸à°¨à°²":3041,"à°ıà°Ł":3042,"Ġ2000":3043,"à°¹à°¤à°²":3044,"Ġà°ķà°²à°µà°¡":3045,"Ġà°ľà°Ĺà°ªà°¤":3046,"Ġà°İà°¨à°²":3047,"Ġà°ªà°¦à°®":3048,"Ġ....\"":3049,"à°³à°ľ":3050,"à°łà°®":3051,"Ġà°Ĩà°Ĺà°ķ":3052,"Ġà°ħà°¸à°®à°°":3053,"Ġà°İà°Ĺà°µ":3054,"à°Ńà°ªà°¡":3055,"Ġà°Łà°ª":3056,"||":3057,"ĠA":3058,"à°µà°¦à°°":3059,"à°µà°°à°¤":3060,"Ġà°ľà°°à°Ĺà°¦":3061,"à°ľà°¬":3062,"à°Ńà°µà°¤":3063,"Ġà°§à°°à°¨":3064,"à±Ĥ.\"":3065,"Ġà°ľà°¹":3066,"à°¨à°Ń":3067,"à°¬à°¡à°²":3068,"à°¹à°ª":3069,"à±Ģ/":3070,"à°ľà°¯à°°":3071,"à°ķà°¨à°ª":3072,"Ġà°¨à°¡à°µà°¡":3073,"Ġà°ıà°İà°¸":3074,"Ġà°ĩà°ķà°¨":3075,"à°Ĩà°ªà°°":3076,"à°¹à°¦à°ªà°¡":3077,"à°¯à°ķà°°à°®":3078,"à°·à°²à°¤":3079,"à°Ĵà°ķà°Ł":3080,"Ġà°®à°¨à°¨":3081,"Ġà°®à°¨à°µà°¡":3082,"à°ĵà°¸":3083,"Ġm":3084,"à°Ĩà°§":3085,"à°ªà°¡à°®":3086,"Ġp":3087,"08201745":3088,"à°µà°¯à°¸":3089,"à°²à°¦à°¨":3090,"à°ļà°¦à°Ĺ":3091,"à°«à°¸":3092,"à°¨à°°à°ķ":3093,"à°Łà°ķà°®":3094,"Ġà°·à°®":3095,"à±ĭ....\"":3096,"à°¨à°ªà°¦":3097,"Ġà°ķà°³à°ķ":3098,"à°Ĺà°²à°ķ":3099,"à°¤à°®à°°":3100,"à°°à°¦à°®":3101,"à°¯à°®à°ķ":3102,"Ġthe":3103,"à°Łà°ªà°¡à°¤":3104,"à°¨à°¶":3105,"à°°à°¤à°°":3106,"ĠÂłÂłÂłÂłÂłÂłÂłÂłÂłÂłÂłÂłÂłÂłÂłÂłÂłÂł":3107,"à°¡à°µà°Ĺ":3108,"à°ªà°¤à°¨":3109,"Ġà°¤à°³":3110,"Ġ125":3111,"à°¨à°ªà°°":3112,"à°ªà°¦à°²":3113,"à°¦à°¨à°Ĺ":3114,"à°ļà°¨à°²à°ķ":3115,"à°ĩà°·":3116,"à°¯à°¨à°Ł":3117,"Ġ72":3118,"à°ĵà°ķ":3119,"Ġà°Ĩà°ļà°°à°£à°²":3120,"Ġà°ľà°¯à°°":3121,"à±Ĥ'":3122,"à°īà°²":3123,"Ġà°¦à°¦":3124,"à°¨à°ªà°¨":3125,"2201736":3126,"Ġà°¦à°¹":3127,"900":3128,"Ġà°ªà°¥":3129,"à°Ĭà°¹":3130,"il":3131,"à°·à°¤à°Ĺ":3132,"ÂłÂłĠÂłÂłÂłĠÂłÂłÂłĠÂłÂłÂłÂłÂłÂłÂłÂłÂłÂłÂłÂłÂłÂłÂłÂłÂłÂłÂłÂłÂłÂłÂłÂłÂłÂłÂłÂłÂłÂłÂłÂł":3133,"Ġh":3134,"Ġà°¦à°¸":3135,"Ġà°īà°¯":3136,"à°°à°ľà°¨":3137,"08201629":3138,"à°¾à°ĥ":3139,"à°²à°µà°¨":3140,"à±ĩ......":3141,"à°°à°ķà°¨":3142,"Ġt":3143,"Ġà°Ĵà°ķà°³":3144,"Ġà°Ĳà°ľ":3145,"à°Łà°®à°¯":3146,"à°ħà°¶":3147,"Ġà°ķà°²à°¯":3148,"à±į......":3149,"à°¦à°¨à°¤":3150,"Ġ64":3151,"à°Ńà°Ĺ":3152,"Ġà°¤à°®à°ª":3153,"à°¯à°Łà°®":3154,"à°¿;":3155,"Ġà°µà°°à°²à°ķ":3156,"à°ıà°®à°¨":3157,"à°Ńà°µà°®":3158,"à°Ĺà°°à°¨":3159,"Ġà°Ĩà°¶à°ªà°¡":3160,"Ġ800":3161,"Ġà°Ĩà°¬":3162,"à°µà°¸à°°à°®":3163,"Ġà°¤à°Łà°ªà°Ł":3164,"Ġà°®à°Ĺà°ª":3165,"à°Ĩà°¯":3166,"à°Ĳà°İà°²":3167,"1201619":3168,"à°¾âĢĮ":3169,"à±ĩ)":3170,"à°°à°µà°®":3171,"Ġà°¨à°¡à°µ":3172,"Ġ63":3173,"à°°à°®à°®":3174,"Ġà°µà°²à°²":3175,"Ġ54":3176,"ĠâĢĻ":3177,"à°·à°¦":3178,"Ġà°ľà°¨à°Ĺ":3179,"à°¾.....\"":3180,"à°¸à°¦":3181,"Ġà°ıà°ķà°ªà°ķ":3182,"à°ļà°Ĺà°²à°°":3183,"à°¸à°²à°ķ":3184,"à±Ģ....\"":3185,"as":3186,"à°¤à°Ń":3187,"Ġà°Ĩà°³":3188,"Ġà°Ĳà°µ":3189,"Ġà°ıà°Ĳà°¸":3190,"à°Ĩà°¡":3191,"à°¦à°²à°Ĺ":3192,"à°īà°®":3193,"à°ıà°¬":3194,"à°¥à°²à°¤":3195,"à°ĸà°²à°ķ":3196,"à°łà°¨":3197,"250":3198,"Ġà°ħà°¨à°Ł":3199,"à°°à°£à°®à°µ":3200,"Ġà°īà°ªà°¦":3201,"Ġà°ĩà°¤à°°à°¤":3202,"à°Łà°Ĺà°Ł":3203,"Ġà°Ńà°¸":3204,"Ġà°ıà°¡à°µ":3205,"Ġ95":3206,"........":3207,"à°ĩà°°":3208,"à°¨à°·":3209,"à°ķà°¡à°²":3210,"à°¤à°¬à°¸":3211,"Ġà°ĵà°·à°§":3212,"Ġ53":3213,"Ġà°µà°¨à°ľ":3214,"à°ļà°¤":3215,"Ġà°ħà°µà°¸à°°à°®à°¯":3216,"Ġà°ĩà°¯":3217,"Ġà°ªà°°à°¶":3218,"Ġà°¤à°²à°ªà°¡":3219,"Ġà°Ĩà°¨à°ķ":3220,"à°§à°¨à°®":3221,"Ġà°¹à°¡à°²":3222,"à°¸à°«":3223,"à°Īà°Ī":3224,"à°¨à°ľ":3225,"à°ıà°®à°¯":3226,"à°¯à°Ĺà°²à°°":3227,"à°ĸà°²à°¨":3228,"10520162":3229,"à°¤à°¥":3230,"06201512":3231,"07201513":3232,"2201737":3233,"à°²à°Łà°°":3234,"Ġà°µà°¡à°¦":3235,"à°§à°¨à°¨":3236,"Ġà°ħà°ªà°¹à°°":3237,"à±Ģ),":3238,"à°¨à°µà°ļ":3239,"à°²à°®à°§":3240,"ÂłÂłĠÂłÂłÂłĠÂłÂłÂłÂłÂłÂłÂłÂłÂłÂłÂłÂłÂłÂłÂłÂłÂłÂłÂłÂłÂłÂłÂłÂłÂłÂłÂłÂłÂłÂłÂłÂł":3241,"Ġà°Ĺà°ļ":3242,"à°¿à°ĥ":3243,"à°Ĳà°ľ":3244,"à°¡à°Ĺà°¡":3245,"à°µà°°à°¯":3246,"Ġ57":3247,"Ġà°°à°«":3248,"à°Ĵà°ķà°¸":3249,"à°¯à°Ĺà°²à°¨":3250,"10820174":3251,"à°¦à°ľà°²":3252,"à°§à°°à°£":3253,"à°ļà°Łà°Ĺ":3254,"________________":3255,"à°¨à°¤à°¸":3256,"Ġà°¬à°Łà°¨":3257,"âĢĻ,":3258,"Ġà°µà°°à°ª":3259,"à°µà°¶à°ķ":3260,"à°¬à°µà°³":3261,"Ġà°¯à°¦":3262,"Ġà°īà°¦à°¯à°®":3263,"Ġà°ªà°°à°ªà°¤":3264,"à°Ĳà°µ":3265,"à°°à°µà°¨":3266,"Ġà°¬à°²à°°":3267,"à°ªà°µà°²à°¸":3268,"amp":3269,"Ġ67":3270,"à±įâĢ":3271,"à°¤à°Ĺà°¤":3272,"à°Łà°®à°µ":3273,"à°¯à°¤à°ķ":3274,"à°ªà°³":3275,"Ġà°Ĩà°¸à°¨":3276,"à±ģ..?":3277,"Ġà°ķà°³à°ķà°³à°²":3278,"Ġà°Łà°®":3279,"à°°à°ķà°°à°£":3280,"à±ģ.'":3281,"à°Ĺà°®à°£":3282,"à°¶à°¸":3283,"à°¸à°°à°®":3284,"Ġà°Ĺà°µ":3285,"Ġà°īà°µ":3286,"à°¾à°Ĥ?\"":3287,"à°ļà°°à°²":3288,"Ġà°Ĳà°«":3289,"Ġà°ĩà°Łà°²":3290,"Ġà°Ĺà°²à°µ":3291,"Ġà°ħà°²à°²":3292,"à°¶à°ķà°¨":3293,"à°¶à°¨à°ķ":3294,"Ġ1500":3295,"à°ĵà°°":3296,"Ġà°ķà°¨à°¬à°¡à°²":3297,"à°³à°®à°¨":3298,"11020174":3299,"Ġà°ħà°¡à°Ĺà°Ł":3300,"Ġà°īà°ªà°ķà°°":3301,"Ġà°ĸà°²":3302,"à°¯à°¤à°Ĺ":3303,"Ġ66":3304,"à°ķà°°à°£à°ª":3305,"à±įâĢĮâĢĻ,":3306,"à±įâĢĮâĢĻ.":3307,"Ġà°¤à°®à°°":3308,"à°Ĥ....\"":3309,"Ġà°¸à°®à°¯à°®":3310,"à°¾?âĢĻ":3311,"à°¶à°¨à°®à°¨":3312,"à°¥à°¤à°ķ":3313,"à°¯à°£à°Ĺ":3314,"Ġà°ªà°¡à°ķà°²":3315,"à°·à°£à°Ĺ":3316,"à°°à°µà°£":3317,"Ġà°°à°®à°£à°®":3318,"Ġà°Ĩà°Łà°µ":3319,"à°·à°ľ":3320,"à°¾à°Ĥ?":3321,"042016230":3322,"à±Ĥ)":3323,"à°Ńà°Ĺà°µ":3324,"Ġà°ļà°¦à°µà°Ł":3325,"à°¦à°¯à°®":3326,"à°¨à°³":3327,"à°¯à°Ĺà°²à°¡":3328,"ĠT":3329,"à±ģ.......":3330,"Ġà°ľà°¯à°¸":3331,"Ġà°¨à°¯à°¨à°¤":3332,"à°Ĺà°ªà°Ł":3333,"à°°à°®à°ªà°¡":3334,"à°ķà°²à°µ":3335,"à°ľà°¯à°²à°ķ":3336,"Ġà°³":3337,"Ġà°¸à°®à°¤":3338,"Ġ2006":3339,"à°ªà°£à°²à°ª":3340,"Ġà°ľà°²à°¦à°°":3341,"à°£à°°":3342,"Ġà°µà°¡à°Ĺ":3343,"à°ªà°£à°²à°¨":3344,"à°Ĺà°Ńà°¦":3345,"Ġà°Ĺà°¡à°ļ":3346,"11220151":3347,"à°ľà°®à°¨":3348,"à°³à°²à°ª":3349,"Ġà°²à°µà°°":3350,"à°¨à°ķà°ª":3351,"à±ģ.-":3352,"Ġà°Ĳà°¨":3353,"Ġà°Ĩà°®à°¨":3354,"à°¨à°ķà°¬à°¡":3355,"à°¾!?":3356,"à°¦à°µà°¶":3357,"à°¯à°ħà°¤":3358,"à°°à°µà°§":3359,"Ġof":3360,"Ġ2005":3361,"à°ļà°²à°µ":3362,"à°¤à°µà°°":3363,"Ġà°®à°®à°ķ":3364,"Ġà°¦à°²":3365,"à°¥à°Ĺ":3366,"Ġà°Īà°Ł":3367,"à°Īà°°":3368,"Ġà°µà°²à°¯":3369,"Ġà°Ĳà°°à°¨":3370,"Ġà°İà°¦à°Ĺ":3371,"Ġ59":3372,"Ġà°¬à°²à°ªà°°":3373,"10720174":3374,"à°¯à°¬à°¦":3375,"Ġà°¨à°°à°¸à°°":3376,"à±įâĢİ":3377,"Ġà°Ĥ":3378,"Ġà°İà°Ĺà°¤":3379,"à°²à°ķà°¡à°Ĺ":3380,"Ġà°¸à°µà°°à°£à°²":3381,"à°Łà°¹":3382,"à°ļà°²à°ķ":3383,"Ġà°ªà°°à°µà°¶":3384,"Ġà°ĵà°µ":3385,"à°°à°ľà°²à°¤":3386,"à°ħà°ľ":3387,"Ġà°Ĭà°¹à°²":3388,"Ġà°¤à°®à°¤":3389,"Ġ74":3390,"-\"":3391,"Ġà°īà°¹":3392,"à°ķà°¡à°®":3393,"à°²à°¤à°²":3394,"Ġ98":3395,"Ġà°ħà°¨à°§":3396,"Ġf":3397,"à°¾__":3398,"Ġà°ªà°³à°¨":3399,"Ġà°ľà°¨à°¨":3400,"Ġà°¸à°¹à°¸":3401,"à°ķà°°à°£à°¨":3402,"à°¤à°¸à°°":3403,"Ġà°Īà°¤":3404,"à°ħà°ĸ":3405,"à°²à°µà°¦":3406,"Ġà°®à°Ń":3407,"à°ķà°®à°²":3408,"Ġà°¨à°¤":3409,"Ġà°°à°¤à°¨":3410,"Ġà°Ĩà°¨à°²":3411,"1122017":3412,"Ġà°¦à°«":3413,"à°¯à°¤à°¤":3414,"à°°à°¹à°¸":3415,"Ġà°ħà°¸à°¤":3416,"à°¥à°¨à°²":3417,"à°°à°¨à°Ĺà°°":3418,"à°¾à°ģ":3419,"à°ļà°ªà°°":3420,"à°¡à°²à°®":3421,"à°·à°£à°¤":3422,"Ġà°īà°ªà°®":3423,"Ġ62":3424,"042016234":3425,"à°³à°¹à°¸":3426,"à°¹à°¶":3427,"Ġà°ªà°°à°®à°¹":3428,"à°¯à°£à°®":3429,"à°ķà°¤à°²":3430,"Ġà°Ĺà°³":3431,"Ġà°µà°ļà°¨":3432,"à°ļà°Ĺà°²à°¨":3433,"11120174":3434,"Ġà°Ĩà°ªà°¦":3435,"Ġà°ķà°²à°Ĺà°ķ":3436,"Ġà°ħà°¡à°ķ":3437,"10820151":3438,"à°¶à°ªà°°":3439,"à°°à°£à°®à°¯":3440,"à°ľà°¯à°¨":3441,"Ġà°Ĩà°¯à°¨à°²":3442,"à°°à°¹à°£":3443,"à°ľà°®à°¹":3444,"Ġà°Ĵà°ķà°®":3445,"Ġà°ħà°®à°²à°µ":3446,"Ġà°Ĩà°µà°²":3447,"Ġà°İà°¬":3448,"Ġà°Ĳà°²à°¯":3449,"10520174":3450,"à°¦à°°à°¯":3451,"à°¢à°®":3452,"Ġà°Ķà°Łà°°":3453,"à°§à°µà°¨":3454,"à°¡à°¨à°Ł":3455,"à°¯à°¨à°ķ":3456,"à°İà°Ĺ":3457,"à°ļà°Ĺà°²à°¦":3458,"1201735":3459,"it":3460,"lo":3461,"à°¯à°¸à°¨":3462,"à°ļà°Ĺà°²à°¡":3463,"..!":3464,"à±Ī-":3465,"Ġà°¦à°¶à°°à°¥":3466,"à°¸à°İ":3467,"à°Ĺà°°à°µ":3468,"Ġà°ħà°µà°ķà°¤à°µ":3469,"à°ĸà°°à°°":3470,"à°°à°¤à°ª":3471,"Ġà°ªà°¡à°µà°²":3472,"à°¾?...":3473,"Ġ350":3474,"ic":3475,"à°Łà°Ĺà°¦":3476,"Ġà°¡à°²":3477,"à°°à°ķà°ª":3478,"Ġà°§à°°à°²à°ķ":3479,"à°īà°Ĺ":3480,"Ġà°ķà°°à°µ":3481,"Ġà°Ĩà°ªà°²":3482,"à°Ĩà°¡à°ª":3483,"à°°à°µà°ļ":3484,"ing":3485,"à°¡à°ªà°²":3486,"0220162":3487,".....\"":3488,"à°¡à°¬à°Ł":3489,"Ġà°ħà°µà°Ł":3490,"06201743":3491,"Ġà°ıà°ķà°ķ":3492,"Ġà°Ĳà°²":3493,").":3494,"à°¡à°µà°ķ":3495,"Ġà°ªà°°à°ķ":3496,"à±ģ?'":3497,"Ġà°ĺà°Łà°¨à°ķ":3498,"à°ķà°Łà°°à°®à°£":3499,"à°ĵà°µà°°":3500,"Ġà°Ķà°¤":3501,"à°°à°®à°Ĺ":3502,"à°¨à°ķà°®":3503,"à°łà°¸":3504,"à°¹à°µ":3505,"ÂłÂłÂłĠÂłÂłĠÂłĠÂłĠÂłĠÂłĠÂłĠÂłĠÂłĠÂłĠÂłĠÂłĠÂłĠÂłĠÂłĠÂłĠÂłĠÂł":3506,"à°ĺà°µà°¯":3507,"999":3508,"at":3509,"à°¸à°®à°¨":3510,"Ġà°Ĩà°²à°ķ":3511,"à°ªà°Łà°²":3512,"Ġà°ħà°Ńà°¯":3513,"à°¡à°²à°¤":3514,"Ġà°Ĩà°²à°ª":3515,"à±ĪâĢĻ":3516,"à°§à°¨à°°":3517,"Ġ69":3518,"à°Ĵà°ķà°ª":3519,"Ġà°ķà°¨à°¬à°¡à°Ł":3520,"à°¤à°¦à°¨":3521,"750":3522,"à°¶à°°à°¤":3523,"Ġà°ķà°³à°²":3524,"à°ªà°Ĺà°²à°¨":3525,"Ġd":3526,"2014":3527,"à°¦à°°à°¨":3528,"à°Łà°²à°²":3529,"à°ľà°¯à°®":3530,"Ġà°Ĭà°¬":3531,"022015":3532,"à°¦à°Ń":3533,"à°£à°Ń":3534,"Ġ130":3535,"Ġà°ªà°ķà°ªà°ķ":3536,"Ġ86":3537,"à°°à°ķà°¦":3538,"à°łà°²":3539,"à°¿?'":3540,"201627":3541,"à°¡à°¤à°¡":3542,"à°§à°µà°²":3543,"à°Ľà°¤":3544,"Ġà°Ńà°Ĺà°µà°¤":3545,"Ġà°¬à°³":3546,"à°°à°¤à°®":3547,"à°¾....?":3548,"à°¾-\"":3549,"à°ģ\"":3550,"Ġà°¨à°³":3551,"à°£à°ļ":3552,"à°¦à°¨à°ª":3553,"à°°à°¦à°¨":3554,"à°¦à°Ĺà°¤":3555,"Ġà°¸à°¡":3556,"à°Łà°°à°¨":3557,"à°¦à°Łà°Ĺ":3558,"à°ªà°Ĺà°²à°°":3559,"à°Ĥ/":3560,"à°¸à°ļ":3561,"à°®à°²à°®":3562,"à°¸à°°à°¸":3563,"Ġà°¨à°ª":3564,"ÂłÂłÂłĠÂłÂłÂłÂłÂłÂł":3565,"à°µà°¨à°ķ":3566,"Ġà°®à°§à°¨":3567,"1052015":3568,"à°Ĺà°Ń":3569,"Ġà°¤à°¸":3570,"Ġ***":3571,"à±ĩ.....\"":3572,"Ġà°ıà°İ":3573,"à°°à°³à°¯":3574,"à°¶à°¨à°Ĺ":3575,"à°ħà°ļ":3576,"à±ĩâĢĻâĢĻ":3577,"Ġà°®à°ł":3578,"à°Łà°²à°µ":3579,"ÂłÂłÂłĠÂłÂłÂłĠÂłÂłĠÂłĠÂłĠÂłĠÂłĠÂłĠÂłĠÂłĠÂł":3580,"Ġo":3581,"Ġwww":3582,"Ġà°¤à°®à°µ":3583,"Ġ68":3584,"à°Łà°ķà°°":3585,"Ġà°µà°°à°¸à°Ĺ":3586,"350":3587,"à°¶à°²à°ķ":3588,"à°¯à°¨à°¨":3589,"à°¯à°£à°ª":3590,"à°¦à°¶à°²":3591,"Ġà°Łà°µà°²":3592,"Ġ__\"":3593,"à°¤à°ķà°®":3594,"à°°à°ľà°²à°ª":3595,"Ġà°ħà°Ĺà°¸":3596,"ÂłÂłÂłĠÂłÂłÂłĠÂłÂłÂłĠÂłÂłÂłĠ":3597,"9201515":3598,"à°Ĥ......":3599,"à°ļà°¨à°Ł":3600,"à°İà°µà°¡":3601,"à°ĩà°¤à°°":3602,"à°ªà°¦à°®":3603,"à°®à°°à°ķ":3604,"Ġà°¨à°ľ":3605,"Ġà°¤à°¦à°¨":3606,"à±į.....\"":3607,"ed":3608,"Ġ...\"":3609,"à°¸à°Ĳ":3610,"à°µà°ªà°¡":3611,"âĢĻ.":3612,"Ġà°ħà°¸à°¦":3613,"à±ģ!'":3614,"Ġà°®à°¨à°¶":3615,"à°ĩà°µà°¨":3616,"Ġà°īà°ªà°µ":3617,"à°ļà°Ĺà°²à°µ":3618,"12011":3619,"âĢĮ,":3620,"Ġà°¡à°¯à°²":3621,"Ġà°¸à°¶":3622,"à°¤à°ķà°¬":3623,"Ġ700":3624,"à°·à°®à°¯":3625,"à°¨à°°à°²":3626,"Ġ2002":3627,"10920151":3628,"à°¦à°Ĺà°²":3629,"Ġà°īà°Ń":3630,"à°µà°¯à°®":3631,"Ġà°ľà°°à°ªà°¡":3632,"Ġ78":3633,"110201516":3634,"à°³à°°":3635,"à°ĩà°¤à°¨":3636,"à°¿.'":3637,"11201748":3638,"Ġà°ľà°°à°Ĺà°Ł":3639,"à°ĭ":3640,"à°¤à°ªà°¨":3641,"à°®à°¨à°®":3642,"à°°à°¬à°²":3643,"ÂłÂłÂłĠÂłÂłÂłĠÂłÂłĠÂłĠÂłĠÂłĠÂłĠÂłĠÂłĠÂłĠÂłĠÂłĠÂłĠÂłĠÂł":3644,"Ġà°¸à°¤à°®à°¤à°®à°µ":3645,"à°Ńà°°à°¤":3646,"Ġà°Ĩà°°à°µ":3647,"Ġà°ªà°¡à°¦":3648,"102015158":3649,"à°¹à°Ł":3650,"à°ħà°¬à°¦":3651,"à°Ĺà°°à°¯":3652,"102015159":3653,"092015149":3654,"à°µà°¤à°°":3655,"à°Ĺà°ķà°ª":3656,"à°¿âĢĻ.":3657,"Ġà±¦":3658,"à°¨à°²à°¤":3659,"Ġà°Ńà°¨":3660,"Ġà°¶à°²à°µ":3661,"à±įâĢĮâĢĻâĢĻ":3662,"à±Ĥ....\"":3663,"à±Īà±ĸ":3664,"à°ľà°¨à°¤":3665,"à°ĥ\"":3666,"Ġto":3667,"3201737":3668,"à°ľà°¤":3669,"Ġà°ķà°²à°¹":3670,"à°ĩà°°à°µ":3671,"à°²à°µà°Ł":3672,"à°µà°ķà°®":3673,"Ġ2020":3674,"à°µà°ªà°¤":3675,"à°Ĺà°§":3676,"Ġ96":3677,"Ġà°Ńà°Ĺà°µà°¦":3678,"Ġà°¹à°«":3679,"12104":3680,"à°¾?âĢĻâĢĻ":3681,"092015156":3682,"ra":3683,"à°¦à°¹":3684,"à°¸à°¡":3685,"Ġà°¸à°ĸ":3686,"Ġ/":3687,"à°£à°¯à°®":3688,"à°Ĩà°Ĺà°¸":3689,"Ġà°ķà°²à°Ĺà°¡":3690,"Ġ84":3691,"Ġà°ªà°®":3692,"Ġ110":3693,"Ġà°²à°·":3694,"à°®à°ķà°¥":3695,"Ġ61":3696,"___":3697,"à°Ĩà°¯à°¨à°ķ":3698,"ĉÂłčĊ":3699,"à°¨à°Ĺà°²":3700,"à°Łà°¨à°°":3701,"Ġà°¤à°²à°ªà°¡à°¨":3702,"à°Īà°¨":3703,"10620162":3704,"à°¡à°ķà°²":3705,"ÂłÂłÂłĠÂłĠÂłĠÂłĠÂłĠÂłĠÂłĠÂłĠÂłĠÂłĠÂłĠÂłĠÂł":3706,"Ġà°·à°ķ":3707,"11020163":3708,"Ġà°Ĩà°ļà°°à°£":3709,"à°§à°°à°®":3710,"à°£à°ªà°¤":3711,"11201":3712,"Ġà°Ĺà°Ĺà°¨":3713,"à°ķà°°à°¨":3714,"à°µà°¨à°¨":3715,"à°²à°ªà°Ł":3716,"Ġà°Ĵà°ķà°¤à°¨":3717,"à±ģ......\"":3718,"Ġà°ĺà°¨à°µ":3719,"Ġà°¯à°¶à°¸":3720,"à°Łà°²à°¯":3721,"à°Ĳà°¨":3722,"à°¿âĢĻ,":3723,"à°¾...?\"":3724,"10320162":3725,"Ġ.....\"":3726,"Ġà°Ĺà°ª":3727,"Ġ1200":3728,"à°¬à°°à°ªà°¡":3729,"Ġà°Ĩà°¡à°¡":3730,"Ġà°µà°²à°¸à°²":3731,"Ġ2003":3732,"à°īà°¸":3733,"à°Ńà°Ł":3734,"Ġà°Ĩà°ªà°¦à°²":3735,"à°¦à°¨à°°":3736,"Ġà°®à°¨à°µà°°":3737,"0120158":3738,"à°½à°¥":3739,"Ġà°®à°µ":3740,"à°·à°¨à°ķ":3741,"Ġ89":3742,"Ġà°İà°Ĺà°¬":3743,"Ġà°¸à°¬à°¬":3744,"ÂłÂłÂłĠÂłÂłĠÂłĠÂłĠÂłĠÂł":3745,"à°¨à°¤à°®":3746,"à°¯à°¹":3747,"à°Ńà°ª":3748,"à±ģâĢĻ,":3749,"8201629":3750,"le":3751,"Ġà°ľà°°à°ķ":3752,"à°Ĳà°Ĳ":3753,"420174":3754,"Ġà°ªà°¹":3755,"à°¦à°°à°£":3756,"Ġà°Ĩà°µà°¹":3757,"Ġà°Ĭà°¸":3758,"Ġà°¨à°¡à°ª":3759,"Ġà°Ĩà°¡à°¬":3760,"11120163":3761,"Ġà°¤à°¹à°¤":3762,"Ġà°ķà°Łà°ķà°Ł":3763,"Ġ73":3764,"à°ħà°µà°¸à°°":3765,"ÂłÂłÂłÂłÂłÂłÂłÂłÂłÂłÂłÂłÂłÂłÂłÂłÂłÂłÂłÂłÂłÂłÂłÂłÂłÂłÂłÂłÂłÂłÂłÂłÂłÂłÂłÂłÂłÂłÂłÂłÂłÂłÂłÂłÂłÂłÂłÂłÂłÂłÂłÂłÂłÂłÂłÂłÂłÂłÂłÂłÂłÂłÂłÂłÂłÂłÂłÂłÂłÂłÂłÂłÂłÂłÂłÂłÂłÂłÂłÂłÂłÂłÂłÂłÂłÂłÂłÂłÂłÂłÂłÂłÂłÂłÂłÂł":3766,"12012":3767,"tt":3768,"à°¸à°²à°°":3769,"à°ķà°ªà°²":3770,"à°¤à°²à°²":3771,"à°ļà°İ":3772,"à°¨à°µà°¸":3773,"à°°à°Ĺà°ķ":3774,"à°¾à°Ĥ....":3775,"à°ĸà°¦":3776,"à°ıà°¨":3777,"101201735":3778,"Ġà°ķà°µà°ļ":3779,"à°¡à°ķà°Ł":3780,"Ġà°İà°Ĺà°¬à°¡":3781,"Ġà°ķà°²à°ķà°¤":3782,"à°Łà°¨à°Ł":3783,"112201634":3784,"à°¨à°µà°²":3785,"201635":3786,"Ġà°İà°ķà°¨":3787,"ÂłÂłÂłÂłĠčĊ":3788,"Ġà°¬à°¹à°¦":3789,"à°·à°ªà°¡":3790,"à°°à°µà°¤":3791,"à°ĵà°ª":3792,"10620174":3793,"à°³à°¨à°¨":3794,"Ġà°ħà°²à°¸à°Ł":3795,"à°¬à°µ":3796,"à°²à°ķà°µà°°":3797,"à°ķà°Ń":3798,"à°Łà°¤à°ķ":3799,"ÂłÂłÂłĠÂłĠÂłĠÂłĠÂłĠÂłĠÂłĠÂłĠÂł":3800,"à°¹à°£":3801,"Ġà°¹à°¸à°¨":3802,"à°¨à°®à°µ":3803,"à°ľà°¯à°¶":3804,"à°¶à°²à°¨":3805,"Ġà°ĵà°¨":3806,"Ġ83":3807,"Ġà°¬à°¤à°ķà°¡":3808,"à±Ī...":3809,"2000":3810,"à°¯à°Ĺà°²à°µ":3811,"Ġà°ķà°¯":3812,"Ġà°Ĵà°µ":3813,"à°¹à°ł":3814,"Ġà°¯à°ķ":3815,"à°Ľà°®":3816,"à°ĺà°Łà°¨à°¤":3817,"à±ĭ!!":3818,"Ġà°Ķà°°":3819,"Ġà°¨à°Ĺà°°à°µ":3820,"Ġ160":3821,"Ġà°ķà°²à°µà°°à°ªà°¡":3822,"52016236":3823,"Ġà°ļà°²à°®à°¯":3824,"Ġà°ĵà°¹":3825,"à°ĩà°ļ":3826,"Ġ--":3827,"Ġà°µà°¦à°²à°ķ":3828,"Ġà°¨à°¡à°µà°¸":3829,"Ġà°Ńà°¯à°ªà°¡à°ķ":3830,"0920174":3831,"Ġà°ķà°¥à°¤":3832,"03201622":3833,"ĠS":3834,"à°µà°°à°ª":3835,"à°°à°®à°£à°²":3836,"à°³à°¨à°¤":3837,"à°īà°°":3838,"0120157":3839,"Ġà°¶à°°à°¦":3840,"Ġà°Īà°®à°§":3841,"à°ħà°«":3842,"à±į-\"":3843,"Ġà°Ĺà°ľà°ªà°¤":3844,"à°²à°µà°Ĺ":3845,"112016334":3846,"Ġà°ķà°²à°¦":3847,"Ġà°¨à°¡à°ªà°¡":3848,"Ġ2001":3849,"à°¦à°ķà°ª":3850,"Ġà°²à°¯":3851,"Ġà°¤à°Ĺà°¦à°¨":3852,"Ġà°ħà°µà°ķà°¤à°µà°ķà°²":3853,"à°Łà°¤à°¡":3854,"à°¸à°²à°¨":3855,"Ġà°¤à°°à°¤à°°":3856,"à°¿.)":3857,"Ġà°¦à°¯à°¨":3858,"Ġà°ħà°ªà°ķ":3859,"Ġà°¤à°®à°²":3860,"Ġand":3861,"Ġà°¦à°¡":3862,"Ġà°ħà°¨à°¨":3863,"à°°à°¤à°Ĺ":3864,"Ġà°Ĳà°Ĩà°°":3865,"Ġà°¤à°Ĺà°²à°¡":3866,"à°µà°®à°°":3867,"à°ħà°µà°¨":3868,"à°ķà°Łà°¯":3869,"Ġà°Ĩà°¡à°ªà°¡":3870,"à°Ńà°ľà°¨à°ķ":3871,"à°¨à°ļà°°":3872,"à°ķà°Ĺà°¦":3873,"Ġà°¡à°ķ":3874,"Ġ92":3875,"à±ĩ-\"":3876,"à°Ķà°¨":3877,"720151":3878,"Ġà°¬à°¦à°²":3879,"à°°à°¸à°ªà°¡":3880,"Ġà°ħà°§à°°":3881,"Ġà°ħà°¡à°ª":3882,"Ġà°Ĳà°¤":3883,"à°ªà°¦à°µ":3884,"à°¾....?\"":3885,"à°ķà°ļà°ķ":3886,"à°²à°ķà°Ł":3887,"à°°à°µà°Ĺ":3888,"à°ĵà°Ł":3889,"à°ĺà°Łà°¨à°ķ":3890,"à°§à°ªà°¡à°¤":3891,"à°¯à°¦à°²":3892,"à±ĤâĢĻ":3893,"à°¦à°¨à°®":3894,"509":3895,"920163":3896,"à°¥à°¯":3897,"112016339":3898,"Ġà°ķà°²à°µà°°à°ª":3899,"12010":3900,"el":3901,"à°¿.......":3902,"à°¶à°°à°¥":3903,"Ġ76":3904,"Ġ123":3905,"112016330":3906,"112016337":3907,"ro":3908,"à°«à°£":3909,"à°¯à°Ĺà°²à°¦":3910,"112016338":3911,"à°¾),":3912,"à°Ĺà°¤à°®":3913,"à°Īà°Ĩà°°":3914,"à±Ģ......":3915,"Ġà°Īà°¯":3916,"à°¦à°²à°ª":3917,"à°²à°¬à°¸":3918,"8201745":3919,"st":3920,"à°Ļ":3921,"Ġà°ıà°Ń":3922,"1220163":3923,"à°¾?:":3924,"Ġà°ªà°²à°ķà°²":3925,"à°¡à°°à°¨":3926,"à°¡à°°à°²":3927,"Ġà°Ĩà°µà°¶":3928,"Ġà°°à°µà°³":3929,"ma":3930,"ĠM":3931,"Ġà°ķà°¬à°¡":3932,"Ġà°ľà°¯à°ķ":3933,"à°¤à°°à°¹":3934,"à°¯à°ªà°°à°®":3935,"8201630":3936,"à±Ĩ...":3937,"Ġà°µà°¨à°¸":3938,"Ġ77":3939,"Ġà°ªà°§":3940,"ÂłÂłÂłĠÂłÂłÂłÂłÂłÂłÂłÂłÂłÂłÂłÂłÂłÂłÂłÂłÂłÂłÂłÂłÂłÂłÂłÂłÂłÂłÂłÂłÂłÂłÂłÂłÂłÂłÂłÂłÂłÂłÂłÂłÂłÂłÂłÂłÂłÂłÂłÂł":3941,"Ġ-\"":3942,"Ġà°®à°²à°ļ":3943,"5201624":3944,"à±ĭ......":3945,"à°Ĺà°ªà°¡à°¤":3946,"à°¬à°Ĺ":3947,"Ġà°¬à°·":3948,"Ġà°®à°°à°¦à°²":3949,"à°¦à°²à°®":3950,"Ġ87":3951,"Ġ79":3952,"Ġà°ķà°¦à°²à°¡":3953,"072015127":3954,"à°¤à°ªà°Ł":3955,"à°Łà°ªà°²":3956,"à°¬à°¬":3957,"Ġ71":3958,"Ġà°ľà°°à°Ĺà°ķà°ª":3959,"072015134":3960,"à°§à°²à°¨":3961,"Ġ97":3962,"à°²à°¨à°ª":3963,"Ġà°ıà°ļ":3964,"Ġà°ħà°¤à°Ĺ":3965,"Ġà°¬à°²à°µà°¨":3966,"à°ĺà°Łà°¨à°¨":3967,"Ġin":3968,"Ġà°Ńà°³":3969,"Ġà°İà°²à°°":3970,"à°°à°Ĺà°¬":3971,"à°ĺà°Łà°¨à°ª":3972,"102016327":3973,"6201742":3974,"à°²à°µà°°à°ķ":3975,"âĢĮ:":3976,"à°¥à°²à°ª":3977,"ÂłÂłÂłĠÂłÂłÂłÂłÂłÂłÂł":3978,"Ġà°Ĩà°°à°¬":3979,"12201":3980,"à°µà°¨à°²":3981,"à°Ĺà°®à°§":3982,"112015176":3983,"062015117":3984,"Ġà°ļà°®à°¤":3985,"à°°à°®à°²à°¨":3986,"Ġà°¯à°Ĺ":3987,"Ġà°ıà°ķà°®":3988,"à°ĸà°ªà°¡":3989,"à°·à°£à°°":3990,"à°µà°ªà°°":3991,"à°¯à°®à°Ĺ":3992,"à°ļà°¨à°®":3993,"082015138":3994,"4201623":3995,"à°Ĺà°µà°²":3996,"Ġà°ĩà°«":3997,"Ġà°Ĺà°¸":3998,"Ġ104":3999,"à°ķà°Łà°¸":4000,"Ġà°ķà°®à°²à°¨":4001,"0620151":4002,"à°¸à°İà°²":4003,"Ġ94":4004,"à°ĵà°²":4005,"102016319":4006,"4201510":4007,"Ġà°ªà°§à°ķ":4008,"ÂłÂłÂłÂłÂłĠ":4009,"à±įâĢĮ?":4010,"à°ľà°¯à°¸":4011,"Ġà°ıà°Ĩà°°":4012,"10104":4013,"à°ľà°®à°£":4014,"Ġà°ĺà°Łà°¨à°¤":4015,"à°²à°®à°²":4016,"Ġà°ĩà°µà°¤à°²":4017,"à°¢à°ļ":4018,"Ġ88":4019,"Ġà°ĭà°ķ":4020,"Ġà°ĩà°°à°µà°¯":4021,"à°ªà°Ń":4022,"Ġà°ħà°½à°§":4023,"112016329":4024,"à°ķà°ªà°Ł":4025,"à°Ĳà°¤":4026,"à°Īà°ľ":4027,"à°§à°ªà°¡à°ķ":4028,"102016318":4029,"tion":4030,"Ġà°®à°¤à°ª":4031,"Ġà°Ĺà°¯":4032,"à°¦à°°à°¦à°¨":4033,"Ġà°ħà°ªà°¶":4034,"à°ķà°¤à°¤":4035,"052015107":4036,"à°¾_":4037,"à°®à°ķà°°à°£":4038,"Ġà°ķà°§à°²":4039,"à°¿...?":4040,"082017449":4041,"à°¤à°§":4042,"à±ĩ_":4043,"à±ĩ__":4044,"Ġà°ĩà°Ĺ":4045,"à°£à°®à°¯":4046,"Ġà°ıà°İà°¨":4047,"à°°à°Ĺà°¦":4048,"à°µà°¸à°¤":4049,"âĢĮ.":4050,"Ġà°ľà°¨à°®":4051,"à°¥à°²à°®":4052,"à°®à°¦à°Ĺ":4053,"102016326":4054,"072015130":4055,"1500":4056,"Ġn":4057,"à°ľà°Ł":4058,"à°¹à°¹":4059,"Ġ82":4060,"à°¤à°°à°²":4061,"Ġà°¤à°Łà°¸":4062,"Ġà°°à°£à°§":4063,"Ġà°¸à°µà°¤":4064,"Ġ101":4065,"à°¤à°°à°£à°ķ":4066,"Ġà°ħà°°à°¡":4067,"11104":4068,"Ġà°ªà°¡à°¬":4069,"à°Ĺà°³à°¸":4070,"à°Ĭà°ª":4071,"Ġà°Ńà°ľà°¨":4072,"Ġà°¡à°ľà°¨":4073,"Ġà°Ĳà°Łà°®":4074,"à°¤à°ķà°²":4075,"Ġà°¦à°µ":4076,"à°¾à°Ĥ-":4077,"Ġà°®à°¨à°¤":4078,"à°¤à°Ĺà°¡":4079,"Ġà°µà°¦à°²à°¡":4080,"à°ķà°ªà°¡":4081,"Ġ102":4082,"à°ªà°°à°ļà°¡":4083,"0520151":4084,"à±ģâĢĻ.":4085,"Ġà°Ĩà°Łà°ķ":4086,"à°Ĵà°¡":4087,"à°ªà°®à°¤":4088,"Ġà°Īà°İ":4089,"Ġà°Ĳà°¯":4090,"03201739":4091,"Ġà°İà°¡à°®à°µ":4092,"Ġà°ķà°°à°ķ":4093,"Ġà°ĵà°°à°Ĺ":4094,"à°°à°ľà°²à°²":4095,"Ġà°®à°¹à°¨":4096,"à°®à°²à°Ĺ":4097,"à°ĤâĢĻ,":4098,"122016350":4099,"à°İà°ķà°°":4100,"à°µà°²à°¤":4101,"à°°à°£à°µ":4102,"à°Īà°ª":4103,"à°Ľà°Ń":4104,"à°Łà°²à°ķà°²":4105,"à°·à°Ń":4106,"Ġà°ħà°ªà°¸":4107,"à°ıà°Ĳ":4108,"092016316":4109,"à°Ĺà°ªà°¤":4110,"à°°à°¤à°ķà°¡":4111,"Ġà°°à°®à°£à°¯":4112,"Ġà°Ĺà°²à°Ĺà°²":4113,"ĠC":4114,"Ġà°ĩà°¨à°¸":4115,"à±Ģ||":4116,"Ġà°Īà°Ĺ":4117,"Ġà°ĩà°ķà°®":4118,"072017436":4119,"06201742":4120,"Ġis":4121,"à°²à°·":4122,"à°¸à°Ĩà°°":4123,"Ġà°¸à°®à°·":4124,"Ġ93":4125,"à°¸à°Ĺà°£à°ªà°¤":4126,"---":4127,"à°Ĥ_":4128,"Ġà°ħà°¨à°µà°¸à°°à°®":4129,"Ġà°ªà°°à°§":4130,"Ġà°ħà°®à°°à°µ":4131,"Ġà°Ĩà°¡à°Ł":4132,"ch":4133,"à°Łà°¸à°Ńà°²":4134,"à°¡à°¤à°Ĺ":4135,"à°£à°ªà°Ł":4136,"Ġ1990":4137,"Ġà°ľà°²à°¸":4138,"Ġà°ľà°®à°ļ":4139,"à°Ĥ__":4140,"à°¡à°µà°°":4141,"Ġà°Ĩà°°à°Ĺ":4142,"Ġà°¨à°¡à°ļ":4143,"Ġà°ħà°£à°Ĺ":4144,"à°²à°Ńà°®":4145,"à°ļà°¯à°®à°¯":4146,"Ġà°¸à°«à°²":4147,"à°ļà°²à°ªà°¤":4148,"Ġà°ħà°µà°¸à°°à°®à°µ":4149,"Ġà°µà°¨à°ªà°°":4150,"à°Ĺà°£à°²":4151,"Ġà°¨à°ľà°°":4152,"à°³à°ļ":4153,"Ġà°¦à°¡à°¦":4154,"Ġ1980":4155,"160":4156,"à°¯à°£à°¨":4157,"Ġà°ªà°Ĺà°²à°Ĺ":4158,"à°ĸà°ļ":4159,"à°ķà°¡à°ªà°²":4160,"ĠÂłÂłĠÂłĠÂłĠÂłĠÂłĠÂłĠÂłĠÂłĠÂł":4161,"à°¨à°Ĺà°¦":4162,"à±Ĩ..":4163,"Ġà°İà°¡à°¤":4164,"à°ķà°²à°®":4165,"Ġà°İà°¨à°Ń":4166,"à°Ĳà°Ĳà°¸":4167,"42016228":4168,"//":4169,"Ġà°¬à°²à°¯":4170,"Ġà°Ĩà°¡à°¤":4171,"Ġ900":4172,"à°Īà°ĵ":4173,"Ġà°Ĵà°ķà°°à°ķ":4174,"Ġ1800":4175,"à°¸à°Ĺà°¢":4176,"062016259":4177,"12102":4178,"à°Łà°¨à°µ":4179,"à°ıà°İ":4180,"Ġà°Ĭà°¦":4181,"à°ľà°¯à°¦":4182,"Ġà°Ńà°¯à°Ń":4183,"Ġà°ªà°°à°®à°¶":4184,"Ġà°¤à°Ĺà°²à°¬":4185,"à°¸à°İà°¸":4186,"Ġà°ħà°¡à°Ĺà°¨":4187,"Ġà°Ľà°¸":4188,"à°Łà°ªà°Ĺà°²":4189,"à°ĵà°¯":4190,"102017476":4191,"103201738":4192,"à°®à°¨à°¡":4193,"Ġ1999":4194,"à±ĢâĢĮ":4195,"Ġà°ħà°¤à°²":4196,"à±ĩà°Ĥ!":4197,"à°¯à°£à°ķ":4198,"082017457":4199,"ad":4200,"à°°à°¸à°¨à°ķ":4201,"Ġà°Ĺà°¡à°ªà°¡":4202,"Ġà°ĺà°Łà°¨à°¨":4203,"Ġà°ķà°¨à°ªà°¡à°²":4204,"062017427":4205,"à°¸à°ķà°°":4206,"à°¾?..":4207,"Ġà°ħà°°à°¡à°ľà°¨":4208,"à°µà°¬à°¡":4209,"à°Ĺà°¬à°Ł":4210,"à°¶à°¨à°¤":4211,"11102":4212,"à°ľà°¨à°µà°°":4213,"042017404":4214,"à°Ĺà°£à°®":4215,"à°¬à°³":4216,"à°ķà°¡à°¯":4217,"Ġà°Ĩà°ķà°¤":4218,"112016335":4219,"à°¨à°ķà°¡":4220,"à°¡à°®à°°":4221,"Ġà°Īà°İà°¨":4222,"Ġà°ķà°²à°¤":4223,"201596":4224,"Ġà°Ĭà°¤":4225,"à°Īà°®":4226,"052017419":4227,"Ġà°°à°£à°¦":4228,"à±ģ).":4229,"320159":4230,"Ġà°ļà°¦à°µà°²":4231,"112017486":4232,"à°¡à°µà°¡":4233,"à°ľà°®à°¯":4234,"Ġà°«à°²à°ķ":4235,"Ġà°ķà°¨à°ķà°¦":4236,"à°Łà°²à°®":4237,"à°ªà°ķà°®":4238,"Ġà°Ĩà°Ĺà°®":4239,"à°ŀà°²":4240,"Ġà°ķà°¨à°¬à°¡à°ķ":4241,"à°¯à°¶à°ķ":4242,"à°¾à°Ĥ'":4243,"à°ªà°²à°®":4244,"à°°à°§à°®":4245,"Ġà°®à°°à°£à°¶":4246,"à±įâĢĮ..!":4247,"à°°à°²à°²":4248,"à°®à°¨à°²":4249,"à°¿......\"":4250,"à°Ĥ!!":4251,"112017496":4252,"062015120":4253,"Ġà°°à°¯":4254,"Ġà°Ĳà°İà°¨":4255,"à°Łà°¬à°¯à°²":4256,"042017400":4257,"8201514":4258,"7201627":4259,"à°µà°µà°²à°¸":4260,"Ġà°ħà°µà°¶":4261,"à°Ĳà°¯":4262,"Ġà°īà°ªà°İà°¨":4263,"à°Ĺà°¡à°®":4264,"Ġ180":4265,"à°ľà°ľ":4266,"Ġà°Ńà°¤":4267,"à°°à°£à°¤":4268,"à°¡à°²à°ª":4269,"Ġ1985":4270,"Ġà°Ĩà°Łà°¤":4271,"à°°à°ªà°°à°ļ":4272,"à°¯à°ªà°¨":4273,"à°ĩà°¡":4274,"à°ķà°¨à°¬":4275,"Ġà°ķà°°à°ļ":4276,"Ġ1998":4277,"à°Łà°µà°°":4278,"à°·à°Łà°ª":4279,"Ġà°¤à°¨à°ļ":4280,"Ġà°ħà°ªà°µ":4281,"Ġà°Ĳà°¬":4282,"Ġ1996":4283,"à°ľà°Ĺà°¦":4284,"Ġà°¶à°®":4285,"082016299":4286,"Ġy":4287,"Ġà°¬à°²à°ª":4288,"Ġà°ħà°²à°¸à°¤":4289,"à°¤à°²à°®":4290,"Ġà°ķà°¦à°²à°²":4291,"122015188":4292,"052016238":4293,"112201750":4294,"Ġà°Ĩà°Łà°¨":4295,"à°¿!'":4296,"à°¯à°£à°ĸ":4297,"ve":4298,"à°·à°¨à°¨":4299,"à°ļà°¨à°ª":4300,"à°ķà°°à°£à°¤":4301,"112015177":4302,"Ġà°¨à°Ĺà°°à°®":4303,"052017408":4304,"ce":4305,"à°®à°ķà°ª":4306,".......":4307,"Ġà°Ĭà°Ł":4308,"à°°à°§à°°":4309,"Ġ140":4310,"Ġà°ªà°ľ":4311,"Ġà°µà°²à°ª":4312,"Ġà°Ĺà°¡à°Ĺà°¡":4313,"à°Ĵà°¸":4314,"à°®à°¹à°²":4315,"à°°à°Ĺà°°":4316,"à±Ģ!'":4317,"à°ľà°¹":4318,"Ġà°ıà°ķà°°":4319,"10102":4320,"à°·à°²à°®":4321,"à°µà°¸à°Ń":4322,"Ġà°Ĭà°¹à°ķ":4323,"Ġà°ĭà°£":4324,"Ġà°¨à°Łà°°":4325,"à°¹à°°à°£à°²":4326,"Ġà°ħà°¡à°Ĺà°ķ":4327,"à°¤à°®à°®":4328,"Ġà°ĺà°¡":4329,"102016325":4330,"052017415":4331,"Ġ=":4332,"à°µà°²à°ªà°°":4333,"à°°à°µà°¯":4334,"Ġà°ĸà°¤":4335,"Ġà°¦à°¶à°²à°µ":4336,"à°°à°²à°®":4337,"Ġà°°à°Ł":4338,"Ġà°Ĩà°¡à°¨":4339,"ÂłÂłÂłĠÂłÂłÂłÂł":4340,"Ġà°Ĩà°°à°¡":4341,"Ġà°ªà°¨à°¯":4342,"Ġà°Ĩà°¡à°ķ":4343,"052016246":4344,"Ġà°µà°°à°®":4345,"Ġà°ħà°ľà°°":4346,"Ġà°¡à°®":4347,"Ġà°ĵà°İà°¸":4348,"Ġà°ªà°¡à°ķà°ª":4349,"se":4350,"Ġà°ķà°ľ":4351,"Ġà°²à°¯à°¨":4352,"à°²à°ķà°¡":4353,"Ġà°ıà°ķà°¤":4354,"à°¦à°°à°°":4355,"à°ħà°¡à°µ":4356,"à°Ĥ..!":4357,"à°¸à°Ńà°ķ":4358,"102017477":4359,"à°ķà°¤à°ķ":4360,"Ġà°¨à°°à°¹à°°":4361,"à°Ńà°¯à°ªà°¡":4362,"à°°à°ªà°¦":4363,"ĠD":4364,"Ġà°ħà°¨à°¬à°¡":4365,"à°«à°¯":4366,"à°Łà°ªà°¡à°Ł":4367,"à°Ĺà°¡à°²":4368,"Ġà°«à°²à°®":4369,"à°ķà°°à°£à°²à°ķ":4370,"ÂłÂłÂłĠÂłÂłÂłĠÂłÂłÂłĠÂłÂłÂłÂłÂłÂłÂłÂłÂłÂłÂłÂłÂłÂłÂłÂł":4371,"à°²à°¯à°®":4372,"Ġà°®à°ķà°°":4373,"à°İà°²à°ķ":4374,"à°¤à°¨à°¤":4375,"à°µà°²à°¯":4376,"450":4377,"ot":4378,"à°Łà°ķà°Ł":4379,"Ġà°¯à°¡":4380,"1062015":4381,"ĠB":4382,"à°¬à°²à°ªà°¤":4383,"Ġà°¨à°Łà°¨à°ķ":4384,"à°Łà°ªà°Ł":4385,"à°¾à°Ĥ...\"":4386,"Ġà°¡à°ª":4387,"Ġà°¸à°°à°¯":4388,"à°ĩà°¹":4389,"à°®à°¨à°Ĺ":4390,"Ġà°µà°°à°ķà°Ł":4391,"122017513":4392,"Ġl":4393,"à°°à°¯à°®":4394,"à°³à°ķà°ª":4395,"à°¹à°Ĺ":4396,"Ġà°²à°µà°ķ":4397,"Ġà°ħà°²à°®à°Ł":4398,"à°µà°¨à°Ĺà°°":4399,"à°Ĵà°ª":4400,"à°¤à°µà°ķ":4401,"à°¸à°²à°¤":4402,"Ġà°®à°²à°ķ":4403,"à±ģ.âĢĻâĢĻ":4404,"ÂłÂłÂłĠÂłÂłÂłÂłÂł":4405,"à°Ĩà°ĸà°°":4406,"Ġà°ĵà°Ĩà°°":4407,"à°µà°¡à°¨":4408,"Ġà°µà°°à°¦à°¨":4409,"Ġà°Ĩà°Ĺà°¦":4410,"Ġà°Ĺà°£à°¤":4411,"Ġà°ļà°²à°¨à°ļ":4412,"2013":4413,"à°Ĩà°ķà°²":4414,"Ġà°ķà°²à°ļ":4415,"Ġà°Ĩà°¯à°¨à°¦":4416,"à°Ĺà°²à°®":4417,"à°ıà°Ī":4418,"à°ĩà°¬":4419,"140":4420,"Ġà°¨à°µà°°":4421,"Ġà°¹à°Ł":4422,"082015145":4423,"101201619":4424,"à°ķà°Łà°¨":4425,"à°¸à°²à°®":4426,"Ġà°Ĺà°²à°¦":4427,"Ġà°¸à°®à°°à°¯":4428,"à°ķà°°à°£à°²à°¨":4429,"112017488":4430,"102016320":4431,"042016229":4432,"ĠÂłÂłÂłĠčĊ":4433,"Ġà°¸à°Ĺà°°":4434,"Ġà°ķà°¡à°ªà°²":4435,"à±ģà±ģ":4436,"à°°à°¦à°²":4437,"à°¦à°²à°²":4438,"à°®à°¯à°¤":4439,"à°®à°¶à°ķ":4440,"à°¹à°¨à°ķ":4441,"Ġà°«à°¨":4442,"à±į..!":4443,"ÂłÂłÂłĠÂłÂłÂłĠÂłĠÂłĠÂłĠÂłĠÂłĠÂłĠÂłĠÂłĠÂłĠÂłĠÂłĠÂłĠÂłĠÂłĠÂłĠÂł":4444,"072016276":4445,"à°²à°¤à°¨":4446,"à°¿.âĢĻâĢĻ":4447,"à°ªà°¡à°¦":4448,"2017459":4449,"à°ªà°£à°²à°¤":4450,"Ġà°ªà°Ĺà°²à°¬à°¡":4451,"Ġà°¨à°°à°®":4452,"à°·à°¬":4453,"à°·à°²à°²":4454,"Ġà°®à°§à°¨à°ªà°¡":4455,"à°¡à°µà°ªà°¡":4456,"à°§à°¨à°Ĺ":4457,"à°°à°ļà°¯":4458,"à°µà°¹à°£à°ª":4459,"082016298":4460,"Ġà°¤à°°à°£":4461,"à°µà°¤à°¹":4462,"à°°à°ķà°Łà°¨à°¨":4463,"ÂłÂłÂłĠÂłÂłĠÂłĠÂłĠÂłĠÂłĠÂłĠÂłĠÂłĠÂłĠÂłĠÂłĠÂłĠÂłĠÂłĠÂłĠÂłĠÂłĠÂłĠÂłĠÂłĠÂłĠÂłĠÂłĠÂłĠÂł":4464,"à°¦à°°à°¬":4465,"à°«à°Ł":4466,"Ġ450":4467,"à°²à°¬à°¡à°²":4468,"092015150":4469,"Ġà°Ĩà°¨à°ķà°Ł":4470,"à°²à°¸à°®":4471,"Ġà°ªà°£":4472,"Ġà°²à°ĺ":4473,"à°®à°°à°ļ":4474,"Ġ91":4475,"Ġ144":4476,"go":4477,"Ġà°ħà°²à°¨":4478,"à°ħà°°à°µ":4479,"09201747":4480,"à°Łà°µà°²à°¸":4481,"à°¯à°Ńà°°":4482,"à°µà°ķà°°":4483,"à°łà°Ĺ":4484,"Ġà°ĩà°¨à°ļ":4485,"ÂłÂłÂłĠÂłÂłÂłĠÂłÂłĠÂłĠÂłĠÂłĠÂłĠÂłĠÂłĠÂłĠÂłĠÂłĠÂłĠÂłĠÂłĠÂłĠÂłĠÂłĠÂł":4486,"52017406":4487,"à°ķà°®à°¯":4488,"à°Łà°Ńà°¦":4489,"Ġà°ıà°Ī":4490,"Ġ103":4491,"Ġà°Ĩà°¶à°²à°¨":4492,"201517":4493,"Ġà°Ľà°Łà°°":4494,"Ġà°Ńà°¯à°ªà°¡à°¤":4495,"320":4496,"ÂłÂłÂłÂłÂłÂłÂłÂłÂłÂłÂłÂłÂłÂłÂłÂłÂłÂłÂłÂłÂłÂłÂłÂłÂłÂłÂłÂłÂłÂłÂłÂłÂłÂłÂłÂłÂłÂłÂłÂłÂłÂłÂłÂłÂłÂłÂłÂłÂłÂłÂłÂłÂłÂłÂłÂłÂłÂłÂłÂłÂłÂłÂłÂłÂłÂłÂłÂłÂłÂłÂłÂłÂłÂłÂłÂłÂłÂłÂłÂł":4497,"Ġ)":4498,"Ġà°ķà°¡à°²":4499,"à°¶à°ªà°¡":4500,"à±Ĭ.":4501,"Ġà°Ĺà°Ń":4502,"à°ħà°µà°ķ":4503,"à°µà°¨à°¤":4504,"à°§à°ªà°¡à°²":4505,"à°ĭà°·":4506,"356":4507,"id":4508,"à±§":4509,"à°ķà°³à°ķ":4510,"à°®à°®à°¨":4511,"à°®à°¤à°²":4512,"à°£à°²à°ķ":4513,"Ġ81":4514,"à°Ńà°µà°ľ":4515,"Ġà°«à°²à°¹":4516,"à°ĵà°¡":4517,"107201626":4518,"Ġà°ªà°²à°ķà°¡":4519,"à°Ĺà°¡à°ķ":4520,"Ġà°¸à°¬à°°":4521,"à°·à°µà°°":4522,"Ġà°ľà°Ĺà°®":4523,"à°¦à°¨à°²à°ķ":4524,"Ġ105":4525,"à°ªà°ķà°¶à°ķ":4526,"Ġà°ķà°°à°ªà°¤":4527,"Ġà°Ĺà°ľà°¦":4528,"à°«à°²à°®à°µ":4529,"082015137":4530,"à°¤à°¤à°²":4531,"à±ĭ_":4532,"Ġà°Ĩà°µà°ķ":4533,"Ġà°Ńà°ľ":4534,"Ġ106":4535,"à°Ĩà°¡à°µ":4536,"Ġà°¬à°²à°¶":4537,"à°²à°¡à°¯":4538,"Ġ.......":4539,"II":4540,"à°ķà°¥à°²":4541,"Ġà°ĩà°¨à°ª":4542,"10109":4543,"à°ĺà°Łà°¨à°²à°¨":4544,"à°Łà°ªà°¡à°¨":4545,"10820162":4546,"ĠE":4547,"à°Ĥ;":4548,"à°Łà°ķà°°à°®à°¨":4549,"Ġà°²à°ļ":4550,"Ġà°ķà°²à°ªà°¡":4551,"à°·à°¯à°®à°¨":4552,"à±ģ...?":4553,"Ġà°®à°Ĺà°¤":4554,"Ġà°°à°¸à°®":4555,"Ġà°ľà°¯à°®":4556,"12107":4557,"à°§à°ªà°¡à°Ł":4558,"à°®à°°à°¸à°®":4559,"ĠR":4560,"à±ĭ__":4561,"Ġà°®à°°à°ķà°²":4562,"à°¡à°Ĺà°²à°¨":4563,"Ġà°ķà°¥à°²à°¨":4564,"Ġà°ĭà°Ĺ":4565,"à°²à°²à°²":4566,"à°¨à°¨à°²":4567,"368":4568,"log":4569,"12015":4570,"à°¦à°µà°¤":4571,"à°Ĺà°ªà°°":4572,"Ġà°Ĩà°ªà°¡":4573,"à±Ī\"":4574,"Ġà°¬à°Ĺ":4575,"à°«à°ķ":4576,"à°Ĩà°¡à°¦":4577,"à°°à°¸à°®":4578,"13101":4579,"à°§à°µà°¯":4580,"://":4581,"Ġà°µà°¦à°¨":4582,"Ġà°ľà°¯à°¨":4583,"Ġà°ķà°²à°Ĺà°ľ":4584,"à°°à°£à°ª":4585,"à°¤à°ķà°Ł":4586,"Ġà°¬à°¯à°Łà°ªà°¡à°Ł":4587,"ÂłÂłÂłĠÂłÂłÂłĠÂłĠÂłĠÂłĠÂłĠÂłĠÂłĠÂłĠÂłĠÂłĠÂłĠÂłĠÂł":4588,"514":4589,"ĠP":4590,"Ġà°ħà°Łà°ķ":4591,"à±Ĥà°ģ":4592,"Ġà°Ĩà°µà°°à°£":4593,"Ġà°¬à°¯à°Łà°¨":4594,"à°«à°²à°ķ":4595,"à°·à°£à°ª":4596,"à°¢à°¨":4597,"ÂłÂłÂłĠÂłÂłÂłĠÂłĠÂłĠÂłĠÂłĠÂłĠÂłĠÂłĠÂł":4598,"Ġà°¤à°Ĺà°²à°¬à°¡":4599,"92017459":4600,"à±Ĩ:":4601,"à°¶à°®à°µ":4602,"Ġà°īà°°à°ķà°²":4603,"à°°à°£à°¹":4604,"à°Ĳà°¬":4605,"01201620":4606,"Ġ1992":4607,"à°¯à°Łà°¨à°¨":4608,"ttp":4609,"à°ķà°®à°ķ":4610,"à°Łà°¤à°¨":4611,"à°µà°µà°²":4612,"Ġà°¦à°£":4613,"à°¹à°¤à°ª":4614,"204":4615,"Ġà°¡à°¨":4616,"Ġà°ķà°¨à°ķà°®":4617,"à°°à°µà°ª":4618,"12201635":4619,"Ġà°¨à°¡à°µà°²":4620,"170":4621,"062017424":4622,"à±ģâĢĵ":4623,"à°ªà°²à°ª":4624,"366":4625,"!'":4626,"à°¦à°¨à°Ł":4627,"à°°à°¤à°ķà°²":4628,"11109":4629,"à°°à°¶à°ķ":4630,"Ġà°İà°Ĺà°¸":4631,"1201736":4632,"à°®à°·":4633,"Ġà°¤à°¥":4634,"Ġà°ľà°¡à°²":4635,"Ġà°¶à°ª":4636,"Ġà°ıà°¡à°µà°¡":4637,"à±į),":4638,"à°¤à°¤à°¨":4639,"Ġà°Ĩà°ªà°¨":4640,"Ġà°ĺà°¨à°ķ":4641,"à°Ĺà°¡à°ª":4642,"62017429":4643,"07201629":4644,"à°¦à°°à°¡":4645,"à°°à°¤à°ķà°Ł":4646,"Ġ1993":4647,"Ġ170":4648,"à°ĤâĢĻ.":4649,"à°¡à°¨à°¨":4650,"Ġà°°à°¡":4651,"à°ķà°Łà°ķ":4652,"à°²à°¬à°¡à°Ł":4653,"180":4654,"358":4655,"Ġ___":4656,"052017409":4657,"à°ľà°¦":4658,"Ġà°Ĵà°¨":4659,"Ġà°Ĵà°ķà°ªà°ķ":4660,"à°ħà°°à°Ĺ":4661,"Ġà°ħà°µà°¹":4662,"Ġà°ħà°²à°¹":4663,"Ġà°ħà°²à°µà°°":4664,"Ġà°ħà°ªà°¨à°®":4665,"Ġà°ĸà°¡":4666,"Ġà°µà°¦à°²à°¨":4667,"Ġà°®à°¤à°¸":4668,"à±įâĢĮâĢĮâĢĮ":4669,"062017428":4670,"à±¦à±¦":4671,"111201748":4672,"Ġà°«à°¡":4673,"à°¨à°¡à°®":4674,"Ġà°ķà°²à°¨":4675,"à°¹à°²à°¤":4676,"Ġà°Īà°Ī":4677,"ÂłÂłÂłĠÂłÂłÂłÂłÂłÂłÂłÂł":4678,"Ġà°ķà°²à°Ĺà°¨":4679,"Ġà°ħà°²à°®":4680,"à°ıà°ľ":4681,"à°Īà°Ł":4682,"13107":4683,"à±į\".":4684,"ĠII":4685,"à°ļà°¦à°²":4686,"Ġà°ļà°¦à°°":4687,"à°£à°Ńà°¯":4688,"Ġà°ķà°¦à°²à°¨":4689,"7201744":4690,"à°¤à°¨à°¯":4691,"à°¯à°¸à°Ńà°ķ":4692,"138":4693,"à±ĩ!!":4694,"Ġà°Ŀà°²":4695,"à°®à°¦à°¨":4696,"à°³à°µà°ļ":4697,"Ġà°¬à°¤à°ķà°²":4698,"à°Ńà°ľà°¨à°ª":4699,"à°¯à°ªà°°à°ļ":4700,"à°Ĩà°ļ":4701,"à°®à°°à°ª":4702,"Ġà°¨à°¡à°ķà°¤":4703,"à°²à°¬à°¡à°¤":4704,"112017498":4705,"à°ŀà°¨":4706,"à°Ĵà°²":4707,"à°īà°·":4708,"032016219":4709,"mail":4710,"à±į__":4711,"à°¤à°¤à°ķ":4712,"à°ªà°¹":4713,"à°ľà°Ń":4714,"à°§à°¯":4715,"Ġ2500":4716,"12109":4717,"Ġà°Ĭà°¬à°ķ":4718,"Ġà°¸à°¹à°ľà°¸":4719,"à°ľà°¯à°ļ":4720,"240":4721,"ĠO":4722,"Ġà°¡à°¸":4723,"à°°à°ķà°ķ":4724,"à°¨à°µà°ľ":4725,"Ġ-:":4726,"à°Īà°¯à°¨":4727,"1072015":4728,"Ġà°ķà°¨à°¬à°¡à°¤":4729,"à±ĭà±į":4730,"à°ħà°ªà°°":4731,"Ġà°®à°¹à°²":4732,"à°ļà°°à°£à°¨":4733,"Ġà°¤à°¹à°¤à°¹à°²":4734,"Ġe":4735,"Ġà°ħà°¤à°¨à°¨":4736,"Ġ1994":4737,"149":4738,"à°µà°°à°£à°¶":4739,"Ġà°ķà°¬à°³":4740,"****":4741,"à°ļà°°à°¨":4742,"à°¹à°ķà°°":4743,"à°ĸà°¸":4744,"201576":4745,"108201630":4746,"Ġyou":4747,"ci":4748,"à°µà°µà°ļ":4749,"Ġà°®à°¸à°²":4750,"à±ĩà°Ĥ\"":4751,"Ġ1995":4752,"136":4753,"13103":4754,"Ġ.\"":4755,"02201588":4756,"à°Ĺà°ķà°°":4757,"à±Ĩ\"":4758,"Ġà°®à°¯à°¨":4759,"Ġà°¦à°µà°¡":4760,"Ġà°²à°ĸ":4761,"à±ģ,\"":4762,"10103":4763,"Ġ1997":4764,"166":4765,"Ġà°İà°¡à°®à°ļ":4766,"92015147":4767,"6201512":4768,"Ġà°ħà°ľà°®":4769,"à±Ĥ......":4770,"à°§à°¶":4771,"Ġà°ľà°¬à°°":4772,"Ġà°Īà°·":4773,"à°łà°¤":4774,"396":4775,"399":4776,"6201625":4777,"Ġà°µà°¨à°®":4778,"Ġà°¤à°¡à°µ":4779,"à°§à°ªà°°":4780,"Ġà°ħà°®à°°à°¨":4781,"Ġà°ħà°Ńà°¦":4782,"178":4783,"à°ªà°Ĺà°²à°µ":4784,"62017425":4785,"à°ķà°²à°¯":4786,"à°¡à°°à°°":4787,"176":4788,"à°®à°Ĺà°µ":4789,"à°²à°Ńà°¤à°°":4790,"Ġà°Ĺà°ľà°Ĺà°ľ":4791,"à°¿âĢĺ":4792,"à°¿.âĢĻ":4793,"Ġà°¬à°¡à°²":4794,"à°¯à°®à°§":4795,"Ġà°ªà°¡à°®à°Ł":4796,"à°µà°¨à°¶":4797,"Ġ1970":4798,"Ġà°°à°®à°£à°°":4799,"04201598":4800,"à°ªà°Łà°®":4801,"ÂłÂłĠÂłÂłÂłĠÂłĠÂłĠÂłĠÂłĠÂłĠÂłĠÂłĠÂłĠÂłĠÂłĠÂłĠÂłĠÂłĠÂłĠÂłĠÂłĠÂłĠÂłĠÂłĠÂł":4802,"ri":4803,"à°ªà°¨à°µà°¸à°°":4804,"à°¸à°ªà°¡":4805,"Ġà°ħà°°à°®":4806,"Ġà°Īà°İà°¸":4807,"à°°à°¤à°ķà°¨":4808,"à°ķà°¡à°µ":4809,"Ġà°¤à°Ĺà°¦":4810,"à°ŀà°¤à°Ĺ":4811,"01201578":4812,"ÂłÂłĠÂłÂłÂłĠÂłÂłÂłĠÂłÂłÂłÂłÂłÂłÂłÂłÂłÂłÂłÂłÂłÂłÂłÂłÂłÂłÂłÂłÂłÂłÂłÂłÂłÂłÂłÂłÂłÂłÂłÂłÂłÂłÂłÂłÂłÂłÂłÂłÂłÂłÂłÂłÂłÂłÂłÂł":4813,"à°¾à±Ĥ":4814,"à°²à°µà°ļ":4815,"à°Łà°¤à°²":4816,"à°¯à°ľà°®":4817,"à°¸à°İà°«":4818,"Ġà°¨à°¬":4819,"Ġà°²à°ľ":4820,"Ġà°ħà°ªà°¹":4821,"360":4822,"082017448":4823,"052016247":4824,"072015126":4825,"Ġà°¤à°«":4826,"Ġ119":4827,"à°ħà°®à°²":4828,"à°ŀà°ķ":4829,"à°³à°¨à°²à°ķ":4830,"Ġ1989":4831,"à°īà°ķ":4832,"398":4833,"ent":4834,"à°¨à°°à°ª":4835,"Ġà°ħà°¦à°°":4836,"2019":4837,"à°°à°µà°ļà°¨":4838,"à°ĩà°ķà°ª":4839,"à±ĭ..!":4840,"à°¯à°®à°¨à°¸":4841,"042016226":4842,"062016250":4843,"à°²à°°à°¦":4844,"à°¦à°®à°µ":4845,"à±ĩâĢĮ":4846,"à°¯à°µà°¨":4847,"à±įâĢĮâĢĵ":4848,"Ġà°°à°Ĺà°¡":4849,"Ġà°ıà°·":4850,"Ġà°ķà°²à°µà°¨":4851,"à°¸à°°à°³":4852,"à°³à°¨à°ķà°°":4853,"Ġà°®à°³à°¯":4854,"168":4855,"148":4856,"102017478":4857,"à°ļà°¦à°²à°ļ":4858,"à°¨à°®à°Ĺ":4859,"Ġà°Ĩà°Ĺà°®à°¨":4860,"Ġà°Ĺà°¡à°ªà°²":4861,"246":4862,"102015157":4863,"ver":4864,"à±ĭà±įâĢĮ":4865,"à°¡à°µà°Ł":4866,"à°®à°¬à°²":4867,"à±Ĩ-":4868,"à°³à°µà°²à°¸":4869,"à°¦à°°à°µ":4870,"à°°à°¨à°¡":4871,"Ġ220":4872,"à°ĩà°³":4873,"Ġà°¨à°¡à°µà°Ł":4874,"Ġ1991":4875,"Ġà°®à°¦à°¨à°ªà°²":4876,"52015109":4877,"à°¤à°¬à°Ł":4878,"à±Ģà°Ĥ,":4879,"Ġà°İà°°à°Ĺ":4880,"à°°à°ķà°µ":4881,"à°ľà°¨à°Ĺ":4882,"Ġà°Ĳà°Ĳà°İ":4883,"376":4884,"à°ħà°µà°¤à°²":4885,"à°·à°ļ":4886,"ÂłÂłÂłĠÂłĠÂłĠÂłĠÂł":4887,"Ġà°ħà°µà°¤à°²à°ķ":4888,"Ġà°ľà°¤à°ļ":4889,"Ġà°®à°¡à°¤":4890,"Ġà°Ĩà°ªà°ķ":4891,"Ġà°«à°¤":4892,"à±Įà±įâĢĮ":4893,"à°Łà°ķà°·":4894,"à°Ľà°ķ":4895,"1040520162":4896,"Ġà°ĭà°ľ":4897,"032016215":4898,"ĠW":4899,"à°ªà°µà°²":4900,"Ġà°ħà°¹à°°":4901,"âĢį":4902,"à°£à°µà°°":4903,"Ġà°¹à°¯à°¤":4904,"Ġà°¯à°²":4905,"à°°à°ķà°³":4906,"à°®à°²à°°":4907,"Ġà°ľà°°à°Ĺà°¦à°¨":4908,"à°Łà°µà°¦":4909,"Ġà°ªà°¯":4910,"à°ľà°¨à°¨":4911,"Ġà°¬à°ľà°°":4912,"à°ħà°¨à°¸":4913,"142":4914,"248":4915,"ap":4916,"ĉĉ":4917,"Ġà°¸à°ªà°°":4918,"à±Ī)":4919,"ÂłÂłĠÂłÂłÂłĠÂłÂłÂłĠÂłÂłÂł":4920,"à°ħà°¹à°²":4921,"Ġà°¨à°²à°Ńà°¯":4922,"à°Łà°ªà°°à°®":4923,"1150420162":4924,"042016235":4925,"--------":4926,"Ġbe":4927,"115042016229":4928,"yo":4929,"à°¨à°¦à°²":4930,"à°ªà°²à°¤":4931,"à°£à°ªà°¡":4932,"Ġà°Ńà°Ĺà°¤":4933,"à°ĸà°¶":4934,"à°°à°µà°¶":4935,"Ġà°ħà°µà°ķà°¤à°µà°ķ":4936,"à°¾\".":4937,"103052016236":4938,"ĠH":4939,"à±ĭ(":4940,"à°¡à°ķà°¨":4941,"à°µà°·":4942,"Ġà°Ĩà°¡à°²":4943,"à°¤à°°à°µ":4944,"à°Ĺà°²à°¦à°¨":4945,"à°ĺà°µà°¨":4946,"à°°à°¶à°¸":4947,"Ġà°Ńà°µà°¨à°²":4948,"à±Ģ.....\"":4949,"ĠN":4950,"à°ªà°Łà°¡":4951,"à°¡à°²à°µ":4952,"144":4953,"à±ĩ...!":4954,"ĠÂłÂłĠÂł":4955,"12604201623":4956,"Ġà°ĩà°°à°ķ":4957,"à°«à°°à°µ":4958,"Ġà°ħà°¡à°Ĺà°¬":4959,"Ġà°§à°µà°³":4960,"Ġà°ĸà°¦":4961,"134":4962,"122015179":4963,"062017430":4964,"à°ķà°¸à°²":4965,"208":4966,"à°¤à°°à°£à°²":4967,"Ġà°ħà°°à°µà°¡":4968,"à°¾!!":4969,"à°¡à°Ĺà°¨":4970,"ĠF":4971,"à°¸à°ľ":4972,"Ġà°¤à°³à°¤":4973,"à°¹à°ªà°¡":4974,"Ġà°īà°®à°°":4975,"Ġà°īà°·à°¸":4976,"Ġ109":4977,"à°¿?âĢĻ":4978,"à°ªà°£à°²à°ķ":4979,"à°¤à°ªà°¤":4980,"Ġà°ļà°¡":4981,"Ġà°¤à°ļ":4982,"Ġà°ªà°¦à°ľ":4983,"à°ĺà°¡":4984,"à°®à°°à°²":4985,"à°¦à°ķà°¦":4986,"174":4987,"369":4988,"à°¦à°¡à°ª":4989,"Ġà°¬à°¯à°Łà°ªà°¡à°¤":4990,"113042016228":4991,"Ġà°ķà°¨à°ªà°¡à°ķ":4992,"72017438":4993,"Ġà°®à°¤à°ªà°°à°®":4994,"230":4995,"à°Ĺà°®à°¯":4996,"à°§à°Ń":4997,"à°ķà°ªà°°":4998,"Ġà°¨à°Ĺà°°à°ª":4999,"132":5000,"137":5001,"288":5002,"à°¾.......":5003,"ay":5004,"Ġà°½":5005,"à°ķà°³à°¨":5006,"à°®à°ķà°°":5007,"à°¯à°®à°£":5008,"Ġà°§à°¨à°¸":5009,"à°Ĵà°Ł":5010,"Ġ152":5011,"Ġà°µà°°à°¸à°²":5012,"ĠL":5013,"à°¸à°İà°¨":5014,"à°¬à°²à°®":5015,"à°²à°¨à°Ł":5016,"à°¦à°¨à°²à°¤":5017,"à°Łà°ªà°¡à°¡":5018,"Ġà°ħà°²à°¸à°Łà°Ĺ":5019,"Ġà°¶à°ķà°Ł":5020,"à°ĸà°²à°¤":5021,"Ġà°Ĩà°®à°°à°£":5022,"Ġà°ıà°¡à°µà°¸":5023,"à°ļà°ķà°®":5024,"Ġà°¤à°¡à°¬":5025,"à°¾âĢĻ,":5026,"12004201623":5027,"Ġà°®à°«":5028,"à±ģ.âĢĻ":5029,"Ġà°ľà°²à°ķ":5030,"Ġ\"...":5031,"Ġà°¤à°¨à°ķà°¨":5032,"à°ªà°¡à°Ĺ":5033,"à°²à°¯à°¤":5034,"à°²à°®à°¤":5035,"Ġ**":5036,"à°®à°£à°°":5037,"à°³à°®à°§":5038,"1050520162":5039,"02201586":5040,"105052016237":5041,"319":5042,"à°¦à°µà°²":5043,"à±įâĢĮ;":5044,"à°µà°°à°ķà°Ł":5045,"Ġà°Ĵà°ķà°²":5046,"ter":5047,"Ġà°Ĩà°¦à°¯":5048,"à°¯à°£à°¸":5049,"à°¨à°¡à°ķà°¨":5050,"à±Ĥ!'":5051,"Ġà°ķà°¨à°ªà°¡à°Ł":5052,"72015129":5053,"320158":5054,"à±ģâĢĺ":5055,"à°¦à°¯à°µ":5056,"à°Łà°µà°²":5057,"à°ªà°¦à°ķ":5058,"à°ĸà°µ":5059,"à°Łà°¨à°·":5060,"Ġ---":5061,"188":5062,"à±ĭ-\"":5063,"à°Łà°°à°¯":5064,"à°°à°µà°¸":5065,"à°¨à°¨à°¡":5066,"à±ģ...!":5067,"175":5068,"146":5069,"à°Ĺà°¬à°Ĺà°¬":5070,"Ġà°ķà°¦à°²à°¬":5071,"Ġà°ħà°¸à°¹à°ľ":5072,"à±Ĩ....":5073,"à°¹à°ľ":5074,"à°¥à°¶":5075,"à°ľà°¯à°ª":5076,"Ġà°¸à°Ńà°²à°ķ":5077,"à°¹à°¯":5078,"à°¹à°Ń":5079,"370":5080,"102015166":5081,"Ġà°¨à°°à°ķà°¯":5082,"4201597":5083,"à°®à°ľà°¨":5084,"Ġà°¨à°°à°¨":5085,"à°·à°®à°¨":5086,"Ġà°Ĺà°¡à°Ĺ":5087,"Ġà°ľà°®à°¦à°Ĺ":5088,"260":5089,"Ġà°Īà°¯à°¨à°ķ":5090,"ÂłÂłÂłĠÂłÂłĠÂłĠÂłĠÂłĠÂłĠÂłĠÂłĠÂłĠÂłĠÂłĠÂłĠÂłÂł":5091,"82017446":5092,"à°²à°¹":5093,"ÂłÂłčĊ":5094,"206":5095,"à°İà°µ":5096,"à°ķà°®à°Ĺ":5097,"Ġà°¨à°Ĺà°²à°¨":5098,"ol":5099,"à±į_":5100,"à°¸à°ĩà°²":5101,"à°Ĺà°µà°ļ":5102,"à°¶à°¨à°¨":5103,"270":5104,"Ġà°ľà°²à°ľà°²":5105,"à°¿....?":5106,"à°¹à°°à°£à°Ĺ":5107,"72017434":5108,"à°¬à°¯à°Łà°ķ":5109,"ĠâĢĮ":5110,"Ġà°ħà°ķà°¡à°®":5111,"2018":5112,"Ġà°µà°¦à°²à°²":5113,"à°§à°¨à°¤":5114,"à°Ĵà°¦":5115,"135":5116,"186":5117,"359":5118,"380":5119,"à°µà°°à°£à°®":5120,"à°²à°¸à°°":5121,"à°¯à°°à°¨":5122,"Ġà°Ĩà°¤à°°":5123,"à°Ĳà°Ĳà°Ł":5124,"à°²à°®à°Ł":5125,"152":5126,"394":5127,"à°°à°ķà°Łà°¨à°¤":5128,"Ġà°ľà°°à°Ĺà°µà°ļ":5129,"130042016235":5130,"à°¨à°¤à°°":5131,"Ġà°µà°®":5132,"Ġà°ķà°²à°¬":5133,"Ġà°Ĵà°ķà°Łà°µ":5134,"378":5135,"à°Ĥ.....\"":5136,"à±ĭ.....\"":5137,"112017497":5138,"324":5139,"ub":5140,"à°Ĺà°ªà°²":5141,"à±Ģ_":5142,"Ġà°ķà°²à°µà°²":5143,"à°ĩà°®":5144,"à°°à°Ĺà°¸":5145,"139":5146,"177":5147,"Ġà°Ĩà°Łà°ª":5148,"486":5149,"à°®à°Łà°¤":5150,"ÂłÂłĠÂłÂłÂłĠÂłĠÂłĠÂłĠÂłĠÂłĠÂłĠÂłĠÂłĠÂłĠÂłĠÂłĠÂłĠÂłĠÂłĠÂłĠÂł":5151,"052015106":5152,"ÂłÂłÂłĠÂłÂłĠÂłĠÂłĠÂłĠÂłĠÂłĠÂłĠÂłĠÂłĠÂłĠÂłĠÂł":5153,"326":5154,"à°µà°Ĺà°¤":5155,"Ġà°ķà°°à°¤":5156,"à°¹à°ªà°°":5157,"à±ĩà°Ĥ,":5158,"à°¤à°°à°ķà°°":5159,"à°ŀà°¤à°¤":5160,"566":5161,"à±į',":5162,"Ġà°ľà°°à°Ĺà°µà°²à°¸":5163,"10201":5164,"à°ķà°Łà°°à°¤":5165,"Ġà°ĩà°ļà°Ł":5166,"Ġà°ľà°¨à°ľ":5167,"112015178":5168,"062016258":5169,"550":5170,"à±Ī'":5171,"à°³à°²à°¤":5172,"à°¶à°¬à°°":5173,"à°¶à°¨à°°":5174,"à°§à°°à°£à°ķ":5175,"ÂłÂłÂłĠÂłĠÂłĠÂłĠÂłĠÂłĠÂłĠÂłĠÂłĠÂłĠÂłĠÂłĠÂłĠÂłĠÂłĠÂłĠÂł":5176,"Ġà°Łà°¬":5177,"à°µà°¡à°®à°¨":5178,"à°ľà°¨à°Ńà°°":5179,"à°ĺà°²":5180,"Ġà°¤à°Ĺà°²à°ķ":5181,"190":5182,"à°¾...!":5183,"392":5184,"ĠĠĠĠĠĠĠĠĠĠĠĠĠĠĠĠĠĠĠĠĠĠĠĠĠĠĠĠĠĠĠĠ":5185,"318":5186,"à°Ĺà°²à°¤":5187,"à°§à°°à°¨":5188,"à°²à°ķà°®à°¨":5189,"à±ĩà°Ĥ...":5190,"à°ħà°µà°¸à°°à°®":5191,"Ġà°®à°¨à°ª":5192,"357":5193,"390":5194,"Ġà°¦à°¶à°°à°§":5195,"062017426":5196,"ul":5197,"à°ķà°ķà°ª":5198,"ĠÂłĠÂłÂłÂł":5199,"à°¤à°¨à°ª":5200,"Ġà°·à°£":5201,"118042016230":5202,"un":5203,"à°Łà°ªà°¨":5204,"à°¯à°¦à°²à°ļ":5205,"à°¸à°®à°°":5206,"à°ļà°²à°¤":5207,"à°¿.,":5208,"Ġà°°à°¶":5209,"à°¶à°Ń":5210,"à°°à°¤à°°à°¤":5211,"Ġà°ªà°¡à°Ĺà°²":5212,"à°¾?!":5213,"Ġà°¨à°µà°®":5214,"Ġà°¨à°µà°²à°¨":5215,"à°Īà°ķ":5216,"à±ģ..âĢĻâĢĻ":5217,"167":5218,"à±ģ''":5219,"à°Ĺà°£à°ªà°¤":5220,"à°¸à°ı":5221,"Ġà°µà°Ĺà°°":5222,"à°ľà°«à°°":5223,"à°ķà°°à°¯":5224,"Ġà°ħà°®à°²à°¯":5225,"Ġà°ħà°°à°¨":5226,"306":5227,"Ġà°Ĭà°¤à°®":5228,"Ġ128":5229,"290":5230,"Ġ3000":5231,"012017358":5232,"Ġà°¯à°®à°§à°°":5233,"gmail":5234,"à°ªà°¨à°¨":5235,"à°¹à°°à°¨":5236,"à°ķà°²à°¦":5237,"Ġà°ħà°°à°²":5238,"à°Īà°İà°¸":5239,"Ġ2022":5240,"Ġà°Ĺà°¡à°ªà°Ł":5241,"Ġà°®à°¤à°¤à°¤":5242,"128042016234":5243,"796":5244,"à°¸à°Łà°Ĺ":5245,"à°Ĺà°°à°¤":5246,"à°«à°¨":5247,"à°ĩà°ľ":5248,"508":5249,"Ġ1975":5250,"162":5251,"444":5252,"112017487":5253,"Ġà°ķà°£à°ľ":5254,"à°¨à°¨à°Ł":5255,"à°ķà°¤à°ª":5256,"à°¤à°·":5257,"à°ļà°¯à°®à°µ":5258,"Ġà°®à°°à°ķ":5259,"Ġà°¦à°§":5260,"Ġà°īà°¬à°²":5261,"Ġà°ªà°°à°µ":5262,"à°®à°¨à°¦":5263,"Ġ115":5264,"Ġà°Ĭà°ļà°ķ":5265,"Ġà°İà°¦à°Ĺà°¡":5266,"à°¤à°µà°Ĺ":5267,"Ġà°Ĺà°¡à°Ĺà°¡à°²":5268,"\".":5269,"Ġg":5270,"à°·à°°à°¤":5271,"Ġà°ĩà°µà°¤à°²à°ķ":5272,"Ġà°Īà°¤à°ķ":5273,"à°¢à°¤":5274,"à°µà°¦à°¤":5275,"280":5276,"042016227":5277,"à°Ĺà°²à°¨à°¨":5278,"338":5279,"à°¨à°¯à°¨":5280,"à°Ĺà°°à°®":5281,"à±Ĩ'":5282,"à±Īà°Ĥ,":5283,"à°¦à°°à°ķà°ª":5284,"à°ļà°²à°®":5285,"à±ģ?âĢĻ":5286,"Ġ750":5287,"Ġà°Ķà°¦":5288,"ÂłÂłÂłĠÂłÂłÂłÂłÂłÂłÂłÂłÂłÂłÂłÂłÂłÂłÂłÂłÂłÂłÂłÂłÂłÂł":5289,"ab":5290,"à±Ĩà°Ĥ:":5291,"202":5292,"Ġà°Łà°ªà°Ł":5293,"Ġà°ĵà°®":5294,"à°¯à°®à°®":5295,"Ġà°Ĳà°¦à°µ":5296,"à°Ĵà°ķà°¨":5297,"164":5298,"à°µà°¯à°ķà°°":5299,"Ġ175":5300,"Ġà°ķà°¨à°¬à°¡à°¡":5301,"us":5302,"Ġre":5303,"à°ªà°ķà°¨":5304,"à°¸à°Ī":5305,"à°°à°¸à°°à°£":5306,"à°°à°µà°Ł":5307,"à°²à°¡à°®":5308,"à°Łà°ªà°¡à°²":5309,"he":5310,"ts":5311,"à±ĨâĢĻ":5312,"à±Ĥ__":5313,"à°¾à°Ĥ....\"":5314,"Ġà°ħà°²à°µà°¡":5315,"Ġà°Ĩà°¯à°¨à°Ĺ":5316,"Ġà°Ĩà°²à°¶":5317,"à°ľà°¯à°Ń":5318,"à°Ĵà°³":5319,"147":5320,"Ġà°Īà°¸à°¡":5321,"à°ľà°¯à°¦à°¶à°®":5322,"325":5323,"à°¥à°¬":5324,"Ġà°ıà°ľà°¨":5325,"à°°à°®à°£à°ķ":5326,"Ġ420":5327,"172":5328,"Ġà°Ĵà°°à°µà°¡":5329,"650":5330,"à±Ħ":5331,"Ġà°¤à°¹à°¶":5332,"Ġà°¬à°¤à°ķà°¨":5333,"Ġà°¶à°ªà°¥":5334,"Ġà°ªà°°à°¬":5335,"1010520162":5336,"à°¯à°¤à°ª":5337,"à°¡à°µà°¯":5338,"à°ļà°Łà°ªà°¡":5339,"364":5340,"499":5341,"à°Łà°ªà°¡à°ķ":5342,"à°¯à°¤à°®":5343,"à°ªà°µà°¦":5344,"ÂłÂłĠÂłĠÂłĠÂłĠÂłĠÂłĠÂłĠÂłĠÂł":5345,"à°ķà°¨à°ķ":5346,"Ġà°¨à°µà°ľ":5347,"à°¢à°¨à°®":5348,"145":5349,"Ġà°ķà°¨à°ªà°¡à°¨":5350,"Ġwh":5351,"ĠIIà°¶":5352,"334":5353,"Ġà°ķà°°à°¸":5354,"Ġà°ķà°§à°¨":5355,"Ġà°ļà°¦à°²à°µ":5356,"Ġ107":5357,"Ġà°ħà°¤à°¨à°²":5358,"à°Ĺà°²à°Ĺ":5359,"Ġà°¨à°¡à°ķà°²":5360,"Ġà°ľà°¯à°§":5361,"ÂłÂłÂłĠÂłÂłĠÂłĠÂłĠÂłĠÂłĠÂłĠÂłĠÂłĠÂłĠÂłĠÂł":5362,"ÂłÂłÂłĠÂłÂłĠÂłĠÂłĠÂłĠÂłĠÂłĠÂłĠÂłĠÂłĠÂłĠÂłÂł":5363,"330":5364,"Ġà°ľà°¤à°²":5365,"Ġà°²à°ª":5366,"à°µà°°à°¹":5367,"à°°à°¯à°ªà°¡":5368,"à°°à°ªà°¨":5369,"à°ķà°Łà°ª":5370,"Ġà°Ĩà°¶à°²à°¤":5371,"à°²à°Ĺà°ķ":5372,"Ġà°ĺà°¨à°®":5373,"Ġ1984":5374,"à°Ĺà°®à°®":5375,"179":5376,"à°Ĺà°¬à°¦":5377,"à°±à°®":5378,"Ġà°ªà°¤à°¨à°®":5379,"à°µà°¦à°¨":5380,"à±Ī!":5381,"Ġà°²à°µà°£":5382,"à°¥à°¨à°¨":5383,"ÂłÂłÂłĠÂłÂłÂłÂłĠ":5384,"Ġ1983":5385,"à±ĩ!'":5386,"184":5387,"à°§à°°à°°":5388,"062015116":5389,"Ġ+":5390,"à°ªà°¨à°ª":5391,"Ġà°°à°ľà°ķ":5392,"Ġà°ıà°Łà°µ":5393,"Ġ1100":5394,"Ġà°Ĺà°¤à°µ":5395,"154":5396,"à°Ľà°²":5397,"182":5398,"284":5399,"à°²à°Ĺà°²":5400,"Ġà°¨à°¹":5401,"Ġà°Ĺà°¤à°¨":5402,"Ġà°«à°Ł":5403,"1211020174":5404,"Ġà°ķà°¦à°®":5405,"Ġà°¨à°°à°°":5406,"256":5407,"354":5408,"Ġà°ľà°²à°¦":5409,"à°¿....?\"":5410,"116112016334":5411,"050":5412,"ir":5413,"à°²à°ªà°¤":5414,"à°¤à°ľà°¨":5415,"à°Łà°ªà°°à°ļ":5416,"à°µà°¦à°²":5417,"à°°à°¤à°²à°ķ":5418,"à°Ĺà°°à°ªà°¡":5419,"à°µà°²à°®":5420,"Ġà°¤à°²à°¸à°°":5421,"à°łà°ª":5422,"à°ľà°¯à°Ĺà°°":5423,"à°Łà°ķà°ķ":5424,"Ġ1960":5425,"365":5426,"à°Ĥ\".":5427,"Ġà°ļà°µà°ķ":5428,"à°¯à°¨à°¡":5429,"Ġ230":5430,"Ġà°§à°°à°®":5431,"à°¿...!":5432,"Ġ1971":5433,"165":5434,"156":5435,"249":5436,"286":5437,"367":5438,"10404201739":5439,"Ġà°¨à°°à°¨à°°":5440,"à±ĩ(":5441,"Ġà°İà°µà°¨":5442,"Ġà°ıà°ı":5443,"Ġ111":5444,"à°²à°ªà°¤à°¨":5445,"1311020174":5446,"340":5447,"052017407":5448,"022017366":5449,"850":5450,"ig":5451,"à°¨à°ªà°Ł":5452,"à°¤à°ķà°¡":5453,"à°¬à°²à°µ":5454,"à°³à°Ĺà°²":5455,"Ġ1986":5456,"112017499":5457,"ÂłÂłÂłĠÂłÂłĠÂłĠÂłĠÂłĠÂłĠÂłĠÂłĠÂłĠÂłĠÂłĠÂłĠÂłĠÂłĠÂłĠÂłĠÂłĠÂłĠÂłĠÂłĠÂłĠÂł":5458,"ine":5459,"Ġst":5460,"Ġà°¸à°¦à°¨":5461,"Ġà°¤à°¬":5462,"ÂłÂłÂłĠÂłĠÂłĠÂłĠÂłĠÂłĠÂłĠÂłĠÂłĠÂłĠÂłĠÂłĠÂłĠÂłĠÂłĠÂłĠÂłĠÂłĠÂłĠÂłĠÂł":5463,"Ġà°Ĵà°£":5464,"Ġà°ħà°Ĺà°®":5465,"266":5466,"362":5467,"456":5468,"Ġà°ĩà°³à°¯à°°":5469,"à°¿''":5470,"Ġà°ĭà°Ń":5471,"12304201623":5472,"and":5473,"ĠĠčĊ":5474,"à°ļà°³":5475,"Ġà°ķà°Łà°ķ":5476,"ÂłÂłÂłĠÂłĠÂłĠÂłĠÂłĠÂłĠÂłĠÂłĠÂłĠÂłĠÂłĠÂłĠÂłĠÂłĠÂłĠÂłĠÂłĠÂłĠÂłĠÂłĠÂłĠÂłĠÂłĠÂłĠÂł":5477,"Ġà°ıà°µà°Ĺ":5478,"Ġà°®à°°à°ª":5479,"Ġà°¤à°°à°³":5480,"à°ķà°ªà°°à°®":5481,"à°µà°¨à°ª":5482,"à°Īà°¶":5483,"à±į!'":5484,"488":5485,"Ġà°¬à°¯à°Łà°ªà°¡à°¡":5486,"à°Ńà°ľà°¨à°¤":5487,"11711201749":5488,"à°ģ!":5489,"1200":5490,"à°¾.....?":5491,"à°¤à°Ńà°¤":5492,"à°¦à°µà°°":5493,"à°¦à°¡à°®":5494,"à°ªà°¦à°²à°ļ":5495,"à°¸à°ĩ":5496,"Ġà°®à°Łà°¨":5497,"à°·à°°à°®":5498,"Ġà°ľà°²à°µ":5499,"Ġà°ħà°¨à°¤":5500,"Ġà°Ĵà°¸":5501,"Ġà°ªà°°à°µà°³":5502,"à°®à°¨à°µà°®":5503,"Ġà°ķà°²à°¶":5504,"à°¤à°°à°«":5505,"198":5506,"490":5507,"à±ĩ\".":5508,"990":5509,"122016349":5510,"ÂłÂłÂłÂłÂłÂłÂłÂłÂłÂłÂłÂłÂłÂłÂłÂłÂłÂłÂłÂłÂłÂłÂłÂłÂłÂłÂłÂłÂłÂłÂłÂłÂłÂłÂłÂłÂłÂłÂłÂłÂłÂłÂłÂłÂłÂłÂłÂłÂłÂłÂłÂłÂłÂłÂłÂłÂłÂłÂłÂłÂłÂłÂłÂłÂłÂłÂłÂłÂłÂłÂłÂłÂłÂłÂłÂłÂłÂłÂłÂłÂłÂłÂłÂłÂłÂłÂłÂłÂłÂłÂłÂłÂłÂłÂłÂłÂłÂłÂłÂłÂłÂłÂłÂłÂłÂłÂłÂłÂłÂłÂłÂł":5511,"ÂłÂłÂłĠÂłÂłÂłÂłÂłÂłÂłÂłÂłÂłÂłÂłÂłÂłÂłÂłÂłÂłÂłÂł":5512,"11511201749":5513,"62015118":5514,"Ġà°İà°¡à°ª":5515,"à°Ńà°ķà°°":5516,"à°²à°ķà°¤":5517,"Ġà°§à°°à°¤":5518,"à°²à°®à°µ":5519,"375":5520,"222":5521,"ĠĠĠĠĠ":5522,"062015119":5523,"%,":5524,"ĠĂ":5525,"à°ķà°§":5526,"à°¯à°¤à°°à°¹":5527,"Ġà°°à°Ńà°¸":5528,"ÂłÂłÂłĠÂłĠÂłĠÂłĠÂłĠÂłĠÂłĠÂłĠÂłĠÂłĠÂłĠÂłĠÂłĠÂłĠÂłĠÂłĠÂłĠÂłĠÂłĠÂłĠÂłĠÂłĠÂłĠÂłĠÂłĠÂłĠÂłĠÂłĠÂł":5529,"à°¹à°¸à°®":5530,"Ġà°Ĵà°®à°°":5531,"Ġà°ĵà°¡à°²":5532,"Ġà°§à°¨à°¦":5533,"à°Ĳà°İà°¨":5534,"252":5535,"379":5536,"388":5537,"478":5538,"à°Ńà°ľà°¨à°²":5539,"Ġà°°à°¸à°µà°¤":5540,"11212201750":5541,"072016267":5542,"ation":5543,"ef":5544,"et":5545,"ÂłĠÂłĠÂłĠÂłĠÂł":5546,"à°ªà°ķà°°":5547,"à°®à°¸à°®":5548,"Ġ117":5549,"à°ĺà°¸":5550,"Ġ1947":5551,"Ġ126":5552,"158":5553,"242":5554,"12610201748":5555,"à°¾.....?\"":5556,"à°¿___":5557,"à°¶à°§":5558,"Ġà°ªà°°à°ļà°¡":5559,"à°ħà°¡à°Ĺ":5560,"à°Ĺà°²à°ª":5561,"Ġà°·à°¨":5562,"506":5563,"Ġà°ıà°¡à°µà°ķ":5564,"Ġà°Ĩà°¶à°ķ":5565,"Ġ1978":5566,"Ġà°Ĭà°°à°¡":5567,"232":5568,"à±ģ....?":5569,"11811201749":5570,"ÂłÂłĠÂłÂłÂłĠÂłĠÂłĠÂłĠÂłĠÂłĠÂłĠÂłĠÂłĠÂłĠÂłĠÂłĠÂłĠÂłĠÂłĠÂłĠÂłĠÂłĠÂłĠÂłĠÂłĠÂłĠÂłĠÂłĠÂł":5571,"ĠÂłĠÂłÂłĠÂł":5572,"sp":5573,"à°²à°ĸ":5574,"à°¦à°¸à°°":5575,"Ġà°Ĩà°£":5576,"à°ķà°°à°¸":5577,"à°İà°Ĳ":5578,"à°Ĩà°²à°¸":5579,"à±ĭà°Ĥ,":5580,"Ġà°ĵà°°à°ķ":5581,"à°°à°¹à°Ĺà°¤":5582,"Ġ1969":5583,"169":5584,"173":5585,"à°Ĭà°³":5586,"11411201749":5587,"Ġà°®à°¡à°¤à°²":5588,"Ġà°ħà°µà°¯à°µà°®":5589,"Ġà°ªà°łà°¨":5590,"Ġà°¸à°Ĺà°®":5591,"à°ľà°¸à°®":5592,"à°ľà°¯à°²à°²":5593,"Ġà°¶à°¨à°Ĺ":5594,"Ġà°¡à°°":5595,"à°¾?...\"":5596,"Ġà°īà°ªà°ľ":5597,"244":5598,"Ġà°Ĩà°Łà°ªà°Ł":5599,"395":5600,"à±ĩ...?":5601,"à°¡à°¬à°¦":5602,"ÂłÂłĠÂłÂłÂłĠÂłÂłÂłĠÂłĠÂłĠÂłĠÂłĠÂłĠÂłĠÂłĠÂłĠÂłĠÂłĠÂłĠÂłĠÂłĠÂłĠÂłĠÂłĠÂłĠÂłĠÂłĠÂłĠÂłĠÂłĠÂłĠÂł":5603,"à°¦à°Ľ":5604,"à°¸à°ªà°¤":5605,"à°®à°²à°ª":5606,"Ġà°ħà°¶à°ķ":5607,"Ġà°¯à°°":5608,"Ġà°ķà°³à°¨":5609,"à°¿?...":5610,"à°¿...?\"":5611,"Ġ1987":5612,"196":5613,"568":5614,"117042016230":5615,"Ġà°ªà°Ĺà°¬à°Ł":5616,"072017445":5617,"ÂłÂłÂłĠÂłÂłÂłĠÂłÂłÂłÂłÂłÂłÂłÂłÂłÂłÂłÂłÂłÂłÂłÂłÂłÂłÂłÂłÂłÂłÂłÂłÂłÂłÂłÂłÂłÂłÂłÂłÂłÂłÂłÂłÂłÂłÂłÂłÂłÂłÂłÂłÂłÂłÂłÂł":5618,"ÂłÂłÂłĠÂłÂłĠÂłĠÂłĠÂłĠÂłĠÂłĠÂłĠÂłĠÂłĠÂłĠÂłĠÂłĠÂłÂł":5619,"42017402":5620,"Ġà°ľà°µà°¦":5621,"209":5622,"à°ªà°¡à°¬":5623,"Ġà°Ĩà°¯à°¨à°µ":5624,"à°¦à°²à°¶":5625,"à°ªà°°à°²":5626,"à°ķà°Łà°µ":5627,"à°¦à°ķà°¤":5628,"à°Ľà°°":5629,"282":5630,"à°¦à°¯à°ļ":5631,"342":5632,"479":5633,"Ġà°ħà°£à°Ĺà°¦":5634,"130112017499":5635,"Ġà°¸à°Ĺà°Ń":5636,"ÂłÂłÂłĠÂłÂłÂłÂłÂłÂłÂłÂłÂłÂłÂłÂłÂłÂłÂłÂłÂłÂłÂłÂłÂł":5637,"ly":5638,"à°Ĺà°²à°²":5639,"à°Ĺà°¨à°µ":5640,"Ġà°¸à°°à°ķ":5641,"Ġà°¶à°¤à°µ":5642,"à°ķà°°à°ĺ":5643,"à°°à°ľà°ķ":5644,"à°¤à°²à°Ĺ":5645,"289":5646,"272":5647,"397":5648,"à°ļà°Ĺà°²à°¨à°¨":5649,"114102017476":5650,"072017437":5651,"1210420162":5652,"Ġà°¦à°¡à°¦à°¡à°²":5653,"ac":5654,"à±Ģ__":5655,"ÂłÂłÂłÂłĠÂłčĊ":5656,"Ġà°®à°°à°£à°®":5657,"Ġà°ķà°²à°²à°¨":5658,"121":5659,"à°®à°²à°®à°¡":5660,"Ġà°ıà°¡à°µà°Ł":5661,"Ġà°ĺà°¨à°¸":5662,"à±ģ?âĢĻâĢĻ":5663,"245":5664,"278":5665,"352":5666,"à°¸à°µà°®":5667,"ÂłÂłÂłĠÂłÂłĠÂłĠÂłĠÂłĠÂłĠÂłĠÂłĠÂłĠÂłĠÂłĠÂłĠÂłĠÂłĠÂłĠÂłĠÂłĠÂłĠÂłĠÂłĠÂłĠÂłĠÂłĠÂłĠÂłĠÂłĠÂłĠÂłĠÂłĠÂł":5668,"62016257":5669,"________________________________":5670,"Ġà°ķà°ªà°Ł":5671,"Ġà°¸à°¨à°¤":5672,"à°ľà°²à°¨":5673,"à°¶à°²à°ª":5674,"à°§à°¤à°¨":5675,"à°ķà°°à°Ĺ":5676,"à°¯à°ķà°¨":5677,"à°¿).":5678,"Ġ1950":5679,"Ġà°¸à°¦à°Ń":5680,"Ġ132":5681,"Ġ5000":5682,"1040820174":5683,"ÂłÂłÂłĠÂłÂłÂłĠÂłÂłÂłÂłÂłÂłÂłÂłÂłÂłÂłÂłÂłÂłÂłÂłÂłÂłÂłÂłÂłÂł":5684,"112015168":5685,"à°®à°²à°¯":5686,"à°¦à°¨à°²à°ª":5687,"Ġà°ªà°°à°¦":5688,"Ġà°ħà°ªà°ľà°¯":5689,"à±ģ...?\"":5690,"Ġ190":5691,"131":5692,"à°®à°£à°¸":5693,"275":5694,"127042016234":5695,"12309201746":5696,"ÂłÂłÂłĠÂłÂłÂłĠÂłÂłÂłÂłÂłÂłÂłÂłÂłÂłÂłÂłÂłÂłÂłÂłÂłÂłÂłÂłÂłÂłÂł":5697,"092017469":5698,"Ġfor":5699,"à°¤à°«":5700,"Ġà°ľà°¨à°ķ":5701,"Ġà°¹à°·":5702,"Ġà°¹à°¤à°®à°¯":5703,"Ġà°ķà°²à°¶à°®":5704,"Ġà°ªà°Łà°ªà°Ł":5705,"à±ģ..âĢĻ":5706,"159":5707,"Ġà°ıà°ķà°§":5708,"Ġà°¬à°¯à°Łà°ªà°¡à°²":5709,"126072016276":5710,"à°Ĥ-\"":5711,"10511201516":5712,"à°µà°Ńà°ķ":5713,"à°ļà°µà°¨":5714,"Ġà°ªà°µà°®":5715,"à°³à°¦à°Ĺ":5716,"Ġà°Ĵà°®":5717,"à°¯à°¨à°ª":5718,"à°ħà°£":5719,"à°Ĩà°²à°¯":5720,"Ġà°¤à°²à°ªà°Ł":5721,"à°¾?....":5722,"304":5723,"à°ķà°Łà°Ĺ":5724,"032015":5725,"189":5726,"348":5727,"Ġà°¦à°¯à°µà°²":5728,"ÂłÂłÂłĠÂłÂłÂłĠÂłÂłÂłÂłÂłÂłÂłÂłÂłÂłÂłÂłÂłÂłÂłÂłÂłÂłÂłÂłÂłÂłÂłÂł":5729,"122015187":5730,"Ġà°¨à°Łà°¨à°¤":5731,"012017359":5732,"à±ģ___":5733,"od":5734,"Ġon":5735,"à±į/":5736,"à°ļà°¯à°¸":5737,"Ġà°Ĩà°²à°¨":5738,"205":5739,"Ġà°ľà°°à°ªà°¨":5740,"à°¨à°µà°¹à°ķ":5741,"à°¿..âĢĻâĢĻ":5742,"Ġ1956":5743,"247":5744,"355":5745,"458":5746,"560":5747,"599":5748,"10712201750":5749,"12810201748":5750,"122016346":5751,"à°ªà°Ĺà°²à°¡":5752,"425":5753,"à°¾à°Ĥ.....":5754,"11103201738":5755,"Ġà°İà°ķà°¨à°®":5756,"06201626":5757,"à°¡à°¦à°Ĺ":5758,"à°¯à°ªà°¡à°²":5759,"à±Ģ-\"":5760,"à°°à°³à°ķ":5761,"à±Ĥ:":5762,"Ġà°Īà°Ĺà°²":5763,"à°¦à°°à°¸":5764,"à°°à°®à°ª":5765,"à°¤à°¨à°¡à°ķà°¨":5766,"Ġ650":5767,"296":5768,"Ġà°Ĭà°°à°Łà°¨":5769,"à°ĵà°¬":5770,"10704201739":5771,"va":5772,"ĠÂłÂłÂłĠ":5773,"à°¦à°ªà°°":5774,"Ġà°¦à°Ń":5775,"Ġà°¶à°µà°®":5776,"à°ªà°ķà°³":5777,"à°¿?âĢĻâĢĻ":5778,"555":5779,"à°¸à°¹à°ľ":5780,"119042017400":5781,"10212201750":5782,"11510201516":5783,"1231220175":5784,"à±ģ__\"":5785,"1201577":5786,"10103201737":5787,"à°Łà°°à°®":5788,"à°¡à°¬à°²":5789,"Ġà°ªà°Ĺà°¤":5790,"à°·à°²à°ª":5791,"à°§à°ķà°®":5792,"Ġà°ľà°ªà°¨":5793,"Ġà°¶à°ķà°²":5794,"Ġ\".....":5795,"Ġ135":5796,"à°ħà°¨à°µà°¸à°°":5797,"Ġà°ķà°²à°Ĺà°Ł":5798,"à°ıà°Ĩà°°":5799,"à°¨à°µà°¯à°¸":5800,"302":5801,"5000":5802,"à°°à°²à°µ":5803,"à°ŀà°¸":5804,"Ġà°Ĩà°¡à°®":5805,"133":5806,"153":5807,"262":5808,"ÂłÂłÂłĠÂłÂłÂłĠÂłÂłÂłĠÂłÂłÂł":5809,"Ġà°ķà°µà°²à°²":5810,"à°§à°ªà°¡à°¡":5811,"à°°à°ķà°Łà°¨à°ķ":5812,"333":5813,"110092015150":5814,"104112017486":5815,"092015148":5816,"62015116":5817,"à°¿`":5818,"à°ķà°®à°µ":5819,"à°®à°¥à°¨":5820,"à±Ī....":5821,"Ġà°¦à°ª":5822,"Ġà°Ĺà°ľà°²":5823,"à°¥à°Ł":5824,"Ġà°ıà°Ĳà°Ł":5825,"Ġà°¡à°Ĺ":5826,"à°Ĳà°°":5827,"à°¨à°¸à°²":5828,"1310820174":5829,"Ġ122":5830,"Ġà°ļà°²à°¸":5831,"11602201737":5832,"ÂłÂłÂłĠÂłÂłÂłĠÂłÂłÂłÂłÂłÂłÂłÂłÂłÂłÂłÂłÂłÂłÂłÂłÂłÂłÂłÂłÂłÂłÂłÂłÂłÂłÂłÂłÂłÂłÂł":5833,"042017399":5834,"022017367":5835,"104082017447":5836,"131082017458":5837,"ĠâĢĻâĢĻ":5838,"ĠÂłÂłÂłÂłÂłÂłÂłÂłÂł":5839,"à°¸à°¨à°¨":5840,"à°®à°ļà°°":5841,"Ġà°İà°¸à°°":5842,"207":5843,"à°ħà°²à°µ":5844,"à°²à°²à°¯":5845,"à°µà°¤à°Ĺ":5846,"Ġà°ļà°¦à°µà°¸":5847,"11001201735":5848,"1271220175":5849,"à°¾à°Ĥ..!":5850,"82016296":5851,"210":5852,"220162":5853,"786":5854,"Ġà°¤à°§":5855,"à°ľà°²à°ķ":5856,"Ġà°¤à°®à°²à°ª":5857,"Ġà°Ĳà°·":5858,"à°°à°¹à°ķ":5859,"192":5860,"à°īà°¯":5861,"346":5862,"Ġà°İà°°à°Ĺà°¨":5863,"480":5864,"11603201738":5865,"125112015176":5866,"92015154":5867,"Ġà°ħà°µà°ķà°¤à°µà°ķà°²à°ķ":5868,"ak":5869,"à°¨à°°à°¯":5870,"à°Łà°¶à°ķ":5871,"à°¸à°¨à°ķ":5872,"à°ļà°µà°°":5873,"Ġà°ķà°¡à°Ĺ":5874,"Ġà°ıà°ķà°ª":5875,"2012":5876,"Ġà°¸à°®à°¯à°¸":5877,"à°ªà°¡à°µ":5878,"à°²à°²à°®":5879,"à°°à°µà°¦à°¨":5880,"11112201750":5881,"à°¨à°ķà°µ":5882,"Ġà°ľà°²à°ľ":5883,"487":5884,"à°Łà°ªà°¡à°°":5885,"1090120157":5886,"Ġà°ķà°¦à°²à°Ł":5887,"11304201739":5888,"11507201626":5889,"ÂłÂłÂłĠÂłÂłÂłÂłÂłÂłÂłÂłÂłÂłÂłÂłÂłÂłÂłÂłÂłÂłÂł":5890,"12510201748":5891,"82015136":5892,"à°¾......\"":5893,"à°°à°¡à°®":5894,"à°¸à°Ĺà°Ł":5895,"à°Ĺà°µà°¨":5896,"Ġà°ľà°ł":5897,"à°²à°¨à°¡":5898,"Ġà°¯à°°à°ªà°¤":5899,"Ġà°Ĭà°ļà°²":5900,"Ġ1988":5901,"163":5902,"Ġà°°à°µà°£":5903,"143":5904,"à°īà°¡":5905,"264":5906,"à°¦à°Ĺà°®à°¨":5907,"274":5908,"108102015159":5909,"11710201516":5910,"13006201626":5911,"à°µà°¹à°£à°¨":5912,"072017444":5913,"à°¡à°Ĺà°²à°°":5914,"Ġà°Ŀà°²à°ķ":5915,"12010201516":5916,"Ġà°ļà°²à°®":5917,"Ġà°¬à°¦à°°":5918,"Ġà°ĩà°¦à°¨":5919,"à°²à°ķà°¬":5920,"2011":5921,"1110920151":5922,"Ġà°ļà°°à°ļà°°":5923,"à°īà°ļ":5924,"372":5925,"470":5926,"10512201750":5927,"105102015158":5928,"Ġà°¨à°Łà°¨à°²":5929,"121102017479":5930,"à°¨à°µà°²à°¸":5931,"à°®à°¯à°®":5932,"à°§à°²à°¤":5933,"à°¥à°ªà°¡":5934,"Ġà°Īà°ļ":5935,"Ġ112":5936,"à°¸à°°à°¨":5937,"Ġà°¨à°¡à°ªà°¨":5938,"Ġà°Ĩà°Ĺà°Ł":5939,"298":5940,"10703201737":5941,"10612201750":5942,"à°ģ....":5943,"866":5944,"102052016236":5945,"102102015157":5946,"ĠÂłĠÂłĠÂłĠÂłÂłĠÂł":5947,"11310201516":5948,"317":5949,"http":5950,"à°Łà°¶":5951,"à°·à°¶":5952,"Ġà°Ĩà°Ĺà°¨":5953,"Ġà°ħà°µà°¦":5954,"10110":5955,"à°¸à°°à°¦":5956,"1110820174":5957,"Ġ240":5958,"à°¤à°®à°ķ":5959,"à°ıà°İà°¨":5960,"504":5961,"258":5962,"Ġ1400":5963,"460":5964,"468":5965,"10812201750":5966,"à°·à°¸à°¤":5967,"11504201739":5968,"12201201736":5969,"à°¥à°ªà°°":5970,"à°µà°°à°¦":5971,"Ġ\"......":5972,"1211120174":5973,"à°ļà°¡à°®à°¨":5974,"à°¨à°ķà°Ł":5975,"Ġà°Ĩà°¡à°®à°¨":5976,"Ġ1977":5977,"13110201516":5978,"à±ģ....?\"":5979,"Ġà°®à°°à°£à°µ":5980,"à°ļà°Ĺà°²à°®à°¨":5981,"1160520174":5982,"11403201738":5983,"11404201739":5984,"à°°à°ªà°¡à°ķ":5985,"12303201738":5986,"ÂłÂłÂłĠÂłÂłÂłÂłÂłÂłÂłÂłÂłÂłÂłÂłÂłÂłÂłÂłÂłÂł":5987,"ĠÂłĠÂłĠÂłÂłĠÂł":5988,"',":5989,"ate":5990,"ith":5991,"à°¤à°µà°¨":5992,"à°ªà°®à°Ĺ":5993,"Ġà°®à°¸à°Ĺ":5994,"Ġà°Īà°Ĩà°°":5995,"ĠÂłĠÂłĠÂłÂłÂł":5996,"à°ĸà°¡":5997,"Ġ118":5998,"Ġà°Ĵà°ķà°Łà°¨":5999,"194":6000,"à°²à°¬à°¡à°¡":6001,"294":6002,"374":6003,"129122017513":6004,"12410201748":6005,"120062017428":6006,"à°¡à°Ĺà°²à°¡":6007,"11512201518":6008,"04201599":6009,"cial":6010,"à°¾/":6011,"à°¦à°µà°¯":6012,"Ġà°ħà°Łà°²":6013,"à°Ńà°°à°®":6014,"à°¥à°²à°²":6015,"ÂłÂłÂłĠÂłÂłÂłÂłÂłÂłÂłÂłÂłÂłÂłÂłÂłÂł":6016,"Ġà°·à°µà°°":6017,"Ġà°Ĩà°¶à°¨":6018,"Ġ360":6019,"ÂłÂłÂłĠÂłÂłÂłĠÂłÂłÂłĠčĊ":6020,"466":6021,"576":6022,"10911201633":6023,"10401201735":6024,"12603201738":6025,"à°¯à°¯à°¨à°ķ":6026,"Ġà°ĺà°¨à°¤à°¨":6027,"Ġà°ħà°°à°µà°¬":6028,"2500":6029,"à°ĤâĢĵ":6030,"à°³à°¸":6031,"à°¤à°°à°¬à°¡":6032,"12103201738":6033,"2015157":6034,"155":6035,"254":6036,"185":6037,"Ġà°Ľà°²":6038,"292":6039,"276":6040,"377":6041,"129092015156":6042,"124112017496":6043,"12302201737":6044,"12209201746":6045,"12203201738":6046,"10104201739":6047,"101102015157":6048,"ge":6049,"à±ģâĢĮ":6050,"à°¡à°¨à°ķ":6051,"à°¡à°µà°¸":6052,"Ġà°ķà°µà°²":6053,"à°·à°ªà°¤":6054,"à°¬à°ļ":6055,"à°£à°¶à°ķ":6056,"à°¹à°²à°ķ":6057,"Ġà°īà°¡à°ķ":6058,"à°ķà°²à°°":6059,"Ġà°ķà°¨à°¡":6060,"Ġà°īà°¦à°¹à°°":6061,"à±ģ---":6062,"494":6063,"108092015149":6064,"à°¨à°¤à°ķ":6065,"à°¯à°¥":6066,"à°¸à°¶":6067,"Ġà°ķà°Ń":6068,"Ġà°¸à°®à°®":6069,"à°ħà°¯à°¨":6070,"à°²à°ªà°¨":6071,"384":6072,"462":6073,"Ġà°ķà°¨à°¬à°¡à°¨":6074,"11610201516":6075,"11912201750":6076,"Ġà°ªà°Ĺà°²à°ķ":6077,"10202201736":6078,"102082017446":6079,"092017466":6080,"52015108":6081,"1201120174":6082,"1201120163":6083,"11104201739":6084,"32015":6085,"à°®à°¤à°®":6086,"à°Ńà°¯à°®":6087,"à°®à°¨à°µ":6088,"Ġ113":6089,"Ġ1300":6090,"à°ªà°¡à°µà°ļ":6091,"1011220151":6092,"Ġà°§à°¨à°ª":6093,"à°·à°£à°¶":6094,"Ġà°¤à°®à°¤à°®":6095,"Ġà°¨à°µà°ķ":6096,"à°¹à°¨à°¤":6097,"à°°à°Ĺà°¡à°®":6098,"à°§à°¨à°²à°¤":6099,"265":6100,"382":6101,"496":6102,"1101120174":6103,"12402201737":6104,"12409201515":6105,"11309201746":6106,"ÂłÂłÂłĠÂłÂłÂłĠÂłÂłÂłÂłÂłÂłÂłÂłÂłÂłÂłÂłÂłÂłÂłÂłÂłÂłÂłÂłÂł":6107,"10507201626":6108,"à°¿__\"":6109,"092016306":6110,"ÂłÂłĠÂłÂłÂłĠÂłÂłÂłĠÂłĠÂłĠÂłĠÂłĠÂłĠÂłĠÂłĠÂłĠÂłĠÂłĠÂłĠÂłĠÂłĠÂłĠÂłĠÂł":6111,"110112017489":6112,"234":6113,"Ġit":6114,"à°¨à°Ĺà°¨":6115,"à±ĢâĢĻâĢĻ":6116,"Ġà°ķà°«":6117,"à°Ńà°ľà°²":6118,"Ġ114":6119,"1210620162":6120,"à°¤à°ķà°£":6121,"à°¾?!\"":6122,"502":6123,"à°¯à°°à°¶":6124,"187":6125,"299":6126,"à°¯à°Ĺà°²à°¨à°¨":6127,"484":6128,"à°®à°¸à°Ńà°²":6129,"Ġà°İà°¡à°®à°ķ":6130,"10701201735":6131,"10912201750":6132,"Ġà°®à°Ĺà°¤à°¨":6133,"à°ľà°¸à°®à°¨":6134,"129102016327":6135,"12403201738":6136,"11407201626":6137,"Ġà°°à°®à°£à°ķ":6138,"1250520162":6139,"10301201735":6140,"103072017434":6141,"ÂłÂłÂłĠÂłÂłÂłĠÂłÂłÂłÂłÂłÂłÂłÂłÂłÂłÂłÂłÂłÂłÂłÂłÂłÂłÂłÂłÂłÂłÂłÂłÂłÂłÂłÂłÂłÂł":6142,"1120520174":6143,"11204201739":6144,"à°Ńà°µà°¨à°²":6145,"ĠÂłÂłĠÂłĠÂłĠÂłĠÂłĠÂłĠ":6146,"à±į......\"":6147,"à°¿âĢĮ":6148,"à°²à°ĺ":6149,"à°¤à°µà°²":6150,"Ġà°İà°¥":6151,"à°ķà°°à°®à°¯":6152,"1010920151":6153,"à°Łà°²à°¸":6154,"308":6155,"Ġà°Ĳà°ıà°İ":6156,"à°Ĳà°¶":6157,"13108201630":6158,"Ġ127":6159,"Ġà°Ĩà°ķà°³":6160,"268":6161,"498":6162,"à±Ĥ.....\"":6163,"à±į'.":6164,"11012201750":6165,"10607201626":6166,"12202201737":6167,"10203201737":6168,"11312201750":6169,"5201511":6170,"gov":6171,"220":6172,"ind":6173,"à±įâĢĻâĢĻ":6174,"à°¡à°¦à°²":6175,"..?":6176,"Ġà°ľà°ªà°®":6177,"Ġà°Ĵà°Ĺ":6178,"à°®à°µà°¦":6179,"Ġà°§à°°à°²à°ª":6180,"157":6181,"Ġ1600":6182,"à°¯à°ªà°¡à°¤":6183,"à±Ģ..!":6184,"10811201633":6185,"11004201739":6186,"128112017498":6187,"11412201634":6188,"10207201626":6189,"042017403":6190,"07201627":6191,"12012201634":6192,"1201020163":6193,"12107201627":6194,"12111201749":6195,"Ġà°ħà°Ĺà°¤":6196,"à±įâĢĮ`":6197,"Ġà°¤à°£":6198,"à°§à°²à°ķ":6199,"à°£à°¹à°¤":6200,"à°°à°®à°¸":6201,"à°ľà°¨à°°à°²":6202,"à°·à°£à°²à°¨":6203,"à°¨à°µà°®":6204,"à°īà°ľ":6205,"386":6206,"387":6207,"Ġ145":6208,"578":6209,"10601201735":6210,"10403201737":6211,"Ġà°®à°Ĺà°¬":6212,"126112016338":6213,"11703201738":6214,"12404201623":6215,"ÂłÂłÂłĠÂłÂłÂłĠÂłÂłÂłÂłÂłÂłÂłÂłÂłÂłÂłÂłÂłÂłÂłÂłÂłÂłÂłÂłÂłÂłÂłÂłÂł":6216,"123112016337":6217,"82017455":6218,"art":6219,"à°²à°µà°²à°¸":6220,"Ġà°ķà°¹":6221,"à°£à°®à°µ":6222,"à°ħà°°à°ķ":6223,"à°ħà°²à°°":6224,"12110201516":6225,"Ġà°¤à°²à°¦à°¨":6226,"à°¬à°¡à°¤":6227,"Ġà°¨à°¡à°µà°¬":6228,"131122017":6229,"à°¤à°µà°®à°¨":6230,"à°µà°Ĺà°²à°¨":6231,"183":6232,"482":6233,"570":6234,"107102015159":6235,"1060720174":6236,"10610201747":6237,"11607201626":6238,"126042017403":6239,"118102017478":6240,"114042016229":6241,"103052017406":6242,"ÂłÂłÂłĠÂłÂłÂłĠÂłÂłÂłÂłÂłÂłÂłÂłÂłÂłÂłÂłÂłÂłÂłÂłÂłÂłÂłÂłÂłÂłÂłÂłÂłÂłÂłÂł":6243,"1050820174":6244,"11210201516":6245,"10311201748":6246,"à°¡à°Ĺà°²à°¦":6247,"062016255":6248,"ÂłÂłÂłĠÂłÂłĠÂłĠÂłĠÂłĠÂłĠÂłĠÂłĠÂłĠÂłĠÂłÂł":6249,"131122017514":6250,"ĠG":6251,"à°¨à°°à°¸à°°":6252,"ÂłÂłĠÂłĠÂł":6253,"Ġà°Ĩà°Ń":6254,"à°²à°¨à°¤":6255,"Ġà°¶à°¤à°°":6256,"Ġà°Īà°²à°²":6257,"Ġà°¤à°¨à°ªà°Ł":6258,"Ġà°ĵà°İ":6259,"Ġà°ħà°¡à°Ĺà°°":6260,"1111220151":6261,"12112201634":6262,"à°¨à°²à°Ń":6263,"à°Īà°İà°²":6264,"Ġà°ļà°¦à°µà°ķ":6265,"à°¨à°¤à°²à°¨":6266,"161":6267,"171":6268,"à°¦à°¯à°ª":6269,"Ġà°ľà°¯à°²à°ķ":6270,"590":6271,"118052017415":6272,"12503201738":6273,"12501201736":6274,"10504201739":6275,"10312201634":6276,"122015189":6277,"111201517":6278,"à°¿à°ģ":6279,"à°°à°µà°²à°¸":6280,"à°¤à°ļà°°":6281,"à°¡à°¶":6282,"à°Ĺà°µà°ķ":6283,"Ġà°¨à°¯à°®":6284,"à°§à°ļ":6285,"ÂłÂłÂłÂłčĊ":6286,"Ġà°ĵà°¡à°°":6287,"à°°à°µà°Ń":6288,"11101":6289,"1211120163":6290,"Ġ040":6291,"Ġà°¨à°µà°¯":6292,"à°¿..âĢĻ":6293,"à°Ĵà°¤":6294,"344":6295,"à°ļà°Ĺà°²à°Ĺ":6296,"10712201634":6297,"Ġà°Ńà°¯à°ªà°¡à°Ł":6298,"Ġà°§à°¨à°²à°ķ":6299,"118112016335":6300,"128042017404":6301,"Ġ270":6302,"13010201748":6303,"1250420174":6304,"11307201626":6305,"113072017438":6306,"ÂłÂłÂłĠÂłÂłÂłĠÂłÂłÂłÂłÂłÂłÂłÂłÂłÂłÂłÂłÂłÂłÂłÂłÂłÂłÂłÂłÂłÂłÂłÂłÂłÂł":6307,"à°®à°µà°°à°ª":6308,"6201511":6309,"82016297":6310,"à°ķà°·à°¨":6311,"à°®à°§à°¨":6312,"Ġà°ħà°°à°¸":6313,"à°¿à°Ĥ,":6314,"à°³à°¡à°®":6315,"à°²à°ķà°¨à°Ĺ":6316,"1010820174":6317,"à°¸à°°à°²":6318,"Ġà°µà°°à°µà°°à°°":6319,"à°·à°£à°²à°ķ":6320,"à°ŀà°µà°²":6321,"459":6322,"10710201747":6323,"11010201747":6324,"106112016330":6325,"11802201737":6326,"ĠÂłĠÂłĠÂłĠÂłÂłÂł":6327,"Ġ........":6328,"à°Ĥ):":6329,"âĢĵ-":6330,"11101201576":6331,"à°¦à°Ĺà°¡":6332,"à°®à°Łà°¨":6333,"à±Ĩà±į":6334,"Ġà°µà°¨à°µ":6335,"à±įâĢĮ'":6336,"Ġà°İà°İ":6337,"Ġà°ĵà°£":6338,"10112":6339,"à°ķà°Łà°®":6340,"à°²à°Ĺà°Ł":6341,"Ġ151":6342,"452":6343,"à°ĥ.":6344,"492":6345,"580":6346,"11612201750":6347,"11910201516":6348,"12410201516":6349,"12408201630":6350,"10309201630":6351,"à°£à°¨à°·":6352,"11207201626":6353,"Ġà°ķà°²à°µà°°à°ªà°°":6354,"11510201632":6355,"Ġà°µà°²à°¸à°¦":6356,"042017405":6357,"à°Ĥġ":6358,"à°¸à°³":6359,"Ġà°®à°¤à°®":6360,"Ġà°¸à°µà°¨à°®":6361,"Ġà°Īà°¬":6362,"Ġà°Ĳà°®":6363,"040":6364,"2017401":6365,"à°¹à°°à°ļà°¨":6366,"141":6367,"à°§à°¤à°¤":6368,"108112017488":6369,"109052017409":6370,"10611201516":6371,"104092015148":6372,"11711201517":6373,"1240520174":6374,"ÂłÂłÂłĠÂłÂłÂłÂłÂłÂłÂłÂłÂłÂłÂłÂłÂłÂłÂłÂłÂłÂłÂłÂłÂłÂłÂł":6375,"121042017401":6376,"120122017":6377,"052015110":6378,"Ġà°Łà°ªà°Łà°ª":6379,"1011220174":6380,"ow":6381,"ĂĂ":6382,"à°ķà°µà°¨":6383,"Ġà°¦à°¶à°¨":6384,"à°£à°¬":6385,"Ġà°ħà°¦à°²":6386,"1110820162":6387,"à°¤à°²à°µ":6388,"à°¨à°¦à°Ł":6389,"Ġ1982":6390,"Ġà°ıà°ķà°µà°ļà°¨":6391,"Ġà°ľà°°à°Ĺà°Ĺ":6392,"108012015":6393,"11010201516":6394,"à±ģ........":6395,"11903201738":6396,"ÂłÂłÂłĠÂłÂłÂłĠÂłĠÂłĠÂłĠÂłĠÂłĠÂłĠÂłĠÂłĠÂłĠÂłĠÂłĠÂłĠÂłĠÂłĠÂłĠÂłĠÂłĠÂłĠÂłĠÂłĠÂłĠÂłĠÂłĠÂłĠÂłĠÂłĠÂłĠÂł":6397,"ÂłÂłÂłĠÂłÂłÂłĠÂłÂłÂłÂłÂłÂłÂłÂłÂłÂłÂłÂłÂłÂłÂłÂłÂłÂłÂłÂłÂłÂłÂłÂłÂłÂłÂłÂłÂł":6398,"ÂłÂłÂłĠÂłÂłÂłÂłÂłÂłÂłÂłÂłÂłÂłÂłÂłÂłÂłÂłÂłÂłÂłÂłÂłÂłÂłÂłÂłÂł":6399,"ÂłÂłÂłĠÂłÂłÂłÂłÂłÂłÂłÂłÂłÂłÂłÂłÂłÂłÂłÂłÂłÂłÂłÂłÂłÂłÂłÂłÂłÂłÂł":6400,"ÂłÂłÂłĠÂłÂłÂłĠÂłÂłĠÂłĠÂłĠÂłĠÂł":6401,"01201576":6402,"Ġby":6403,"11112201518":6404,"111082016296":6405,"à°Ĺà°¦à°¨":6406,"à±Ĥ_":6407,"à°¬à°¯à°²":6408,"Ġà°ıà°Ĳ":6409,"ÂłÂłÂłĠÂłÂłÂłÂłÂłÂłÂłÂłÂłÂłÂłÂłÂłÂłÂłÂłÂłÂłÂłÂłÂłÂłÂłÂłÂłÂłÂłÂłÂłÂłÂłÂłÂłÂłÂłÂłÂłÂłÂłÂłÂłÂłÂłÂłÂłÂłÂłÂłÂłÂłÂłÂłÂłÂłÂłÂłÂłÂłÂłÂłÂłÂłÂłÂł":6410,"Ġà°¤à°¨à°µà°²":6411,"à°Łà°²à°¦":6412,"1210620174":6413,"Ġà°¸à°Ńà°²à°¨":6414,"347":6415,"454":6416,"489":6417,"10812201518":6418,"108072015127":6419,"11001201576":6420,"1040620162":6421,"12703201738":6422,"127042017404":6423,"12801201736":6424,"1300520174":6425,"à°¬à°¦à°¬":6426,"12005201511":6427,"ÂłÂłÂłĠÂłÂłÂłĠÂłÂłÂłÂłÂłÂłÂłÂłÂłÂłÂłÂłÂłÂłÂłÂłÂłÂłÂłÂłÂłÂłÂłÂłÂłÂłÂłÂłÂłÂłÂłÂłÂł":6428,"103102016318":6429,"à°¯à°Ńà°Ł":6430,"115112016334":6431,"ur":6432,"Ġ;":6433,"Ġ......\"":6434,"à°ķà°µà°ļ":6435,"Ġà°Ĩà°¡à°Ĺ":6436,"Ġà°ªà°°à°ª":6437,"à°ľà°¨à°¸":6438,"Ġà°ĸà°¨à°¨":6439,"Ġà°µà°²à°¸à°ª":6440,"Ġ124":6441,"à°¯à°£à°¤":6442,"285":6443,"Ġà°ľà°°à°Ĺà°¨à°Ł":6444,"10804201739":6445,"10709201746":6446,"107052017408":6447,"109082017449":6448,"998":6449,"12610201516":6450,"126102016326":6451,"11803201738":6452,"12802201737":6453,"12907201629":6454,"à±įâĢĻ,":6455,"1150720174":6456,"Ġà°µà°²à°¨à°¨":6457,"102092017459":6458,"082017456":6459,"1221220175":6460,"092016310":6461,"à°Ķà°Ł":6462,"ÂłÂłĠÂłÂłÂłĠÂłÂłÂłĠÂłĠÂłĠÂłĠÂłĠÂłĠÂłĠÂłĠÂłĠÂłĠÂłĠÂłĠÂł":6463,"10109201630":6464,"336":6465,"ec":6466,"if":6467,"à°¨à°®à°²":6468,"à°²à°¦à°Ĺ":6469,"à°ķà°ļà°°":6470,"à°ªà°£à°ķ":6471,"Ġà°ļà°°à°®à°Ĺ":6472,"à°·à°®à°µ":6473,"à°¬à°ª":6474,"à°°à°¤à°²à°¨":6475,"à°°à°®à°Ł":6476,"Ġ116":6477,"à°¤à°¨à°µ":6478,"1111020174":6479,"1110720174":6480,"Ġà°·à°«":6481,"151":6482,"à±įâĢĮ).":6483,"à±ģ--":6484,"à±ĭ!'":6485,"10803201737":6486,"106082015137":6487,"11609201515":6488,"996":6489,"11912201634":6490,"11907201744":6491,"129112016339":6492,"12007201744":6493,"ÂłÂłÂłĠÂłÂłÂłĠÂłÂłÂłÂłÂłÂłÂłÂłÂłÂłÂłÂłÂłÂłÂłÂłÂłÂłÂłÂłÂłÂłÂłÂłÂłÂłÂł":6494,"10510201747":6495,"10310201747":6496,"Ġà°°à°£à°°":6497,"11512201750":6498,"062015124":6499,"3201622":6500,"ess":6501,"à°ķà°µà°²":6502,"à±ĩ......\"":6503,"à°Łà°¬à°Ł":6504,"Ġà°ķà°¦à°°":6505,"Ġà°®à°Ĺà°¡":6506,"à°³à°ªà°¤":6507,"Ġà°ľà°¤à°ķà°Ł":6508,"Ġà°²à°Ĺà°¡à°ª":6509,"10107201626":6510,"à°ªà°°à°°":6511,"Ġà°¤à°ªà°¨à°¤":6512,"Ġà°¨à°µà°¦":6513,"à°°à°¦à°Ĺ":6514,"à°°à°¹à°¸à°¨":6515,"Ġ1981":6516,"à°ķà°°à°£à°²à°¤":6517,"Ġà°¬à°°à°¬à°°":6518,"à°°à°ķà°Łà°¨à°ª":6519,"108072017436":6520,"à±ģ):":6521,"110072017437":6522,"11609201746":6523,"116082016298":6524,"1280720162":6525,"1240920163":6526,"à°ļà°²à°¨à°®":6527,"868":6528,"11301201577":6529,"11502201737":6530,"052017416":6531,"012016197":6532,"022016208":6533,"ÂłÂłĠÂłĠÂłĠÂłĠÂłĠÂłĠÂł":6534,"798":6535,"à°°à°²à°ª":6536,"à°¦à°®à°°":6537,"à±ģ.âĢĺ":6538,"à°¹à°¨à°®":6539,"Ġà°Ńà°µà°¤":6540,"à°¿,\"":6541,"à°Ĩà°¦à°°":6542,"tel":6543,"à°ķà°¡à°¤":6544,"à°µà°¡à°¦":6545,"à°ıà°¹":6546,"Ġà°Ĭà°°à°ķ":6547,"080":6548,"à°¨à°¸à°¬":6549,"Ġà°Ĩà°ķà°¸à°®":6550,"à±Ĩ.\"":6551,"464":6552,"Ġà°Ĺà°µà°°à°¯":6553,"127122016350":6554,"11812201750":6555,"130052016247":6556,"105102016319":6557,"10501201735":6558,"10212201634":6559,"Ġà°ªà°¡à°ķà°Ĺà°¦":6560,"125112016338":6561,"52017417":6562,"22016206":6563,"1310720151":6564,"à¤":6565,"à°¯à°ªà°²":6566,"à°¡à°ļà°°":6567,"à°®à°Ĺà°°":6568,"Ġà°¹à°°à°Ĺ":6569,"à°®à°¨à°¨":6570,"1011120163":6571,"Ġà°ħà°°à°µà°ķ":6572,"12101201735":6573,"305":6574,"à°²à°®à°Ĺ":6575,"à°¤à°µà°¯à°¸":6576,"295":6577,"10809201746":6578,"10707201626":6579,"10912201634":6580,"10909201746":6581,"11003201738":6582,"116042016229":6583,"128092016316":6584,"11412201750":6585,"11209201746":6586,"Ġà°°à°ļà°¨à°²à°¨":6587,"13103201739":6588,"Ġx":6589,"à°ķà°¦à°¨":6590,"Ġà°¦à°¬à°¦à°¬":6591,"203":6592,"Ġà°Ĳà°İà°«":6593,"Ġ1962":6594,"199":6595,"Ġ8000":6596,"243":6597,"297":6598,"à±ģ:-":6599,"495":6600,"10812201634":6601,"Ġà°ķà°¨à°¬à°¡à°¦":6602,"11012201634":6603,"10609201746":6604,"1040820151":6605,"11612201518":6606,"117062017427":6607,"11402201736":6608,"Ġà°°à°¸à°®à°¯":6609,"1050920151":6610,"10503201737":6611,"à±Ĥ-\"":6612,"ÂłÂłÂłĠÂłÂłÂłÂłÂłÂłÂłÂłÂłÂłÂłÂłÂłÂłÂłÂłÂłÂłÂłÂłÂłÂłÂłÂłÂł":6613,"052015114":6614,"11311201749":6615,"92016308":6616,"426":6617,"Ġ[":6618,"à°¨à°¡à°ķ":6619,"à°¤à°¹à°¸":6620,"à°¦à°µà°²à°¸":6621,"à°¡à°¬à°¡":6622,"à°£à°°à°¤":6623,"Ġà°²à°¤à°ķ":6624,"à°«à°¯à°°":6625,"Ġ138":6626,"à°ķà°²à°Ĺ":6627,"à°°à°¯à°µ":6628,"à°Łà°¨à°ķ":6629,"à°®à°ķà°¤":6630,"à°£à°¯à°®à°¨":6631,"193":6632,"251":6633,"349":6634,"442":6635,"108082017449":6636,"107092015149":6637,"à°¸à°Ńà°²à°ķ":6638,"Ġà°¬à°¯à°Łà°ªà°¡à°ķ":6639,"1040720174":6640,"128062016259":6641,"11712201518":6642,"à±ĩ.......":6643,"880":6644,"123062017429":6645,"Ġà°ħà°µà°¤à°²à°µ":6646,"11509201746":6647,"ug":6648,"à°®à°¦à°°":6649,"à°®à°ªà°°":6650,"Ġà°²à°°":6651,"Ġà°²à°¯à°¬à°¦":6652,"Ġà°Ĵà°ļ":6653,"à°İà°¹":6654,"à°¯à°ķà°³":6655,"10112201634":6656,"11201634":6657,"1110520174":6658,"Ġ210":6659,"201579":6660,"Ġ1965":6661,"195":6662,"345":6663,"Ġ148":6664,"10907201626":6665,"106102016319":6666,"10412201750":6667,"104112016329":6668,"1260520174":6669,"12602201737":6670,"11807201744":6671,"12908201630":6672,"13012201635":6673,"13011201634":6674,"1230920163":6675,"10303201737":6676,"ÂłÂłÂłĠÂłÂłÂłĠÂłÂłÂłÂłÂłÂłÂłÂłÂłÂłÂłÂłÂłÂłÂłÂłÂłÂłÂłÂł":6677,"10208201629":6678,"10312201750":6679,"ÂłÂłÂłĠÂłÂłĠÂłĠÂłĠÂłĠÂłĠÂłĠÂłĠÂłĠÂłĠÂłĠÂłĠÂłĠÂłĠÂł":6680,"22017369":6681,"105201511":6682,"'.":6683,"Ġà°®à°ĸ":6684,"Ġà°¨à°µà°°à°¤":6685,"Ġà°¦à°¶à°®":6686,"à°¹à°¨à°¨":6687,"11107201626":6688,"Ġà°ªà°¡à°°":6689,"à°µà°¨à°¦":6690,"Ġà°¤à°²à°İà°¤":6691,"à°·à°£à°²à°¤":6692,"303":6693,"Ġ1948":6694,"Ġ1952":6695,"à°®à°¹à°¦":6696,"353":6697,"457":6698,"474":6699,"10807201626":6700,"108082015138":6701,"128092015156":6702,"117072015130":6703,"11409201515":6704,"11411201633":6705,"130072017445":6706,"1200820174":6707,"1200920163":6708,"11209201515":6709,"11512201634":6710,"12311201749":6711,"120082017454":6712,"à°¡à°²à°²":6713,"Ġà°µà°¡à°ª":6714,"à°Ĩà°ľ":6715,"1010620162":6716,"1110820151":6717,"1210820151":6718,"Ġà°īà°ªà°ķà°°à°£":6719,"255":6720,"281":6721,"279":6722,"391":6723,"à°¯à°ªà°¡à°Ł":6724,"108052015107":6725,"108102016320":6726,"10911201517":6727,"110062017424":6728,"1060520162":6729,"118062017427":6730,"11908201745":6731,"12806201743":6732,"11706201625":6733,"129082017457":6734,"13008201630":6735,"1230720151":6736,"1250820174":6737,"1050720174":6738,"112052015108":6739,"10210201747":6740,"Ġà°¸à°µà°°à°£à°ķ":6741,"11201201735":6742,"11102201736":6743,"11109201746":6744,"125082017456":6745,"Ġà°°à°¹à°®":6746,"à°¹à°²à°¨":6747,"Ġà°ħà°¨à°Ĺà°²":6748,"ÂłÂłÂłĠÂłÂłÂłÂłÂłÂłÂłÂłÂł":6749,"à°¯à°¨à°Ĺ":6750,"1011020163":6751,"1010620174":6752,"10111201748":6753,"11101201735":6754,"Ġà°İà°¨à°ķ":6755,"309":6756,"à°®à°ķà°¸":6757,"à°¾..âĢĻ":6758,"13112":6759,"259":6760,"287":6761,"Ġà°®à°²à°¬à°¦":6762,"107082015137":6763,"ÂłÂłÂłÂłÂłĠÂłčĊ":6764,"12607201744":6765,"12006201512":6766,"11309201515":6767,"1150520174":6768,"11212201518":6769,"112015174":6770,"Ġà°ķà°£à°¤à°²":6771,"ity":6772,"à°Ńà°¯à°ªà°¡à°ķ":6773,"13112201635":6774,"538":6775,"à°¡à°ªà°Ł":6776,"Ġà°Ĩà°¯à°®":6777,"ÂłÂłÂłĠÂłÂłÂłÂłÂłÂłÂłÂłÂłÂłÂłÂłÂłÂłÂłÂłÂł":6778,"ÂłÂłÂłÂłÂłÂłĠÂłčĊ":6779,"Ġà°ķà°¨à°ªà°¡à°¤":6780,"1110620162":6781,"à°¨à°¦à°¯":6782,"à°¨à°¤à°¤":6783,"271":6784,"273":6785,"351":6786,"475":6787,"588":6788,"10801201735":6789,"10912201518":6790,"10904201739":6791,"1241220175":6792,"123082017455":6793,"1250420162":6794,"12508201630":6795,"105112017486":6796,"Ġà°Ńà°°à°¤à°¨":6797,"inan":6798,"op":6799,"Ġà±":6800,"à°¦à°¦à°¯":6801,"à±ĭà°ģ":6802,"à°®à°¥":6803,"à°Ĺà°®à°µ":6804,"Ġà°ªà°Ĺà°¡":6805,"Ġà°ļà°¯à°¨":6806,"Ġà°Ĺà°³à°®":6807,"à°µà°°à°ªà°²":6808,"ÂłÂłĠÂłÂłÂłĠÂłÂłĠÂłĠÂłĠÂłĠÂłĠÂłĠÂłĠÂłĠÂłĠÂłĠÂłĠÂłĠÂłĠÂłĠÂłĠÂłĠÂłĠÂłĠÂłĠÂłĠÂłĠÂłĠÂłĠÂłĠÂł":6809,"à°¤à°¨à°Ĺà°°":6810,"Ġà°ľà°°à°Ĺà°°":6811,"à°¸à°°à°Ł":6812,"1110520162":6813,"Ġà°ħà°ªà°ļ":6814,"507":6815,"Ġ1972":6816,"à°²à°¬à°¡à°Ĺà°²":6817,"393":6818,"598":6819,"à°¤à°¤à°¤":6820,"10901201735":6821,"à°İà°µà°°à°¨":6822,"106082017448":6823,"126112017497":6824,"11810201516":6825,"12401201736":6826,"130112015178":6827,"102017474":6828,"12502201737":6829,"10302201736":6830,"1150620174":6831,"10204201739":6832,"Ġà°Ŀà°³":6833,"122112016337":6834,"1210920163":6835,"à°ķà°¨à°µà°¸à°°":6836,"à°µà°¨à°Ł":6837,"à°§à°¨à°ª":6838,"à°ĸà°²à°¯":6839,"à°ĸà°ķà°µ":6840,"à°«à°Ĺ":6841,"10101201735":6842,"à°Łà°¨à°Ĺà°°":6843,"Ġà°§à°®":6844,"Ġà°ļà°¦à°µà°¨":6845,"Ġ1979":6846,"257":6847,"Ġ172":6848,"472":6849,"109062017424":6850,"11009201746":6851,"1260920163":6852,"126062016258":6853,"119082016299":6854,"12906201743":6855,"129082015145":6856,"12408201745":6857,"11409201746":6858,"10512201518":6859,"11211201749":6860,"102052017406":6861,"102092015147":6862,"12212201634":6863,"ĠÂłÂłĠÂłĠÂłĠÂłĠÂłĠÂłĠÂłĠ":6864,"12011201517":6865,"238":6866,"à°²à°¬à°°":6867,"à±ĭâĢĮ":6868,"à°¸à°²à°¯":6869,"Ġà°ħà°ļà°Ł":6870,"Ġà°®à°¡à°ķ":6871,"à°¹à°ªà°¤":6872,"Ġà°ħà°¨à°µà°¸":6873,"à°ķà°°à°¤":6874,"1210720174":6875,"Ġà°ªà°¡à°ķà°®":6876,"à°¨à°ªà°°à°®":6877,"Ġà°īà°ªà°ĸ":6878,"à°Īà°İ":6879,"à°Īà°ı":6880,"076":6881,"à±ģ..\"":6882,"à°¢à°µ":6883,"Ġ1967":6884,"à°ªà°¦à°¹":6885,"253":6886,"à±ĭ..?":6887,"109112017488":6888,"à±į.......":6889,"11712201750":6890,"129062016259":6891,"1240620162":6892,"12407201513":6893,"1250720151":6894,"11212201634":6895,"10206201742":6896,"072016268":6897,"Ġà°ħà°µà°¯à°µà°¦":6898,"Ġà°ķà°¨à°¬à°°à°ļ":6899,"62015119":6900,"13101201736":6901,"spot":6902,"?'":6903,"ion":6904,"à°ķà°¬à°Ł":6905,"à°ªà°¶à°°":6906,"Ġà°µà°°à°£":6907,"à°Łà°²à°µà°°à°ķ":6908,"111052015":6909,"11110201516":6910,"Ġà°·à°·":6911,"Ġà°Ĩà°¶à°²à°ª":6912,"à°²à°µà°¬":6913,"Ġà°ĩà°¨à°«":6914,"à°¦à°®à°¸":6915,"Ġà°¬à°¸à°ļ":6916,"1800":6917,"485":6918,"à°ĺà°Łà°¨à°²à°ķ":6919,"574":6920,"592":6921,"109072015127":6922,"11011201517":6923,"106112017487":6924,"Ġà°īà°°à°«":6925,"à°¿',":6926,"116102017477":6927,"129072015134":6928,"12912201635":6929,"12407201744":6930,"124062017430":6931,"11405201624":6932,"13005201511":6933,"1250920151":6934,"Ġà°ķà°¨à°ªà°¡à°¡":6935,"Ġà°Ĳà°ķà°®à°¤":6936,"................":6937,"inancial":6938,"111052015108":6939,"125092015155":6940,"799":6941,"à°¿à±ģ":6942,"âĢĮà±ĥ":6943,"Ġà°¬à°«":6944,"Ġà°¶à°°à°Ń":6945,"Ġà°«à°²à°ª":6946,"Ġà°Ĵà°ķà°ķ":6947,"à°ħà°ķà°¸":6948,"à±ĭà°Ĥ.":6949,"1010720174":6950,"307":6951,"ÂłÂłÂłÂłÂłÂłÂłÂłÂłÂłÂłÂłÂłÂłÂłÂłÂłÂłÂłÂłÂł":6952,"à°²à°µà°®":6953,"090":6954,"à±ģ!!!":6955,"056":6956,"057":6957,"012016":6958,"à°Ĵà°¬":6959,"1310520162":6960,"Ġ121":6961,"267":6962,"476":6963,"465":6964,"10903201737":6965,"11008201629":6966,"10612201634":6967,"ĠĠĠĠĠĠĠ":6968,"1261220175":6969,"12601201736":6970,"12708201514":6971,"12909201747":6972,"12409201746":6973,"860":6974,"12509201746":6975,"113062017425":6976,"10306201742":6977,"1050520174":6978,"122092015154":6979,"10320159":6980,"11312201634":6981,"092016317":6982,"ĠÂłÂłĠÂłĠÂłĠÂłĠÂłĠÂłĠÂł":6983,"rolog":6984,"11109201630":6985,"214":6986,"==":6987,"à°Łà°Ĺà°¡":6988,"à°®à°ĺ":6989,"à°¬à°°à°®":6990,"Ġà°²à°¸":6991,"1010520174":6992,"1210520162":6993,"Ġà°ħà°ªà°¹à°°à°£":6994,"à°Ĺà°²à°®à°¨":6995,"à°Ĳà°Ĳà°²":6996,"à°®à°ķà°¥à°²":6997,"à°¡à°¨à°Ĺ":6998,"à°°à°Ĺà°µà°ļ":6999,"10603201737":7000,"10407201626":7001,"104102016318":7002,"129042016234":7003,"11410201516":7004,"13010201516":7005,"123062016257":7006,"11305201624":7007,"11503201738":7008,"thef":7009,"125122015188":7010,"ÂłÂłÂłĠÂłÂłĠÂłĠÂłĠÂłĠÂłĠÂłĠÂłĠÂłĠÂłĠÂł":7011,"ÂłÂłĠÂłÂłĠÂłĠÂłĠÂłĠÂłĠÂłĠÂłĠÂłĠÂłĠÂłĠÂłĠÂłĠÂłĠÂłĠÂłĠÂłĠÂł":7012,"5201510":7013,"ĠÂłÂłĠÂłĠÂłĠÂłĠÂłĠÂł":7014,"2201587":7015,"120112017494":7016,"125042017403":7017,"rologer":7018,"310":7019,"à°°à°ļà°°":7020,"à°¯à°¬à°°":7021,"à±Īà±ģ":7022,"...!":7023,"Ġà°ķà°²à°Ĺà°¦":7024,"Ġà°ľà°°à°Ĺà°µ":7025,"à°¤à°°à°¨":7026,"111072015":7027,"à°¿!!!":7028,"à±ģ?...":7029,"à±į!!":7030,"1310520174":7031,"277":7032,"371":7033,"10806201742":7034,"10604201739":7035,"11609201630":7036,"12708201630":7037,"1140720174":7038,"112017485":7039,"12003201738":7040,"12308201630":7041,"1130520174":7042,"11211201633":7043,"à°¦à°ķà°°à°®à°¨":7044,"Ġà°¸à°¤à°®à°¤à°®":7045,"12102201737":7046,"à°ĸà°ķà°µà°³":7047,"12107201744":7048,"111072015128":7049,"408":7050,"im":7051,"à°¦à°·":7052,"à°ļà°Ń":7053,"2010":7054,"1010820151":7055,"11111201748":7056,"1210920151":7057,"à°¯à°¡à°®à°¨":7058,"à°Łà°ķà°¶":7059,"Ġ153":7060,"181":7061,"221":7062,"587":7063,"575":7064,"ĠĠĠĠĠĠ":7065,"11812201518":7066,"118062015120":7067,"11911201749":7068,"11902201737":7069,"11908201514":7070,"12808201630":7071,"128072015134":7072,"128122016350":7073,"1250620162":7074,"11301201735":7075,"10509201746":7076,"1220920163":7077,"103112016329":7078,"112082016296":7079,"Ġà°¨à°°à°ķà°®":7080,"à±¦à±¦à±¦":7081,"thefinancial":7082,"125062016258":7083,"Ġv":7084,"à±ĩ/":7085,"à°ªà°¥à°ķ":7086,"ÂłÂłÂłÂłÂłĠčĊ":7087,"Ġà°Ĩà°ªà°Ł":7088,"2007":7089,"à°µà°°à°£à°²":7090,"Ġà°¹à°°à°¨":7091,"à°¦à°°à°ªà°¡à°ķ":7092,"101072015":7093,"Ġà°Ĩà°°à°¨":7094,"Ġà°¤à°²à°°":7095,"Ġà°ĸà°¯":7096,"Ġà°¨à°µà°²à°ķ":7097,"Ġà°Ĭà°¤à°ª":7098,"Ġà°¤à°Ĺà°¨":7099,"Ġ320":7100,"Ġà°Ĩà°Ĺà°Ĺ":7101,"Ġ550":7102,"à°§à°¨à°²à°ª":7103,"191":7104,"à°Ĥ!'":7105,"109022017367":7106,"à±ģ',":7107,"128052016246":7108,"ÂłÂłÂłĠÂłÂłÂłĠÂłĠÂłĠÂłĠÂłĠÂłĠÂłĠÂłĠÂłĠÂłĠÂłĠÂłĠÂłĠÂłĠÂłĠÂłĠÂłĠÂłĠÂłĠÂłĠÂłĠÂłĠÂłĠÂłĠÂłĠÂłĠÂłĠÂłĠÂłĠÂłĠÂłĠÂłĠÂł":7109,"11702201737":7110,"11708201745":7111,"130042017405":7112,"à±įâĢĻ.":7113,"1250520174":7114,"122062017429":7115,"10102201736":7116,"Ġà°¤à°³à°¤à°³":7117,"ube":7118,"HE":7119,"à°¤à°ªà°¦":7120,"à°¿.!":7121,"à°¦à°°à°¹":7122,"Ġà°¡à°µ":7123,"Ġà°ªà°°à°²":7124,"à°ħà°Łà°µ":7125,"à°¸à°°à°¡":7126,"à°²à°¯à°ľ":7127,"Ġ:---":7128,"03201596":7129,"564":7130,"à°ļà°Ĺà°²à°°à°¨":7131,"à°İà°µà°°à°¦":7132,"10612201518":7133,"12706201743":7134,"11810201632":7135,"12910201516":7136,"11409201630":7137,"103092017459":7138,"115052015109":7139,"102072015":7140,"ÂłÂłÂłĠÂłÂłÂłĠÂłÂłÂłĠÂłĠÂłĠÂłĠÂłĠÂłĠÂłĠÂłĠÂłĠÂłĠÂłĠÂłĠÂł":7141,"123102016325":7142,"à°Ńà°ľà°¨à°¨":7143,"res":7144,"ÂłÂłĠÂłÂłÂłĠÂłÂłÂłĠÂłÂłÂłÂłÂłÂłÂłÂłÂłÂłÂłÂłÂłÂłÂłÂłÂłÂłÂłÂłÂłÂłÂłÂłÂłÂłÂłÂł":7145,"ÂłÂłĠÂłÂłÂłĠÂłÂłÂłÂłÂłÂłÂłÂłÂłÂłÂłÂłÂłÂłÂłÂłÂłÂłÂłÂłÂł":7146,"à±ĩà°ģ":7147,"à°¡à°ľ":7148,"Ġà°ħà°¥à°°":7149,"Ġà°¤à°°à°®":7150,"à°Ńà°£":7151,"à°ķà°°à°ª":7152,"Ġà°Łà°«":7153,"à°«à°¤":7154,"utube":7155,"Ġà°ķà°²à°µà°Ł":7156,"Ġà°®à°¨à°¬à°¡":7157,"1010320162":7158,"à°¯à°¤à°Ĺà°²":7159,"Ġà°ķà°°à°¡":7160,"à°Īà°Ĺ":7161,"058":7162,"Ġ2030":7163,"à°®à°£à°®":7164,"291":7165,"293":7166,"233":7167,"467":7168,"à°ļà°Ĺà°²à°®":7169,"109052015107":7170,"11012201518":7171,"à°Ĺà°ľà°ªà°¤":7172,"11611201517":7173,"12901201736":7174,"1240420174":7175,"13009201747":7176,"760":7177,"10307201626":7178,"082016295":7179,"042015104":7180,"ast":7181,"youtube":7182,"ĠÂłÂłĠ":7183,"à°²à°Ĺà°°":7184,"à°¸à°°à°ķ":7185,"Ġà°µà°¡à°²":7186,"à°·à°µà°²à°¯":7187,"à°§à°°à°²":7188,"Ġà°ĩà°¤à°Ĺ":7189,"à°¥à°¡":7190,"Ġà°¶à°Ń":7191,"à°«à°²à°¯à°¤":7192,"Ġà°ķà°²à°µà°ķ":7193,"à°ĩà°Ĺ":7194,"à°¤à°ķà°³":7195,"Ġà°Ĩà°¶à°ª":7196,"Ġà°¬à°¯à°Łà°µ":7197,"070":7198,"Ġà°Ĩà°Ĺà°·":7199,"à°°à°Ĺà°Ĺ":7200,"à°¯à°µà°¸à°°à°®":7201,"Ġà°§à°°à°²à°¤":7202,"Ġà°Ĺà°¦à°®":7203,"à±ĩ..?":7204,"ÂłÂłÂłĠÂłÂłÂłĠÂłÂłÂłĠÂłÂłÂłÂłÂłÂłÂłÂłÂłÂłÂłÂłÂłÂłÂłÂłÂłÂłÂłÂłÂłÂłÂłÂłÂłÂłÂłÂłÂłÂłÂłÂł":7205,"455":7206,"à±ģ'.":7207,"1100520162":7208,"Ġà°ħà°ľà°¹à°°":7209,"1160720174":7210,"12702201737":7211,"127052016246":7212,"1220520162":7213,"1020620162":7214,"102122015179":7215,"092016307":7216,"Ġà°¸à°¤à°®à°¤à°®à°¯":7217,"110042017396":7218,"406":7219,"à°¿âĢĵ":7220,"à°¤à°¤à°°":7221,"à°ªà°®à°ķ":7222,"Ġà°¨à°ĸ":7223,"à°¹à°®à°¨":7224,"Ġà°¶à°²":7225,"Ġà°¶à°¯à°¨":7226,"ÂłÂłÂłĠÂłÂłÂłÂłÂłÂłÂłÂłÂłÂłÂłÂłÂłÂłÂł":7227,"à°ħà°¨à°ķ":7228,"1110620174":7229,"Ġà°İà°¦à°Ĺà°²":7230,"Ġ365":7231,"Ġ4000":7232,"074":7233,"098":7234,"197":7235,"223":7236,"596":7237,"Ġà°ķà°µà°³":7238,"10712201518":7239,"109062015117":7240,"11007201626":7241,"12608201630":7242,"127072017444":7243,"11809201746":7244,"118042017400":7245,"128112016339":7246,"867":7247,"12002201737":7248,"Ġà°¨à°Łà°¨à°¨":7249,"à°ħà°¸à°¹à°¨":7250,"Ġan":7251,"12310201748":7252,"ang":7253,"111082015139":7254,"876":7255,"à±Ģà±ģ":7256,"à°°à°®à°¹":7257,"Ġà°¯à°²à°®":7258,"1111120163":7259,"à°¤à°²à°¬":7260,"à°ŀà°¯":7261,"1310720174":7262,"363":7263,"10811201517":7264,"109082015138":7265,"11002201620":7266,"10601201619":7267,"118062016255":7268,"13003201739":7269,"1200420174":7270,"à±Ĥ?'":7271,"12305201511":7272,"105112016330":7273,"10508201629":7274,"1251220175":7275,"122122015187":7276,"Ġà°®à°Ĺà°¤à°Ĺ":7277,"101082017446":7278,"ND":7279,"blog":7280,"à°¤à°°à°¸":7281,"à°¡à°Ń":7282,"à°ªà°ªà°¡":7283,"Ġà°®à°¥":7284,"à°¹à°³":7285,"Ġà°ľà°²à°Ĺ":7286,"à°µà°°à°ķà°²":7287,"Ġà°Ĵà°²à°ķà°¬":7288,"Ġà°Łà°¯":7289,"à°®à°¨à°Ł":7290,"à°¯à°ķà°¤à°¨":7291,"1010820162":7292,"Ġà°¤à°²à°Ĺ":7293,"à°¨à°¨à°¨":7294,"à°ķà°¨à°ķà°®":7295,"Ġ371":7296,"à°ľà°®à°µ":7297,"Ġ142":7298,"497":7299,"554":7300,"10711201748":7301,"10606201742":7302,"10402201736":7303,"10411201516":7304,"997":7305,"11808201514":7306,"114062017426":7307,"13007201629":7308,"10304201739":7309,"11509201630":7310,"à°Ńà°¨à°·":7311,"11310201632":7312,"à°µà°Ĺà°²à°°":7313,"Ġch":7314,"12109201746":7315,"125042016233":7316,"Ġà±ģ":7317,"à±ģà±įâĢĮ":7318,"à°ªà°ľà°¯":7319,"Ġà°ªà°¹à°°":7320,"à±įâĢĮâĢĺ":7321,"Ġà°ļà°Łà°°":7322,"Ġà°¦à°²à°ļ":7323,"à°¹à°¨à°²":7324,"2009":7325,"à±ĩà°Ĥ..":7326,"Ġà°ķà°²à°¤à°²":7327,"Ġà°ħà°°à°µà°Ł":7328,"12112201750":7329,"Ġà°ªà°¡à°µà°¨":7330,"Ġà°¸à°¹à°µ":7331,"032":7332,"à±ģ?:":7333,"à°¡à°ķà°²à°²":7334,"1311220151":7335,"Ġ129":7336,"à±įâĢĮ)-":7337,"à°¦à°¯à°Ĺ":7338,"385":7339,"à°ĵà°Ĩà°°":7340,"11904201623":7341,"12903201739":7342,"à±į):":7343,"Ġal":7344,"42016232":7345,"ÂłÂłĠÂłÂłÂłĠÂłÂłÂłĠÂłÂłÂłÂłÂłÂłÂłÂłÂłÂłÂłÂłÂłÂłÂłÂłÂłÂłÂłÂłÂłÂłÂłÂłÂłÂłÂł":7346,"Ġà°µà°¡à°Ĺà°³":7347,"Ġā":7348,"Ġă":7349,"à°¤à°¶à°ķ":7350,"à°Łà°¦à°¨":7351,"Ġà°ķà°°à°®":7352,"Ġà°Ĩà°ĺà°®":7353,"à°ĸà°Ĺ":7354,"à°µà°¡à°²":7355,"à°µà°¨à°¸":7356,"301":7357,"à°¨à°ªà°³":7358,"à°¾!âĢĻ":7359,"0420159":7360,"à°³à°¨à°²à°¨":7361,"383":7362,"389":7363,"231":7364,"Ġ171":7365,"469":7366,"542":7367,"à°ļà°Ĺà°²à°¦à°¨":7368,"10902201620":7369,"106072015126":7370,"12407201627":7371,"777":7372,"12507201627":7373,"72015128":7374,"1210720151":7375,"blogspot":7376,"??":7377,"ĠÂłÂłÂłÂłÂłÂłÂłÂłÂłÂłÂłÂłÂłÂłÂłÂłÂł":7378,"Ġor":7379,"à°¨à°¤à°°à°¹":7380,"à°¦à°¶à°ķ":7381,"à°Łà°Łà°®":7382,"à°®à°°à°¨":7383,"à°Ĺà°¨à°®":7384,"à°£à°ķà°²":7385,"à°¹à°¡":7386,"Ġà°ħà°¨à°ķà°ª":7387,"à°Ńà°ªà°°":7388,"2008":7389,"à°¤à°²à°¦":7390,"à°¬à°¡à°Ł":7391,"à°®à°°à°¥":7392,"099":7393,"à°¦à°ķà°®":7394,"Ġà°¸à°²à°¸à°²":7395,"584":7396,"106062016250":7397,"11805201624":7398,"128102016327":7399,"ÂłÂłÂłĠÂłÂłÂłĠÂłĠÂłĠÂłĠÂłĠÂłĠÂłĠÂłĠÂłĠÂłĠÂłĠÂłĠÂłĠÂłĠÂłĠÂłĠÂłĠÂłĠÂłĠÂłĠÂłĠÂłĠÂłĠÂłĠÂł":7400,"130012016":7401,"Ġà°¬à°²à°®à°¯":7402,"1030320162":7403,"10502201736":7404,"1120820151":7405,"11206201625":7406,"112062017425":7407,"à°ªà°Ĺà°²à°¦":7408,"07201512":7409,"Ġcon":7410,"12201201619":7411,"1310720162":7412,"3201594":7413,"335":7414,"à°¦à°ķà°¡":7415,"à°Ĺà°¨à°ķ":7416,"à±ĢâĢĵ":7417,"à±Ĩ?":7418,"Ġà°µà°ķà°Ł":7419,"à±ģ.,":7420,"à°²à°ķà°£":7421,"11112201634":7422,"Ġà°ªà°¡à°®à°°":7423,"Ġà°ħà°Ńà°¯à°®":7424,"à°§à°¨à°¶":7425,"Ġ1976":7426,"283":7427,"Ġ131":7428,"10906201625":7429,"109092015150":7430,"Ġà°Ķà°·":7431,"10409201630":7432,"104102015158":7433,"119112016335":7434,"11412201518":7435,"130092015156":7436,"130122017513":7437,"à°µà°²à°¨à°¨":7438,"12007201513":7439,"980":7440,"103092015147":7441,"Ġ|\"":7442,"Ġà°ħà°¡à°Ĺà°Ĺ":7443,"12210201516":7444,"à°Łà°Ĺà°²à°°":7445,"Ġà°ľà°¤à°ķà°²":7446,"Ġwith":7447,"Ġà°®à°¸à°ķà°¬":7448,"ia":7449,"ld":7450,"ĠV":7451,"à°¯à°ªà°¦":7452,"à±Ĩà±ģ":7453,"Ġà°¸à°£":7454,"Ġà°¦à°¯à°¤à°²":7455,"à°°à°§à°¨":7456,"Ġà°¨à°¡à°ªà°Ł":7457,"à°ŀà°µ":7458,"060":7459,"Ġà°¬à°²à°µà°°":7460,"341":7461,"Ġ133":7462,"à°¦à°¤à°¡":7463,"107062016250":7464,"à°¾....!":7465,"110052017409":7466,"127092016316":7467,"11812201634":7468,"117072016267":7469,"à°¾âĢĻ.":7470,"1250920163":7471,"11303201738":7472,"105062015116":7473,"1220720151":7474,"970":7475,"à°¡à°Ĺà°²à°µ":7476,"à°¨à°¬à°¡à°Ł":7477,"125102016326":7478,"ome":7479,"62016249":7480,"3201589":7481,"ĠÂłÂłÂłĠÂłÂłĠÂłÂł":7482,"10107201512":7483,"ĠÂłÂłÂłÂłÂłÂłÂłÂłÂłÂłÂłÂł":7484,"à°¤à°ªà°°à°ļ":7485,"ÂłĠÂłĠÂłĠÂłĠÂłĠÂłĠÂłĠÂłĠÂł":7486,"à°¯à°Ĩà°°":7487,"à°ªà°ķà°°à°£":7488,"à°Ĺà°µà°²à°¸":7489,"Ġà°Ĺà°°à°µà°¯":7490,"Ġà°ľà°µà°¸à°¤":7491,"Ġ225":7492,"à°µà°¨à°µ":7493,"3000":7494,"Ġà°¨à°¡à°ķà°¦":7495,"Ġà°ľà°¨à°ļ":7496,"373":7497,"483":7498,"10701201619":7499,"10602201620":7500,"10412201634":7501,"12706201512":7502,"127112015177":7503,"127072016276":7504,"11704201510":7505,"1140520174":7506,"780":7507,"12301201736":7508,"123042017402":7509,"11308201745":7510,"113072015129":7511,"10209201630":7512,"à°ķà°ļà°ļ":7513,"à±ģ_\"":7514,"131072015135":7515,"à°²à°¬à°Ł":7516,"ÂłĠÂłĠÂłĠÂłĠÂłĠÂłĠÂłĠÂłĠÂłĠÂłĠÂłĠÂłĠÂł":7517,"à°ªà°°à°ķ":7518,"Ġà°¬à°®":7519,"Ġà°İà°ļ":7520,"à°Ńà°§":7521,"Ġà°Ńà°ľà°¨à°²":7522,"Ġ139":7523,"Ġà°ħà°¯à°¸":7524,"Ġà°ħà°¦à°¯":7525,"Ġà°ªà°¡à°¸":7526,"à°µà°¨à°ªà°°":7527,"Ġà°§à°¨à°°":7528,"Ġà°ĸà°Ĺ":7529,"027":7530,"028":7531,"Ġ2050":7532,"Ġà°Ĩà°¹à°µà°¨":7533,"à±ĩ...?\"":7534,"à°ĵà°ı":7535,"473":7536,"582":7537,"589":7538,"579":7539,"10402201620":7540,"11608201514":7541,"116122016346":7542,"1191220151":7543,"112017495":7544,"12208201745":7545,"11203201738":7546,"125112017496":7547,"Ġare":7548,"Ġà°ľà°¨à°¸à°®":7549,"32016217":7550,"ÂłÂłĠÂłÂłÂłĠÂłÂłÂłÂłÂłÂłÂłÂłÂłÂłÂłÂłÂłÂłÂłÂłÂłÂłÂłÂłÂłÂłÂł":7551,"11201201619":7552,"121022015":7553,"101032017376":7554,"120112016336":7555,"13112201519":7556,"Ġà°µà°¶à°®":7557,"âĢĮ`":7558,"à°·à°¸à°°":7559,"à°§à°µà°ķ":7560,"Ġà°¦à°¯à°¤":7561,"à°£à°Ĺà°£":7562,"à°²à°¨à°®":7563,"à°¦à°°à°Ł":7564,"Ġà°·à°°à°ª":7565,"à°¨à°ķà°³":7566,"à°µà°¹à°ķ":7567,"Ġà°Ĭà°¦à°°à°Ĺ":7568,"à°³à°ķà°¦":7569,"241":7570,"263":7571,"361":7572,"491":7573,"562":7574,"567":7575,"471":7576,"à°¿'.":7577,"11709201746":7578,"1240220162":7579,"12309201515":7580,"113052015109":7581,"790":7582,"ÂłÂłĠÂłÂłÂłĠÂłÂłÂłĠÂłĠÂłĠÂłĠÂłĠÂłĠÂłĠÂłĠÂłĠÂłĠÂłĠÂłĠÂłĠÂłĠÂłĠÂłĠÂłĠÂłĠÂłĠÂłĠÂł":7583,"121122016348":7584,"404":7585,"à°¨à°¡à°¨":7586,"à°¦à°µà°¡":7587,"à°µà°ľà°¸":7588,"à°®à°¹à°°":7589,"Ġà°ħà°®à°¨":7590,"à°ľà°°à°¸":7591,"Ġà°ıà°¤":7592,"à°¤à°¨à°¦":7593,"Ġà°ĵà°ľ":7594,"à°¸à°°à°ª":7595,"1211220151":7596,"à°µà°¤à°¤":7597,"à°ĩà°ķà°¨":7598,"505":7599,"Ġ3500":7600,"096":7601,"066":7602,"069":7603,"Ġà°ħà°Ĺà°ļ":7604,"577":7605,"Ġà°Ńà°¯à°ªà°¡à°²":7606,"12701201736":7607,"127052017419":7608,"11811201517":7609,"12801201620":7610,"12406201512":7611,"1141020163":7612,"11408201745":7613,"768":7614,"888":7615,"1130820151":7616,"11301201619":7617,"1050820151":7618,"112072015128":7619,"ÂłÂłÂłĠÂłÂłÂłĠÂłÂłÂłÂłÂłÂłÂłÂłÂłÂłÂłÂłÂłÂłÂłÂłÂłÂłÂłÂłÂłÂłÂłÂłÂłÂłÂłÂłÂłÂłÂłÂłÂłÂł":7620,"082016294":7621,"12311201517":7622,"Ġà°Ĺà°Ĺà°¨à°¤à°²":7623,"105112015169":7624,"114042017398":7625,"à°¨à°¥":7626,"à°¤à°ķà°ª":7627,"à°¦à°¸à°²":7628,"à°µà°ķà°¨":7629,"Ġà°ķà°ľà°ķ":7630,"Ġà°®à°¤à°²à°¬":7631,"Ġà°ļà°°à°®":7632,"Ġà°Ĺà°£à°®":7633,"1210320162":7634,"à°Ĺà°¨à°Ĺ":7635,"092":7636,"Ġà°¬à°¸à°µà°¯":7637,"269":7638,"586":7639,"Ġ280":7640,"12607201513":7641,"119042016230":7642,"12408201514":7643,"124112015176":7644,"11406201625":7645,"13001201736":7646,"889":7647,"11508201514":7648,"122042016232":7649,"Ġà°ľà°²à°®à°¯à°®à°¯":7650,"ers":7651,"ĠÂłÂłĠÂłĠÂłĠÂłĠÂłĠ":7652,"030":7653,"428":7654,"à°µà°ķà°²":7655,"à°®à°Ĺà°²":7656,"à°Ĺà°®à°²":7657,"Ġà°ķà°¸à°²":7658,"à°·à°¹":7659,"Ġà°Ĩà°¯à°¤":7660,"à°¬à°°à°¤":7661,"à°¶à°²à°¤":7662,"2004":7663,"Ġà°¶à°¯":7664,"Ġà°Ĵà°ķà°¤":7665,"Ġà°§à°Ĺ":7666,"à°ıà°¦à°¯":7667,"à°ªà°²à°µ":7668,"à°ĺà°¨à°ķ":7669,"Ġà°¸à°®à°¯à°ª":7670,"à°ľà°¯à°®à°¨":7671,"à°¡à°µà°µ":7672,"Ġ1974":7673,"Ġ147":7674,"594":7675,"à°°à°ķà°Łà°¨à°²à°ķ":7676,"10711201517":7677,"109102016320":7678,"1100820174":7679,"Ġà°Ńà°¯à°ªà°¡à°¨":7680,"104062015116":7681,"116042017399":7682,"11905201511":7683,"778":7684,"789":7685,"à±ĢâĢĻ,":7686,"105052015":7687,"032016218":7688,"our":7689,"à°¸à°°à°¸à°²":7690,"1201220151":7691,"1010920174":7692,"120122017509":7693,"119122015186":7694,"105052015106":7695,"Ġ@":7696,"ĠY":7697,"à°¾;":7698,"à°°à°°à°¤":7699,"à°ĤâĢĺ":7700,"à±ĩà±ģ":7701,"Ġà°µà°°à°¸à°ķ":7702,"à°·à°Ł":7703,"Ġà°Ĺà°²à°Ĺ":7704,"à°ĸà°°à°¨":7705,"à°ĸà°²à°ª":7706,"à°°à°ķà°ķà°ª":7707,"à°ªà°¡à°ķà°ª":7708,"à°¤à°°à°ļ":7709,"Ġà°ħà°°à°µà°¯":7710,"Ġà°ħà°¡à°²":7711,"à°µà°¤à°µ":7712,"Ġà°·à°¹":7713,"à°Ĺà°¤à°ľ":7714,"Ġà°ªà°²à°®à°¨":7715,"Ġ330":7716,"025":7717,"à°°à°Ĺà°µ":7718,"Ġà°¨à°²à°¬":7719,"Ġ1945":7720,"Ġ158":7721,"à°ħà°µà°®":7722,"453":7723,"Ġà°¶à°¤à°ľà°¯":7724,"10802201736":7725,"10806201625":7726,"107082017448":7727,"12709201515":7728,"11702201620":7729,"Ġ260":7730,"1250220162":7731,"Ġà°łà°ª":7732,"11505201624":7733,"1050420162":7734,"12208201630":7735,"12206201512":7736,"102112017485":7737,"052015109":7738,"Ġà°°à°ļà°¨à°ķ":7739,"13103201596":7740,"112042017397":7741,"124092016314":7742,"776":7743,"Ġk":7744,"à°ļà°¤à°²à°ª":7745,"à±Ĩ)":7746,"à±Ĩ!\"":7747,"à±Ĥ(":7748,"à±ģ.......\"":7749,"Ġà°īà°®à°¨":7750,"Ġà°¶à°µà°ª":7751,"à°ħà°ľà°¯":7752,"à°ĩà°Łà°²":7753,"à°¨à°²à°¡":7754,"261":7755,"Ġà°Ĺà°Łà°Ĺà°Ł":7756,"463":7757,"571":7758,"572":7759,"107112016330":7760,"118072015130":7761,"119112015174":7762,"11401201735":7763,"12501201619":7764,"à°¶à°¨à°®à°¯":7765,"115072016266":7766,"10801201575":7767,"720162":7768,"à°¦à°Ńà°°":7769,"à°¯à°ªà°Ł":7770,"à±Ģà°ģ":7771,"Ġà°ķà°°à°ª":7772,"à±įâĢĮ....":7773,"à°§à°ķà°¤":7774,"à°¹à°¨à°µ":7775,"Ġà°ıà°¹":7776,"à±ĩà°Ĥ....":7777,"Ġà°ħà°µà°¤à°°à°£":7778,"Ġà°ĵà°Ŀ":7779,"Ġà°¸à°°à°³à°ķ":7780,"1211020163":7781,"à°Ĺà°²à°°à°¨":7782,"à°¨à°ķà°Ĺ":7783,"Ġà°Ĳà°¨à°µ":7784,"à°²à°µà°ķà°ª":7785,"059":7786,"034":7787,"à°ªà°¦à°Ĺ":7788,"à°ªà°¦à°®à°¨":7789,"à°Ĵà°¨":7790,"343":7791,"Ġ146":7792,"à°ĵà°Łà°®":7793,"à°£à°®à°§":7794,"565":7795,"477":7796,"585":7797,"à°Ĺà°¸à°Ńà°²":7798,"107022017366":7799,"10910201516":7800,"Ġà°Ĩà°ļà°°à°£à°ķ":7801,"12710201516":7802,"12705201511":7803,"1140320162":7804,"Ġà°ĩà°®à°¡à°²":7805,"103072015":7806,"105072015":7807,"11511201517":7808,"à°¿_\"":7809,"all":7810,"1010420162":7811,"Ġà°¦à°¡à°¦à°¡":7812,"10201201735":7813,"123032017386":7814,"12105201624":7815,"105072015126":7816,"\"....":7817,"316":7818,"918":7819,"line":7820,"à±ĭ/":7821,"à°¯à°ªà°ķ":7822,"âĢĮâĢĮ":7823,"à°£à°§":7824,"à°¾à°Ĥ-\"":7825,"Ġ\"-":7826,"à°°à°ķà°¬":7827,"à°°à°µà°³":7828,"1210520174":7829,"à°ļà°¨à°²à°²":7830,"à°ľà°¨à°µ":7831,"à°¨à°µà°¦":7832,"à°¿..\"":7833,"024":7834,"016":7835,"à°¿!?":7836,"à°°à°¬à°Ł":7837,"à°¡à°¦à°µ":7838,"à°¡à°ķà°®":7839,"1310820151":7840,"552":7841,"108052017408":7842,"11006201625":7843,"à°İà°µà°°à°¯":7844,"11610201632":7845,"116072015130":7846,"11905201624":7847,"128052017419":7848,"863":7849,"12009201515":7850,"1030220158":7851,"10301201619":7852,"11210201747":7853,"à°¯à°¤à°¨à°Ĺà°°":7854,"792":7855,"ÂłÂłĠÂłÂłÂłĠÂłÂłÂłĠÂłÂłÂłÂłÂłÂłÂłÂłÂłÂłÂłÂłÂłÂłÂłÂłÂłÂłÂłÂłÂłÂłÂłÂłÂłÂłÂłÂłÂł":7856,"Ġhttp":7857,"à°¸à°Ĳà°Ĳà°¸":7858,"131102017484":7859,"03201595":7860,"339":7861,"950":7862,"à°¨à°¸à°°":7863,"à±ĭ),":7864,"à°¡à°¦à°Ł":7865,"à°®à°°à°¯":7866,"Ġà°ķà°°à°ķà°Ł":7867,"à°¹à°°à°®":7868,"Ġà°²à°¤à°²":7869,"à°¥à°ķà°®":7870,"Ġ137":7871,"Ġà°¤à°¨à°ĸ":7872,"à°ħà°·":7873,"à°¯à°²à°µ":7874,"Ġ370":7875,"à°²à°Ĺà°¬":7876,"à°ķà°¤à°²à°¨":7877,"Ġ1700":7878,"108052016238":7879,"à°¸à°¹à°ķ":7880,"127112016339":7881,"à°°à°®à°£à°¦":7882,"960":7883,"770":7884,"à°ļà°¬à°¡à°¤":7885,"115072015129":7886,"115062015119":7887,"10501201619":7888,"Ġà°ħà°¨à°µà°¸à°°à°ª":7889,"thy":7890,"11312201518":7891,"106012017354":7892,"os":7893,"um":7894,"und":7895,"à°¨à°°à°¨":7896,"à±ĭâĢĻâĢĻ":7897,"à°Łà°ķà°¨":7898,"à°¯à°¦à°Ĺ":7899,"à°¸à°«à°°":7900,"à±ģ.Ă":7901,"Ġà°¬à°ł":7902,"Ġà°Ĩà°®à°¡":7903,"Ġà°ķà°¨à°ªà°°":7904,"à°Łà°¨à°ª":7905,"Ġà°īà°ªà°¶":7906,"Ġà°¨à°¡à°µà°¨":7907,"026":7908,"019":7909,"Ġà°Ńà°¯à°Ńà°ķ":7910,"Ġà°Ĩà°ªà°®à°¨":7911,"Ġà°īà°¦à°¯à°Ń":7912,"481":7913,"493":7914,"569":7915,"108032016215":7916,"109052016238":7917,"12602201588":7918,"1050320162":7919,"1020320162":7920,"112042016228":7921,"112062015118":7922,"ÂłÂłÂłĠÂłÂłÂłÂłÂłÂłÂłÂłÂłÂłÂłÂłÂłÂłÂłÂłÂłÂłÂłÂłÂłÂłÂłÂł":7923,"Ġà°°à°£à°¬":7924,"115072017439":7925,"216":7926,"up":7927,"ĠX":7928,"à°ķà°µà°¡":7929,"à°¤à°µà°¡":7930,"à°Łà°¸à°Ń":7931,"à°ªà°°à°¸":7932,"Ġà°Ĺà°ľà°°":7933,"Ġà°Łà°ķà°Łà°ķ":7934,"à°®à°¨à°®à°¨":7935,"Ġ134":7936,"1210820174":7937,"12105201511":7938,"à°ľà°¨à°ķà°°":7939,"Ġà°ħà°¸à°®à°¤":7940,"à°²à°®à°¹":7941,"082":7942,"Ġà°¸à°®à°¯à°®à°¨":7943,"à°Łà°ķà°®à°¨":7944,"à°ŀà°Ĺ":7945,"à°ŀà°ķà°°":7946,"052":7947,"068":7948,"014":7949,"018":7950,"Ġ1957":7951,"à°²à°¡à°¬":7952,"Ġà°Ľà°Ł":7953,"Ġà°ķà°¡à°ªà°ķ":7954,"461":7955,"10808201629":7956,"107072015126":7957,"11605201624":7958,"12803201739":7959,"11701201619":7960,"11401201619":7961,"113082016297":7962,"10506201742":7963,"Ġà°µà°¶à°ªà°°à°ļ":7964,"!...":7965,"337":7966,"av":7967,"em":7968,"à°ķà°¥à°¨":7969,"à°¯à°³":7970,"à°¸à°µà°°":7971,"à°µà°¸à°²":7972,"ÂłÂłĠÂłĠÂłĠÂł":7973,"ÂłÂłĠÂłĠÂłĠÂłĠÂłĠÂłĠÂłĠÂłĠÂłĠÂłĠÂłĠÂłĠÂłĠÂłĠÂłĠÂłĠÂłĠÂłĠÂłĠÂłĠÂłĠÂłĠÂłĠÂłĠÂł":7974,"Ġà°®à°²à°µ":7975,"à±ģ.ā":7976,"à°Ńà°¶":7977,"à°µà°°à°¶":7978,"10111":7979,"10101201619":7980,"à°ıà°İà°«":7981,"à°¤à°ķà°®à°£":7982,"à°®à°²à°ªà°²":7983,"à°Ĳà°Ĺ":7984,"084":7985,"072":7986,"094":7987,"à±ģ!?":7988,"064":7989,"à°ªà°¨à°¤":7990,"à°°à°Ĺà°£":7991,"à°Ĵà°¹":7992,"à°§à°ªà°¡à°¨":7993,"110082015138":7994,"10604201598":7995,"à°¯à°Ĺà°²à°°à°¨":7996,"1260820151":7997,"126092017469":7998,"117102017477":7999,"à°°à°ªà°¡à°Ł":8000,"Ġà°ķà°®à°²à°®":8001,"884":8002,"12301201619":8003,"1050220158":8004,"ÂłÂłÂłĠÂłÂłÂłĠÂłÂłÂłĠÂłĠÂłĠÂłĠÂłĠÂłĠÂłĠÂłĠÂłĠÂłĠÂłĠÂłĠÂłĠÂłĠÂłĠÂłĠÂł":8005,"121042015":8006,"111012017356":8007,"10111201516":8008,"010":8009,"225":8010,"ht":8011,"ĠĄ":8012,"ĠÂłÂłÂłĠÂłÂłÂłĠÂłÂłÂł":8013,"à°°à°ķà°°à°ķ":8014,"2020":8015,"à°²à°ķà°²à°Ĺ":8016,"Ġà°Ńà°¯à°ķ":8017,"ÂłÂłÂłĠÂłÂłÂłÂłÂłÂłÂłÂłÂłÂłÂłÂłÂł":8018,"Ġà°¯à°ľà°¨":8019,"Ġà°¤à°¨à°Ĺà°¦":8020,"à°ķà°¡à°ªà°¡":8021,"à°°à°Ńà°µ":8022,"à°²à°¤à°¤":8023,"121062015":8024,"à°Łà°¨à°¨":8025,"Ġ(âĢĺ":8026,"à°µà°¨à°ľ":8027,"Ġà°§à°°à°ª":8028,"à°¨à°¦à°Ĺ":8029,"501":8030,"088":8031,"Ġà°Ĩà°¡à°ķà°ª":8032,"Ġ1973":8033,"à°Ľà°µ":8034,"Ġ165":8035,"597":8036,"106092015149":8037,"10407201512":8038,"128082017457":8039,"11709201515":8040,"129052017419":8041,"11408201514":8042,"864":8043,"à°Ĥ.......":8044,"787":8045,"103062016249":8046,"11201201576":8047,"12106201512":8048,"212":8049,"à°¨à°«":8050,"à°®à°Ńà°¦":8051,"à±Ģ;":8052,"Ġà°ļà°²à°µ":8053,"à°¥à°°à°¹":8054,"à°¯à°ķà°®à°¨":8055,"à°¯à°ķà°ļà°µ":8056,"Ġà°¤à°°à°Ĺ":8057,"à°°à°£à°Ĺ":8058,"ÂłÂłÂłÂłÂłÂłÂłÂłÂłÂłÂłÂłÂłÂłÂłÂłÂłÂłÂłÂł":8059,"ÂłÂłÂłÂłÂłÂłÂłÂłÂłÂłÂłÂłÂłÂłÂłÂłÂłÂłÂłÂłÂłÂłÂłÂł":8060,"Ġ340":8061,"à°²à°Ĺà°¦":8062,"036":8063,"Ġ1946":8064,"Ġ1968":8065,"Ġ850":8066,"1600":8067,"à°¿--":8068,"591":8069,"10801201619":8070,"107072017436":8071,"119062015120":8072,"119062017428":8073,"11902201586":8074,"117012017358":8075,"129052016247":8076,"à°¯à°Łà°¨à°ª":8077,"114052015109":8078,"à°¿.....?":8079,"1250620174":8080,"12506201512":8081,"12503201622":8082,"10502201620":8083,"1220320162":8084,"092015153":8085,"Ġà°¸à°°à°³à°°":8086,"1110220158":8087,"118122017508":8088,"110052016239":8089,"430":8090,"ER":8091,"à°²à°§":8092,"à°²à°°à°ķ":8093,"ÂłĠÂłÂłÂł":8094,"Ġà°®à°·":8095,"à±ģ.!":8096,"Ġà°°à°£à°µ":8097,"à°§à°¹à°¸":8098,"à°¹à°ļà°°":8099,"à°¥à°®à°¨":8100,"à°µà°°à°ªà°¡":8101,"...?":8102,"Ġà°ĵà°¬à°°":8103,"à°¬à°°à°°":8104,"à°ĺà°¨à°²":8105,"ÂłÂłÂłÂłÂłÂłÂłÂłÂłÂłÂłÂłÂłÂłÂłÂłÂłÂłÂł":8106,"Ġà°¨à°¡à°ķà°¨":8107,"086":8108,"078":8109,"à°¶à°ķà°®":8110,"à°ķà°°à°£à°²à°ª":8111,"Ġ159":8112,"Ġà°ķà°¥à°²à°ķ":8113,"381":8114,"Ġà°īà°¦à°¯à°ļ":8115,"à°¹à°¦à°ªà°¡à°¤":8116,"11608201745":8117,"1180520151":8118,"117082016298":8119,"1290220162":8120,"774":8121,"à°¸à°¨à°¸à°Ńà°ķ":8122,"12207201627":8123,"à°¨à°ķà°²à°¯":8124,"ÂłÂłÂłĠÂłÂłĠÂłĠÂłĠÂłĠÂłĠÂłĠÂłĠÂłĠÂłĠÂłĠÂłĠÂłĠÂłĠÂłÂł":8125,"Ġà°ªà°¥à°ķà°®":8126,"111042015":8127,"10201201619":8128,"122122017510":8129,"101092016304":8130,"108032017379":8131,"Ġà°ħà°¨à°µà°¸à°°à°®à°¨":8132,"122052016244":8133,"540":8134,"iv":8135,"à°ķà°¦à°²":8136,"à°¡à°¡à°¨":8137,"à°ªà°ł":8138,"à°ļà°°à°£à°ķ":8139,"Ġà°®à°¶":8140,"à°ľà°²à°®":8141,"Ġà°Ĺà°°à°Ĺ":8142,"Ġà°ľà°²à°¯à°ľ":8143,"Ġà°«à°ķà°°":8144,"Ġà°¤à°¨à°Ĺ":8145,"101062015":8146,"à°ķà°²à°¹":8147,"Ġà°¤à°°à°Ĺà°¨":8148,"12101201619":8149,"à°Ĳà°İà°«":8150,"044":8151,"046":8152,"062":8153,"à°¿?:":8154,"Ġ1966":8155,"Ġ143":8156,"1070620174":8157,"107052016238":8158,"106052015106":8159,"11602201620":8160,"1190920163":8161,"Ġà°°à°®à°£à°¨":8162,"869":8163,"112016333":8164,"974":8165,"1120320162":8166,"à°¨à°¬à°¡à°²":8167,"ÂłÂłÂłĠÂłÂłÂłĠÂłÂłÂłĠÂłĠÂłĠÂłĠÂłĠÂłĠÂłĠÂłĠÂłĠÂłĠÂłĠÂłĠÂłĠÂłĠÂłĠÂłĠÂłĠÂłĠÂłĠÂłĠÂłĠÂłĠÂłĠÂłĠÂłĠÂłĠÂłĠÂłĠÂłĠÂłĠÂłĠÂłĠÂł":8168,"122102016325":8169,"!!!":8170,"à°Łà°Ĺà°²à°¡":8171,"ĠÂłĠÂłÂłĠÂłÂł":8172,"Ġà°īà°Ńà°¯à°Ĺ":8173,"110082017450":8174,"à°¾||":8175,"à°¨à°¡à°²":8176,"à°²à°µà°¡à°®":8177,"à°Ĺà°¡à°¨":8178,"à°§à°®à°Ĺ":8179,"Ġà°īà°¦à°°":8180,"à°²à°¨à°¯":8181,"Ġà°¤à°¨à°¦à°Ĺ":8182,"Ġà°®à°¨à°ļ":8183,"Ġà°®à°¨à°²à°¨":8184,"à°¯à°²à°°":8185,"à°¸à°°à°µ":8186,"1111020163":8187,"1110320162":8188,"Ġà°ħà°ªà°¨":8189,"à°ıà°¤":8190,"Ġà°ĸà°µ":8191,"à°Ĳà°«":8192,"Ġà°īà°ªà°ª":8193,"Ġà°Ĩà°¶à°²à°ķ":8194,"Ġà°µà°²à°¸à°µ":8195,"à°µà°ķà°³":8196,"à°¾à°Ĥ.-":8197,"038":8198,"Ġà°Ĺà°¡à°µ":8199,"Ġ1951":8200,"Ġ163":8201,"573":8202,"1070220158":8203,"995":8204,"12601201619":8205,"126062017430":8206,"1281220175":8207,"11709201630":8208,"à±ĩ....?":8209,"Ġà°¸à°¹à°ľà°¤":8210,"12202201620":8211,"ÂłÂłÂłĠÂłÂłÂłÂłÂłÂłÂłÂłÂłÂłÂłÂłÂłÂłÂłÂłÂłÂłÂłÂłÂłÂłÂłÂłÂłÂłÂłÂł":8212,"ÂłÂłÂłĠÂłÂłÂłĠÂłÂłÂłÂłÂłÂłÂłÂłÂłÂłÂłÂłÂłÂłÂłÂłÂłÂłÂłÂłÂłÂłÂłÂłÂłÂłÂłÂłÂłÂłÂłÂłÂłÂłÂł":8213,"à°Ĳà°İà°İà°²":8214,"Ġthat":8215,"ÂłÂłĠÂłÂłÂłĠÂłÂłÂłÂłÂłÂłÂłÂłÂłÂłÂłÂłÂłÂłÂłÂłÂłÂłÂłÂłÂłÂł":8216,"110122017504":8217,"Ġà°ıà°Ĳà°ıà°¡":8218,"à°ªà°®à°µ":8219,"Ġà°¸à°Ł":8220,"à°ľà°µà°°":8221,"Ġà°Ĺà°«":8222,"2005":8223,"à°ħà°¦à°¨":8224,"Ġà°ĵà°İà°¨":8225,"à°°à°ľà°²à°®":8226,"11111201517":8227,"Ġà°ªà°¡à°µà°²à°¸":8228,"à°°à°¦à°¤":8229,"048":8230,"035":8231,"022":8232,"029":8233,"Ġ8500":8234,"Ġ944":8235,"à±įâĢĮâĢĻ!":8236,"à°¸à°®à°Ĺ":8237,"ÂłÂłÂłĠÂłÂłÂłĠÂłÂłÂłÂłÂłÂłÂłÂłÂłÂłÂłÂłÂłÂłÂłÂłÂł":8238,"Ġà°īà°¦à°¯à°Ĺ":8239,"Ġ166":8240,"451":8241,"à±į...?\"":8242,"441":8243,"Ġà°µà°¡à°¯":8244,"108062015117":8245,"107042016226":8246,"106082016294":8247,"11604201510":8248,"11708201514":8249,"à°ģ...":8250,"1290120158":8251,"1140220158":8252,"862":8253,"Ġà°ªà°°à°®à°ªà°¦":8254,"12002201586":8255,"à°Ĥ).":8256,"ĠÂłÂłĠÂłĠÂłĠÂłĠÂłĠÂłĠÂłĠÂłĠ":8257,"ÂłÂłĠÂłĠÂłĠÂłĠÂłĠÂłĠÂłĠÂł":8258,"ill":8259,"121102015164":8260,"115092016309":8261,"114102016322":8262,"788":8263,"hra":8264,"à°¦à°µà°¦":8265,"à°µà°µà°¦":8266,"à°®à°ł":8267,"à°Ĺà°®à°¤":8268,"à°ļà°Ĺà°¡":8269,"Ġà°°à°ľà°¸":8270,"Ġà°Ĺà°°à°²":8271,"2002":8272,"à°İà°İ":8273,"Ġà°¸à°®à°ª":8274,"à±ĩà°Ĥ!\"":8275,"Ġà°®à°¨à°µà°³":8276,"à°¤à°°à°ªà°¡":8277,"Ġà°ħà°²à°Ĺ":8278,"Ġ214":8279,"12108201630":8280,"Ġà°¤à°²à°¯":8281,"Ġà°Ĩà°¦à°®à°°à°ļ":8282,"Ġà°Ĭà°¡à°¦":8283,"051":8284,"Ġà°ĺà°ľ":8285,"Ġ205":8286,"à°Ľà°ª":8287,"à°ĵà°İà°¸":8288,"10708201629":8289,"1040320162":8290,"10401201619":8291,"119032016219":8292,"à°Ĥ?'":8293,"12912201518":8294,"124122016349":8295,"10308201629":8296,"10512201634":8297,"10204201597":8298,"666":8299,"à°¨à°ªà°¡à°Ł":8300,"ÂłÂłĠÂłÂłÂłĠÂłĠÂłĠÂłĠÂłĠÂłĠÂłĠÂłĠÂłĠÂłĠÂłĠÂłĠÂł":8301,"112122017505":8302,"125032017387":8303,"420":8304,"jyo":8305,"à°¸à°¹à°¸":8306,"à°Ĺà°µà°¦":8307,"Ġà°®à°¥à°¨":8308,"à°¿.(":8309,"à°ľà°ªà°°":8310,"à°¶à°°à°£":8311,"à°§à°¦":8312,"ÂłÂłÂłĠÂłĠÂł":8313,"Ġà°¦à°¡à°ª":8314,"Ġà°ıà°¬à°¦":8315,"Ġà°µà°ļà°¨à°®":8316,"à°Ĺà°°à°£":8317,"Ġà°¸à°°à°³à°®":8318,"Ġ299":8319,"à°ªà°²à°°":8320,"à°²à°µà°¬à°¡":8321,"Ġà°Ĺà°¡à°ªà°ķ":8322,"ÂłÂłÂłĠÂłÂłÂłĠÂłÂłÂłÂłÂłÂłÂłÂłÂłÂłÂłÂłÂłÂłÂłÂłÂłÂłÂłÂłÂłÂłÂłÂłÂłÂłÂłÂłÂłÂłÂłÂłÂłÂłÂłÂłÂłÂłÂłÂłÂłÂłÂłÂłÂłÂłÂłÂłÂłÂłÂłÂłÂłÂłÂłÂłÂłÂłÂłÂłÂłÂłÂłÂł":8323,"à°ĵà°Łà°°":8324,"10901201619":8325,"109072017436":8326,"1040620174":8327,"10408201629":8328,"à°¯à°Ĺà°²à°¦à°¨":8329,"116062015119":8330,"1270220162":8331,"11804201510":8332,"ÂłÂłÂłĠÂłÂłÂłĠÂłĠÂłĠÂłĠÂłĠÂłĠÂłĠÂłĠÂłĠÂłĠÂłĠÂłĠÂłĠÂłĠÂłĠÂłĠÂłĠÂłĠÂłĠÂłĠÂł":8333,"764":8334,"Ġà°°à°¸à°ľ":8335,"12307201627":8336,"1030820174":8337,"102016323":8338,"975":8339,"10311201516":8340,"12512201634":8341,"12510201516":8342,"122112017495":8343,"82015143":8344,"Ġnot":8345,"120102016324":8346,"116122017507":8347,"101062016248":8348,"213":8349,"215":8350,"ep":8351,"à°¨à°§":8352,"à°°à°¥à°ķ":8353,"à°¤à°£":8354,"à°Łà°µà°¡":8355,"à°Łà°ķà°°à°®":8356,"ÂłÂłĠÂłĠÂłĠÂłĠÂłĠÂłĠÂłĠÂłĠÂłĠÂłĠÂłĠÂłĠÂłĠÂłĠÂłĠÂłĠÂł":8357,"Ġà°ķà°®à°¨":8358,"Ġà°®à°½à°§":8359,"à°³à°¬à°¡":8360,"Ġà°Ĺà°¤à°®":8361,"à°¯à°¨à°Ń":8362,"101052015":8363,"Ġà°ªà°¡à°µà°ļ":8364,"à°°à°¹à°¦":8365,"054":8366,"055":8367,"013":8368,"Ġà°Ĩà°ªà°¸":8369,"Ġà°Ĩà°ªà°Ĺà°²":8370,"Ġà°Ĵà°ķà°°à°ķà°®":8371,"ÂłÂłÂłÂłÂłÂłÂłÂłÂłÂłÂłÂłÂłÂłÂłÂłÂłÂłÂłÂłÂłÂłÂłÂłÂłÂłÂłÂłÂłÂłÂłÂłÂłÂłÂłÂłÂłÂł":8372,"à°¯à°ªà°¡à°¡":8373,"à°İà°µà°°à°¤à°¨":8374,"1040220158":8375,"104052017407":8376,"1180320159":8377,"11411201517":8378,"12002201620":8379,"120082016299":8380,"10509201630":8381,"12204201623":8382,"ana":8383,"Ġà°Ĩà°¬à°Ĺ":8384,"Ġà°īà°Ńà°¯à°¸à°Ńà°²":8385,"122092017467":8386,"uc":8387,"Ġlo":8388,"à°ķà°ł":8389,"à°¦à°¦à°¨":8390,"à°ªà°°à°¨":8391,"Ġà°ļà°®à°Ł":8392,"à±ģ.(":8393,"à°¿.......\"":8394,"à°·à°Ńà°®":8395,"à°¶à°ªà°¡à°ķ":8396,"Ġà°İà°Ĺà°¦":8397,"Ġà°İà°ļà°Ł":8398,"Ġà°īà°³":8399,"Ġà°īà°¦à°°à°®":8400,"à±Ĩà°Ĥ-":8401,"111062015":8402,"à°¡à°²à°°":8403,"Ġà°ĸà°¤à°°":8404,"à±ģ!...":8405,"à°ŀà°ļ":8406,"à°ŀà°Ń":8407,"à°ŀà°¤à°¨":8408,"Ġà°ļà°¦à°µà°Ĺ":8409,"Ġ1940":8410,"Ġ156":8411,"ÂłÂłÂłÂłÂłÂłÂłÂłÂłÂłÂłÂłÂłÂłÂłÂłÂłÂłÂłÂłÂłÂłÂłÂłÂłÂłÂłÂłÂłÂłÂłÂłÂłÂłÂłÂłÂłÂłÂłÂł":8412,"595":8413,"1100":8414,"1100320159":8415,"11002201736":8416,"11010201632":8417,"1160220158":8418,"12807201744":8419,"103082015136":8420,"à±į?'":8421,"12312201518":8422,"72017442":8423,"à°µà°Ĺà°²à°µ":8424,"ÂłÂłĠÂłĠÂłĠÂłĠÂłĠ":8425,"ÂłÂłÂłĠÂłÂłĠÂłĠÂłĠÂłĠÂłĠÂłĠÂłĠÂłĠÂłÂł":8426,"astrologer":8427,"111062015118":8428,".)":8429,"ik":8430,"à°°à°½à°§":8431,"à°¤à°¡à°¬":8432,"à°Łà°Ĺà°¤":8433,"à°¯à°ļà°°à°£":8434,"à°®à°Ĺà°¡":8435,"à°ļà°°à°®":8436,"Ġà°ķà°µà°¯":8437,"à±ģ.âĢĺâĢĺ":8438,"à°¬à°·":8439,"à°³à°µà°²":8440,"à°³à°ķà°¨":8441,"à°¦à°°à°ĸ":8442,"Ġà°¡à°ļ":8443,"à°¨à°Łà°®":8444,"à°²à°²à°µ":8445,"à°°à°£à°Ń":8446,"à°°à°µà°¬":8447,"Ġ(+":8448,"à°¾??":8449,"à°¨à°ķà°ķ":8450,"Ġà°ķà°³à°Ĺ":8451,"à°¨à°¸à°¤":8452,"Ġà°Ĩà°Łà°ķà°Ł":8453,"Ġ162":8454,"à±į...!":8455,"541":8456,"110042016227":8457,"11611201749":8458,"118022016208":8459,"124112016337":8460,"882":8461,"Ġ__________________":8462,"972":8463,"à°Ĺà°ªà°¡à°¨":8464,"online":8465,"à°µà°Ĺà°²à°¦":8466,"ÂłÂłĠÂłĠÂłĠÂłĠÂłĠÂł":8467,"à°ķà°®à°ķà°ªà°¡":8468,"thefinancialastrologer":8469,"-âĢĵ":8470,".-":8471,"332":8472,"440":8473,"878":8474,"à±ģà±į":8475,"à°°à°ļà°¨":8476,"à°¦à°ªà°¨":8477,"à°Łà°«":8478,"Ġà°ľà°¯à°¤":8479,"Ġà°¶à°°à°¨":8480,"ÂłÂłÂłĠÂłÂłÂłÂłÂłÂłÂłÂłÂłÂł":8481,"Ġà°Ĵà°®à°¨":8482,"Ġà°«à°¯":8483,"à°¯à°²à°¯":8484,"à°°à°¸à°¨à°¨":8485,"12101":8486,"à°µà°¤à°ª":8487,"à°ªà°¤à°¯":8488,"à°¨à°µà°¹":8489,"Ġà°Ĳà°ļ":8490,"à°®à°ķà°¦":8491,"à°ľà°¯à°¬":8492,"à°ľà°¯à°ªà°¥":8493,"à±Ģ!!":8494,"Ġ182":8495,"Ġ304":8496,"106052017407":8497,"1160320159":8498,"127082017456":8499,"11907201513":8500,"à°ģ!\"":8501,"130072015134":8502,"123062015":8503,"1130220158":8504,"10302201620":8505,"1220620162":8506,"10202201620":8507,"103122015179":8508,"ere":8509,"Ġà°īà°Ńà°¯à°¦":8510,"111082017450":8511,"327":8512,"510":8513,"530":8514,"524":8515,"920":8516,"ĠU":8517,"ĠâĢ":8518,"à°ķà°ķà°Ł":8519,"à°¦à°±":8520,"à°¡à°¨à°²":8521,"à°¶à°¤à°®":8522,"Ġà°Ĵà°¯":8523,"à°°à°ķà°¥":8524,"Ġà°®à°¨à°®à°§":8525,"Ġà°ħà°¤à°¡à°¨":8526,"à°¤à°ķà°ķ":8527,"008":8528,"079":8529,"à±ģ..:":8530,"Ġà°Ĺà°¡à°µà°ķ":8531,"à°¢à°ļà°°":8532,"Ġ192":8533,"à°¿---":8534,"à°¤à°¯à°Ĺ":8535,"Ġ161":8536,"Ġ169":8537,"à°Ĥ..?":8538,"Ġ174":8539,"Ġ302":8540,"443":8541,"Ġà°İà°¡à°¬":8542,"Ġà°ķà°¨à°¬à°¡à°ķà°ª":8543,"11001201619":8544,"12711201749":8545,"11404201510":8546,"à°°à°ªà°¡à°¡":8547,"à°¿.....?\"":8548,"120012017359":8549,"1250720174":8550,"1250820151":8551,"10211201748":8552,"12312201634":8553,"ttd":8554,"1110420162":8555,"Ġà°®à°¡à°ķà°¶":8556,"125072017443":8557,"228":8558,"à±įĞ":8559,"à°¶à°ªà°¤":8560,"à°¦à°¨à°µà°¨":8561,"à°²à°¤à°ķ":8562,"à°ľà°¨à°ª":8563,"ĠÂłĠÂłĠÂłĠÂłĠÂłĠÂłĠÂłĠÂłĠÂł":8564,"ĠÂłĠÂłĠÂłĠÂłĠÂłĠÂłĠÂłĠÂłĠÂłĠÂłĠÂłĠÂłÂł":8565,"Ġà°Ĭà°°à°Ĺ":8566,"à°°à°¹à°µ":8567,"Ġà°¨à°Łà°¸":8568,"à°ļà°ķà°¤":8569,"à°ķà°°à°£à°®":8570,"Ġ154":8571,"à°Ľà°¸":8572,"à°®à°Ĺà°§":8573,"à°¬à°²à°¹":8574,"Ġà°Ķà°Łà°¯":8575,"1170720174":8576,"1170220158":8577,"766":8578,"782":8579,"12207201744":8580,"794":8581,"12210201747":8582,"113102017476":8583,"Ġà°®à°°à°®à°Ĺ":8584,"ÂłÂłĠÂłĠÂłĠÂłĠÂłĠÂłĠ":8585,"seva":8586,"105072017435":8587,"130012016201":8588,")..":8589,"224":8590,"à°¾âĢĵ":8591,"ÂłÂłĠÂłĠÂłĠÂłĠ":8592,"Ġà°¸à°«à°²à°®":8593,"à°¬à°²à°¤":8594,"à°³à°Ń":8595,"à°¶à°¯à°®":8596,"à°¥à°¤à°¨":8597,"ÂłÂłÂłĠÂłÂłÂłÂłÂłÂłÂłÂłÂłÂłÂłÂł":8598,"Ġà°Ĩà°¯à°¨à°®":8599,"Ġà°ħà°¤à°¡à°²":8600,"à°¤à°®à°®à°¨":8601,"à°Ĵà°¯":8602,"à°µà°¦à°¹à°¨":8603,"Ġ164":8604,"583":8605,"Ġà°ľà°¯à°ķà°°":8606,"551":8607,"106042016226":8608,"à°¯à°Ĺà°²à°®à°¨":8609,"11906201625":8610,"12806201512":8611,"1280220162":8612,"117052017415":8613,"12904201510":8614,"12401201619":8615,"772":8616,"12307201744":8617,"10304201597":8618,"ÂłÂłÂłĠÂłÂłÂłĠÂłÂłÂłÂłÂłÂłÂłÂłÂłÂłÂłÂłÂłÂłÂłÂłÂłÂłÂł":8619,"1050620162":8620,"12204201510":8621,"Ġà°¸à°¦à°°à°¨":8622,"082017453":8623,"082015142":8624,"062015123":8625,"ĠÂłÂłĠÂłĠÂłĠÂłĠÂłĠÂłĠÂłĠÂł":8626,"114122017506":8627,"à±ģ`":8628,"à°¸à°²à°²":8629,"à°ļà°¶":8630,"à±Ĩ.....":8631,"à±ģ.''":8632,"Ġà°¤à°¹":8633,"à°¿.âĢĺ":8634,"à°ľà°ļ":8635,"à°¬à°¤à°Ĺ":8636,"Ġà°¦à°¯à°µ":8637,"à°«à°¡":8638,"Ġà°¤à°¨à°ªà°¨":8639,"Ġà°ªà°¡à°¦à°¨":8640,"Ġà°İà°¨à°¸":8641,"503":8642,"Ġà°¤à°Ĺà°µ":8643,"042":8644,"Ġ1964":8645,"à°¯à°£à°¦":8646,"Ġ181":8647,"Ġ185":8648,"à°ĵà°¨":8649,"Ġà°¬à°¡à°¬":8650,"561":8651,"593":8652,"106102015159":8653,"1040420162":8654,"992":8655,"12605201511":8656,"126122015188":8657,"128102015166":8658,"12907201744":8659,"1301220151":8660,"Ġ....?":8661,"ÂłÂłÂłĠÂłÂłĠÂłĠÂłĠÂłĠÂłĠÂłĠÂłĠÂłĠÂłĠÂłĠÂłĠÂłĠÂłĠÂłĠÂłĠÂłĠÂłĠÂłĠÂłĠÂłĠÂłĠÂłĠÂłĠÂłĠÂłĠÂłĠÂłĠÂłĠÂłĠÂłĠÂłĠÂłĠÂł":8662,"à°²à°Ńà°¨":8663,"Ġ10000":8664,"784":8665,"12305201624":8666,"ĠĠĠĠĠĠĠĠĠ":8667,"Ġà°°à°¥à°¯":8668,"Ġà°¬à°¤à°ķà°Ł":8669,"tic":8670,"à°¾à°ĥ\"":8671,"ĠTHE":8672,"ttdseva":8673,"AN":8674,"ave":8675,"ho":8676,"qu":8677,"à°¨à°§à°°":8678,"à°ķà°«":8679,"à°ķà°¤à°Ĺ":8680,"ÂłĠÂłĠÂłĠÂłĠÂłĠÂłĠÂłĠÂłĠÂłĠÂłĠÂłĠÂłĠÂłĠÂłĠÂłĠÂłĠÂł":8681,"ÂłÂłĠÂłĠÂłĠÂłĠÂłĠÂłĠÂłĠÂłĠÂłĠÂłĠÂłĠÂłĠÂłĠÂłĠÂłĠÂłĠÂłĠÂłĠÂłĠÂłĠÂł":8682,"à±Ī.....":8683,"à°¬à°¹à°¦":8684,"à°§à°®à°¤":8685,"..\"":8686,"Ġà°ĩà°¥":8687,"à°¹à°¤à°¨":8688,"Ġà°ħà°¨à°¡à°®":8689,"Ġà°Īà°¤à°Ĺ":8690,"à°¦à°°à°£à°ķ":8691,"à°«à°İ":8692,"Ġ136":8693,"à°¸à°°à°«à°°":8694,"Ġà°ĸà°³":8695,"à±Īà°Ĥ:":8696,"075":8697,"Ġà°µà°²à°ļ":8698,"Ġ196":8699,"Ġ1949":8700,"Ġ1953":8701,"à°Ńà°µà°ª":8702,"Ġ155":8703,"à°¦à°Ĺà°ľ":8704,"ÂłÂłÂłÂłÂłÂłÂłÂłÂłÂłÂłÂłÂłÂłÂłÂłÂłÂłÂłÂłÂłÂłÂłÂłÂłÂłÂłÂłÂłÂłÂłÂłÂłÂłÂłÂł":8705,"Ġ188":8706,"Ġ141":8707,"Ġ231":8708,"581":8709,"Ġà°¶à°¤à°¦":8710,".........":8711,"12709201746":8712,"12702201588":8713,"1190320159":8714,"128082015145":8715,"117062015120":8716,"12901201620":8717,"1240220158":8718,"12405201624":8719,"968":8720,"773":8721,"à°¾à°Ĥ\".":8722,"à±ĭ.......":8723,"1150920151":8724,"122052015":8725,"1020420162":8726,"1021120163":8727,"Ġà°Īà°¯à°¨à°Ĺ":8728,"Ġas":8729,"Ġà°¸à°¤à°®à°¤":8730,"Ġà°µà°²à°ªà°¨":8731,"115122015184":8732,"119032017384":8733,"115092015152":8734,"ĠÂłÂłĠÂłÂł":8735,"à°¾`":8736,"à°¨à°ªà°°à°ļ":8737,"à°²à°«":8738,"à°ķà°µà°²à°¸":8739,"à°¸à°ķà°²":8740,"à°®à°ķà°²":8741,"Ġà°®à°¤à°µ":8742,"Ġà°®à°Ĺà°ľ":8743,"à°ľà°²à°¤":8744,"à°³à°Ĺà°ķ":8745,"à°¶à°ļ":8746,"Ġà°¬à°Łà°°":8747,"Ġà°ıà°ªà°¨":8748,"à°ĸà°ľ":8749,"Ġà°Ĵà°¨à°Ĺ":8750,"à°¯à°¨à°²":8751,"Ġà°Łà°²":8752,"à°İà°¬":8753,"Ġà°Ĩà°®à°§":8754,"11101201619":8755,"Ġà°İà°¨à°İ":8756,"à°¤à°ķà°³à°²":8757,"ĠÂłĠÂłĠÂłĠÂłĠÂłĠÂłĠÂłĠÂłĠÂłĠÂłĠÂł":8758,"à°Īà°¯":8759,"047":8760,"Ġà°Ĩà°Ĺà°¦à°¨":8761,"065":8762,"à°¸à°²à°¹":8763,"à°µà°¸à°®":8764,"à±ĩ!...":8765,"Ġà°İà°Ĺà°ľ":8766,"Ġ176":8767,"563":8768,"116062017426":8769,"1270120158":8770,"à°ģ.":8771,"129062015124":8772,"114062015119":8773,"1300120158":8774,"Ġà°ªà°²à°ķà°¨":8775,"962":8776,"775":8777,"984":8778,"1230320162":8779,"125052015":8780,"1120520162":8781,"à°¯à°µà°°à°ª":8782,"à°¦à°ķà°°à°®à°¯":8783,"Ġà°ħà°µà°ķà°¤à°µà°ķà°²à°ª":8784,"Ġà°ķà°µà°ļà°®":8785,"10104201596":8786,"124092017468":8787,"125052017418":8788,"ust":8789,"à°¯à°¹à°°":8790,"à°¸à°¡à°¨":8791,"à±Ģ......\"":8792,"Ġà°®à°¡à°®":8793,"à°§à°¬":8794,"Ġà°¬à°µ":8795,"à°°à°ķà°¦à°¨":8796,"à°°à°ķà°µà°ļ":8797,"à±ĩà°Ĥ.\"":8798,"Ġà°®à°¨à°ķà°¨":8799,"Ġà°ĵà°ľà°¸":8800,"à°Ĺà°²à°¡à°¨":8801,"045":8802,"033":8803,"à°¿...'":8804,"Ġà°ĩà°¸à°ķ":8805,"Ġ1917":8806,"Ġ1955":8807,"à°īà°Ł":8808,"Ġ251":8809,"10810201747":8810,"109082016295":8811,"126112015176":8812,"12710201748":8813,"129092016316":8814,"Ġ290":8815,"982":8816,"1250320159":8817,"11504201510":8818,"à±Ģ?'":8819,"052016243":8820,"ÂłÂłÂłĠÂłÂłÂłĠÂłÂłĠÂłĠÂłĠÂłĠÂłĠÂłĠÂłĠÂłĠÂłĠÂłĠÂłĠÂłĠÂłĠÂłĠÂłĠÂłĠÂłĠÂłĠÂłĠÂłĠÂłĠÂłĠÂłĠÂłĠÂłĠÂłĠÂłĠÂłĠÂł":8821,"11120151":8822,"Ġà°ļà°¦à°µà°®à°¨":8823,"ÂłÂłĠÂłĠÂłĠÂłĠÂłĠÂłĠÂłĠ":8824,"Ġà°İà°°à°Ĺà°¨à°Ł":8825,"108042017395":8826,"125072015133":8827,"127022017375":8828,"107062017423":8829,"520":8830,"à°²à°°à°¨":8831,"Ġà°¨à°Ń":8832,"à°·à°µà°®":8833,"à°ľà°Ńà°µà°¨":8834,"à±Ī!\"":8835,"à°¥à°ªà°¤":8836,"à°¥à°¨à°°":8837,"Ġà°Ńà°ľà°°":8838,"Ġà°ıà°Īà°µ":8839,"à°¦à°¨à°·":8840,"ÂłÂłĠÂłÂłÂłĠÂłÂłĠÂłĠÂłĠÂłĠÂłĠÂłĠÂłĠÂłĠÂłĠÂłĠÂłĠÂłĠÂłĠÂłĠÂłĠÂłĠÂł":8841,"à°°à°®à°£à°®":8842,"à°·à°¨à°ª":8843,"Ġà°ħà°®à°°à°¤":8844,"Ġ216":8845,"006":8846,"à°Łà°®à°Ł":8847,"039":8848,"023":8849,"à°¯à°ªà°¡à°¦":8850,"à±ĭ...!":8851,"10809201630":8852,"à°Łà°Ĺà°²à°¨":8853,"1070320162":8854,"à°¸à°Ńà°¨":8855,"à°İà°µà°°à°®":8856,"10403":8857,"à°¹à°¤à°²à°¨":8858,"119012016197":8859,"1280120158":8860,"114072015":8861,"762":8862,"à°°à°®à°£à°²à°ķ":8863,"à°®à°¶à°°":8864,"12504201510":8865,"102112015168":8866,"791":8867,"Ġà°ħà°¡à°Ĺà°µà°ļ":8868,"à°¶à°¨à°®à°µ":8869,"à°ªà°¬à°¡à°¤":8870,"ÂłÂłĠÂłÂłÂłĠÂłÂłÂłĠÂłÂłÂłÂłÂłÂłÂłÂłÂłÂłÂłÂłÂłÂłÂłÂłÂłÂłÂłÂłÂłÂłÂłÂłÂłÂł":8871,"Ġà°Ĳà°İà°İà°¸":8872,"ĠÂłĠÂłĠÂłĠÂłÂłĠÂłÂł":8873,"Ġhe":8874,"Ġ****":8875,"11102201620":8876,"117122015185":8877,"103082017447":8878,"125082015144":8879,"114072015129":8880,"546":8881,"?!":8882,"ment":8883,"ud":8884,"Ġcom":8885,"à°¨à°²à°ª":8886,"à°²à°Ĺà°¨":8887,"à°ķà°Ĺà°²":8888,"à°¤à°³":8889,"à°¸à°¨à°¤":8890,"Ġà°ªà°¦à°¨":8891,"à°·à°¡":8892,"à°³à°µà°¦":8893,"à°§à°¤à°ķ":8894,"Ġà°İà°¹":8895,"Ġà°İà°°à°µ":8896,"à°ħà°¦à°¨à°ª":8897,"Ġà°ķà°¨à°ķà°°":8898,"Ġà°ħà°§à°®":8899,"à°µà°¤à°²à°¤":8900,"à°łà°µ":8901,"à°¯à°°à°¹":8902,"à°ķà°Łà°²à°ķ":8903,"077":8904,"053":8905,"067":8906,"à°¿?..":8907,"Ġà°Ĺà°¡à°ªà°¦":8908,"Ġ1930":8909,"Ġà°¬à°¸à°µ":8910,"ÂłÂłÂłĠÂłÂłÂłĠÂłÂłÂłÂł":8911,"Ġ183":8912,"Ġà°ķà°¡à°¸":8913,"à°ĥ,":8914,"à°®à°¸à°¤":8915,"à°Ĺà°¸à°Ń":8916,"à°°à°¸à°¨à°²à°ķ":8917,"Ġà°Ķà°ļ":8918,"Ġà°Ķà°¨à°¨":8919,"Ġà°Ĺà°£à°ª":8920,"1161120174":8921,"1260220162":8922,"12707201513":8923,"11807201626":8924,"118082016299":8925,"120032016219":8926,"102017483":8927,"11502201620":8928,"10206201511":8929,"à°°à°ķà°°à°®à°¨":8930,"ĠÂłĠÂłĠÂłÂłĠÂłÂł":8931,"andhra":8932,"116112017492":8933,")-":8934,".,":8935,"544":8936,"944":8937,"IN":8938,"à°¾âĢĺ":8939,"à°²à°¡à°µ":8940,"à°²à°ļà°ķ":8941,"à°¤à°ĸ":8942,"à°ªà°®à°¯":8943,"Ġà°ĩà°°à°Ĺà°¦":8944,"à°°à°®à°°à°£":8945,"à°ħà°¸à°¹":8946,"Ġà°ħà°µà°¤à°²à°¨":8947,"à°¸à°°à°¯":8948,"Ġ217":8949,"à°Ĥ.-":8950,"à°¡à°²à°®à°§":8951,"à°Ĳà°¹":8952,"à°¡à°Ĺà°ķ":8953,"à±ģ...'":8954,"041":8955,"à°¿?!":8956,"031":8957,"à°¤à°ªà°¸":8958,"à°°à°Łà°Ĺ":8959,"Ġà°ľà°¯à°Ń":8960,"à°®à°¸à°Ń":8961,"à°°à°ķà°Łà°¨à°²à°¨":8962,"à°°à°ķà°Łà°¨à°²à°¤":8963,"109102017474":8964,"11601201735":8965,"11801201735":8966,"1280320159":8967,"à±ĩ....?\"":8968,"12405201511":8969,"à°¿........":8970,"964":8971,"Ġà°¸à°¹à°ľà°µ":8972,"1150220158":8973,"ÂłÂłÂłĠÂłÂłÂłÂłÂłÂłÂłÂłÂłÂłÂłÂłÂłÂłÂłÂłÂłÂłÂłÂłÂłÂłÂłÂłÂłÂłÂłÂłÂł":8974,"684":8975,"ÂłÂłÂłĠÂłÂłÂłĠÂłÂłĠÂłĠÂłĠÂłĠÂłĠÂłĠÂłĠÂłĠÂłĠÂłĠÂłĠÂłĠÂłĠÂłĠÂłĠÂłĠÂłĠÂłĠÂłĠÂłĠÂłĠÂłĠÂłĠÂłĠÂł":8976,"ÂłÂłÂłĠÂłÂłÂłĠÂłÂłĠÂłĠÂłĠÂłĠÂłĠÂłĠÂłĠÂłĠÂłĠÂłĠÂłĠÂłĠÂłĠÂłĠÂłĠÂłĠÂłĠÂłĠÂłĠÂłĠÂłĠÂłĠÂłĠÂłĠÂłĠÂłĠÂłĠÂłĠÂłĠÂłĠÂłĠÂłĠÂł":8977,"Ġà°İà°Ĺà°°à°µ":8978,"ist":8979,"Ġà°¤à°¹à°¤à°¹":8980,"12102201620":8981,"Ġà°¤à°³à°¤à°³à°²":8982,"131102015167":8983,"121062016256":8984,"119122016347":8985,"Ġà°Ķà°·à°§à°®":8986,"126082015144":8987,"104062017422":8988,"1040320158":8989,"à±ģà±Ĥ":8990,"à°²à°ľà°°":8991,"à±ĩ;":8992,"à°¡à°®à°¯":8993,"à°®à°®à°¤":8994,"Ġà°ļà°µà°Ł":8995,"Ġà°¨à°¥":8996,"Ġà°Ĩà°¨à°°":8997,"Ġà°¬à°§":8998,"Ġà°Ĺà°¢":8999,"à°¹à°®à°¯":9000,"à°²à°ķà°¯":9001,"à°ĸà°Ń":9002,"à°ĸà°°à°®":9003,"ÂłÂłĠÂłÂłÂłÂł":9004,"Ġà°¸à°®à°µ":9005,"à°ħà°µà°Ĺ":9006,"Ġà°ķà°²à°¯à°ľ":9007,"Ġà°ľà°°à°ľà°°":9008,"Ġà°ķà°¨à°ķà°¯":9009,"Ġ234":9010,"à°ĩà°¤à°¡":9011,"à°®à°°à°ļà°°":9012,"Ġà°·à°¹à°°":9013,"Ġà°Ĩà°¦à°®à°°":9014,"à°łà°Ńà°°":9015,"ĠÂłĠÂłĠÂłĠÂłĠÂłĠÂłĠÂłĠÂłĠÂłĠÂłÂł":9016,"Ġà°ıà°¡à°µà°²":9017,"095":9018,"à°ŀà°¤à°ķ":9019,"061":9020,"021":9021,"à°°à°¬à°¦":9022,"à°¸à°¨à°ķà°°":9023,"1310320162":9024,"à°¿âĢĻ..":9025,"Ġà°ķà°¥à°²à°¤":9026,"Ġà°Ĭà°¹à°²à°ķ":9027,"à±ĭ...?":9028,"543":9029,"à°¾....!\"":9030,"Ġà°®à°Ĺà°§":9031,"116052015110":9032,"1260920151":9033,"119092017466":9034,"128112015177":9035,"1140820162":9036,"130082017457":9037,"763":9038,"861":9039,"865":9040,"12005201624":9041,"1220420174":9042,"12208201514":9043,"102102016318":9044,"ÂłÂłÂłĠÂłÂłÂłĠÂłÂłÂłÂłÂłÂłÂłÂłÂłÂłÂłÂłÂłÂłÂłÂłÂłÂłÂłÂłÂłÂłÂłÂłÂłÂłÂłÂłÂłÂłÂłÂłÂłÂłÂłÂł":9045,"022016204":9046,"org":9047,"1010220158":9048,"à°§à°¶à°¤à°ķ":9049,"125052016245":9050,"127032017388":9051,"103032017377":9052,"110072016264":9053,"101042016224":9054,"ttdsevaonline":9055,"410":9056,"ag":9057,"à°°à°ªà°²":9058,"à°¦à°ķà°¨":9059,"âĢĿ":9060,"Ġà°°à°§":9061,"à°ľà°¯à°¤":9062,"à°¬à°ķà°°":9063,"à°³à°§":9064,"Ġà°¦à°°à°¹":9065,"à°¾à°Ĥ)":9066,"2003":9067,"à°°à°®à°ªà°¦":9068,"à°Ĩà°¸à°ķ":9069,"Ġà°ľà°°à°ªà°ķ":9070,"à°²à°²à°ļ":9071,"1211120151":9072,"à°ĩà°¤":9073,"à°¿!...":9074,"Ġ7500":9075,"Ġà°¢à°®":9076,"ÂłÂłÂłÂłÂłÂłÂłÂłÂłÂłÂłÂłÂłÂłÂłÂłÂłÂłÂłÂłÂłÂłÂłÂłÂłÂłÂłÂłÂłÂłÂłÂłÂłÂłÂłÂłÂłÂłÂłÂłÂłÂłÂłÂł":9077,"Ġ149":9078,"Ġà°ıà°ķà°¬":9079,"Ġà°ıà°ķà°®à°¯":9080,"Ġà°ĺà°Łà°¨à°²à°ķ":9081,"109032016215":9082,"106062015116":9083,"à±Ģ).":9084,"118082017453":9085,"12803201622":9086,"12009201746":9087,"989":9088,"12308201514":9089,"à±ĢâĢĻ.":9090,"1120820174":9091,"112015172":9092,"ÂłÂłÂłĠÂłÂłÂłĠÂłÂłÂłÂłÂłÂłÂłÂłÂłÂłÂłÂłÂłÂłÂłÂłÂłÂłÂłÂłÂłÂłÂłÂłÂłÂłÂłÂłÂłÂłÂłÂłÂłÂłÂłÂłÂł":9093,"11311201517":9094,"Ġ.........":9095,"Ġ\"........":9096,"ÂłÂłĠÂłÂłÂłĠÂłÂłÂłÂłÂłÂłÂłÂłÂłÂłÂłÂłÂłÂłÂłÂłÂłÂłÂłÂłÂłÂłÂłÂł":9097,"114122016345":9098,"226":9099,"312":9100,"434":9101,"427":9102,"432":9103,"539":9104,"ES":9105,"ĠK":9106,"à°°à°Łà°®":9107,"à°¦à°«":9108,"à°¦à°¯à°ķ":9109,"à°ļà°²à°¯":9110,"ÂłÂłĠÂłĠÂłĠÂłĠÂłĠÂłĠÂłĠÂłĠÂłĠÂłĠÂłĠÂłĠÂł":9111,"Ġà°¨à°ķà°²":9112,"Ġà°¨à°ĸà°¶":9113,"à°¶à°°à°§":9114,"à°¹à°¨à°¸":9115,"Ġà°¶à°°à°®":9116,"Ġà°ıà°®à°°":9117,"Ġà°Īà°ıà°ª":9118,"à°İà°¡à°®":9119,"Ġà°®à°¨à°µà°²":9120,"Ġà°ĵà°ļ":9121,"à°°à°µà°ķà°ª":9122,"Ġ243":9123,"Ġ(-":9124,"à°ªà°¤à°ķ":9125,"à°ªà°°à°¹":9126,"à°Ĳà°ıà°İà°¸":9127,"Ġà°ķà°®à°²à°ķ":9128,"049":9129,"à°ľà°¯à°Ĺ":9130,"à°Łà°ķà°¤":9131,"à°ŀà°¶":9132,"Ġà°ĺà°¨à°ª":9133,"037":9134,"Ġà°¬à°¸à°µà°°":9135,"à±ģâĢĻ..":9136,"Ġà°®à°²à°¬":9137,"ÂłÂłÂłÂłÂłÂłÂłÂłÂłÂłÂłÂłÂłÂłÂłÂłÂłÂłÂłÂłÂłÂłÂłÂłÂłÂłÂłÂłÂłÂłÂłÂłÂłÂłÂłÂłÂłÂłÂł":9138,"à°µà°°à°£à°¹":9139,"à°¶à°¨à°¶":9140,"Ġà°ľà°²à°§":9141,"à°¸à°Ńà°²à°¨":9142,"11004201599":9143,"Ġà°®à°®à°¤à°²":9144,"11704201739":9145,"129112017498":9146,"1240320159":9147,"11402201620":9148,"1300620174":9149,"130092016317":9150,"1200320159":9151,"102017472":9152,"1130320159":9153,"Ġà°Ńà°Ĺà°Ń":9154,"Ġà°Ńà°Ĺà°Ńà°Ĺ":9155,"1030420162":9156,"à°¾?''":9157,"à°Ķà°°":9158,"ÂłÂłĠÂłÂłÂłĠÂłÂłÂłÂłÂłÂłÂłÂłÂłÂłÂłÂłÂłÂłÂłÂłÂłÂłÂłÂł":9159,"star":9160,"12201201579":9161,"131012016":9162,"13110201748":9163,"Ġà°īà°¡à°ķà°¬":9164,"130102015167":9165,"105032016214":9166,"545":9167,"620":9168,"924":9169,"ntel":9170,"Ġ&":9171,"à°¨à°¯à°®":9172,"à±ĩ),":9173,"à°Łà°£à°®":9174,"à°ªà°²à°²":9175,"Ġà°ħà°¹à°®":9176,"à°£à°¤à°¨":9177,"Ġà°ħà°¨à°µà°ļ":9178,"à°¥à°¤à°¤":9179,"2006":9180,"à°Ĩà°³":9181,"Ġà°ĵà°µà°²":9182,"Ġ215":9183,"à°µà°¨à°¯":9184,"à°¡à°²à°¯":9185,"Ġà°ªà°¦à°¯":9186,"Ġà°ªà°¦à°¡":9187,"à°®à°ķà°¤à°¨":9188,"093":9189,"à°¾..:":9190,"Ġ2025":9191,"Ġà°Ńà°¯à°®à°¨":9192,"Ġ194":9193,"à°Ĵà°ķà°¡":9194,"1311020163":9195,"Ġ186":9196,"1070320159":9197,"à°¯à°Ĺà°²à°¡à°¨":9198,"119012017359":9199,"à°¯à°Łà°¨à°²à°ķ":9200,"124102016325":9201,"13003201622":9202,"Ġà°ķà°¨à°ªà°¡à°¦":9203,"ÂłÂłĠÂłÂłÂłĠÂłÂłÂłÂłÂłÂłÂłÂłÂłÂłÂłÂłÂłÂłÂłÂłÂłÂłÂłÂłÂłÂłÂłÂłÂłÂłÂłÂłÂłÂłÂłÂłÂłÂłÂłÂłÂłÂłÂłÂłÂłÂłÂłÂłÂłÂłÂłÂł":9204,"112092016308":9205,"Ġ_\"":9206,"682":9207,"Ġà°ħà°²à°¸à°Łà°¤":9208,"Ġà°µà°¶à°ªà°°":9209,"Ġcan":9210,"ÂłÂłÂłĠÂłĠÂłĠÂłĠÂłĠÂłĠÂłĠÂłĠÂłĠÂłĠÂłĠÂłĠÂłĠÂł":9211,"Ġà°¶à°°à°Ńà°¯":9212,"218":9213,"237":9214,"à±įà°ĥ":9215,"à°Łà°Ń":9216,"Ġà°ªà°¸à°°":9217,"Ġà°ªà°¸à°²":9218,"à°£à°ľ":9219,"Ġà°İà°¦à°²":9220,"Ġà°ıà°Ĳà°İ":9221,"à°İà°®à°°":9222,"Ġà°ķà°²à°²à°ķ":9223,"Ġà°ľà°°à°ªà°²":9224,"à°Łà°²à°µà°²":9225,"à°¯à°®à°¸":9226,"Ġ256":9227,"à°¦à°²à°µà°¡":9228,"Ġà°īà°¦à°¯à°ķ":9229,"à°ıà°ı":9230,"à°¾?-":9231,"Ġà°ĸà°¬à°¡":9232,"131052015":9233,"Ġà°Ĵà°ķà°Łà°¯":9234,"à±ģ.....?\"":9235,"Ġà°¦à°¶à°¦":9236,"13006201512":9237,"13003201596":9238,"12001201619":9239,"120052017416":9240,"785":9241,"113062015118":9242,"11501201619":9243,"à°ļà°°à°£à°ª":9244,"à°¨à°¬à°¡à°¡":9245,"à°¨à°¬à°¡à°Ĺ":9246,"ÂłÂłĠÂłÂłÂłĠÂłĠÂłĠÂłĠÂłĠÂłĠÂłĠÂłĠÂłĠÂłĠÂłĠÂłĠÂłĠÂłĠÂłĠÂłĠÂłĠÂłĠÂłĠÂłĠÂłĠÂłĠÂłĠÂłĠÂłĠÂłĠÂłĠÂłĠÂł":9247,"Ġà°ªà°¯à°¨à°®":9248,"Ġse":9249,"ÂłÂłÂłĠÂłÂłÂłÂłÂłÂłÂłÂłÂłÂłÂłÂłÂłÂłÂłÂłÂłÂłÂłÂłÂłÂłÂłÂłÂłÂłÂłÂłÂłÂłÂłÂłÂłÂłÂłÂłÂł":9250,"ÂłÂłÂłĠÂłÂłÂłÂłÂłÂłÂłÂłÂłÂłÂłÂłÂłÂłÂłÂłÂłÂłÂłÂłÂłÂłÂłÂłÂłÂłÂłÂłÂłÂłÂłÂłÂłÂłÂłÂłÂłÂł":9251,"Ġà°¶à°°à°µà°£à°¨":9252,"104022017365":9253,"512":9254,"525":9255,"840":9256,"ry":9257,"à°Łà°¤à°°":9258,"à°¯à°£à°²":9259,"à°¸à°ªà°°":9260,"à°®à°¤à°¨":9261,"à°®à°ªà°¤":9262,"à°Ĺà°ľà°²":9263,"Ġà°¸à°«à°²à°®à°¯":9264,"à°¿.?":9265,"Ġà°Ĩà°Łà°®":9266,"à°³à°ªà°²":9267,"à°¶à°¤à°ķ":9268,"à°§à°°à°¹":9269,"ÂłÂłÂłĠÂłĠÂłĠÂłĠÂłĠÂłĠÂłĠÂłĠÂłĠÂłĠÂłĠÂłĠÂłĠÂłĠÂłĠÂłĠÂłĠÂłĠÂłĠÂłĠÂłĠÂłĠÂłĠÂłĠÂłĠÂłĠÂłĠÂłĠÂłĠÂłĠÂłĠÂłĠÂł":9270,"Ġà°ľà°¨à°µ":9271,"Ġà°¶à°ªà°§":9272,"Ġà°¤à°¨à°µà°¦":9273,"à°ħà°°à°¬":9274,"Ġà°ĵà°¨à°®":9275,"à°µà°¡à°Ĺ":9276,"Ġà°¸à°°à°³à°¨":9277,"à°¯à°®à°¤":9278,"à°ĩà°«":9279,"à°¨à°ªà°ķ":9280,"002":9281,"Ġà°¨à°¡à°ªà°²":9282,"081":9283,"à°¡à°µà°³":9284,"Ġ195":9285,"à°Ĺà°³à°°":9286,"à°¾...'":9287,"Ġ184":9288,"Ġà°¥à°®à°¨":9289,"553":9290,"à°Ĥ...!":9291,"107062015117":9292,"Ġà°ķà°¨à°¬à°¡à°Ĺ":9293,"1060320162":9294,"10602201736":9295,"1060220158":9296,"à°¯à°Ĺà°²à°Ĺ":9297,"1160620162":9298,"à°ªà°£à°ĸ":9299,"11701201578":9300,"965":9301,"12504201623":9302,"113032016217":9303,"1020520162":9304,"Ġmo":9305,"131082015146":9306,"jyothy":9307,".'":9308,"522":9309,"680":9310,"à°¤à°Ĺà°²":9311,"à°¡à°¸à°²":9312,"à°®à°¥à°°":9313,"à±Ĩ?\"":9314,"Ġà°ķà°¡à°¦":9315,"Ġà°¨à°¯à°®à°µ":9316,"à°·à°°à°£":9317,"à±Ī...\"":9318,"à°³à°µà°°à°ķ":9319,"à°³à°¬à°Ł":9320,"Ġà°¶à°ļ":9321,"Ġà°Īà°¤à°°":9322,"ÂłÂłÂłÂłÂłÂłĠčĊ":9323,"à°¿,.":9324,"Ġà°Ĵà°¹":9325,"à°«à°İà°¸":9326,"Ġà°«à°²à°µ":9327,"à°ħà°²à°ķ":9328,"...?\"":9329,"Ġà°ħà°°à°µà°¸":9330,"à°Łà°¨à°²":9331,"à°¡à°²à°¸":9332,"Ġà°¤à°²à°Ĺà°¡":9333,"à°ĩà°¯":9334,"à°ķà°¨à°¬à°¡":9335,"ÂłÂłÂłÂłÂłÂłÂłÂłÂłÂłÂłÂłÂłÂłÂłÂłÂłÂłÂłÂłÂłÂł":9336,"001":9337,"085":9338,"073":9339,"043":9340,"063":9341,"à°¾à°Ĥ.âĢĻ":9342,"015":9343,"017":9344,"à°¨à°¤à°µ":9345,"Ġ1954":9346,"1999":9347,"à°ªà°¦à°²à°¨":9348,"Ġà°Ĩà°Łà°¸":9349,"à°ħà°µà°§":9350,"à°ħà°²à°¸":9351,"Ġà°ĺà°Łà°¨à°²à°ª":9352,"à°¿....!":9353,"à°®à°¸à°ķ":9354,"à°Ĥ...?":9355,"10904201599":9356,"110092016307":9357,"106102015158":9358,"à°Ĺà°£à°®à°¨":9359,"à°ªà°£à°¨":9360,"1170320159":9361,"11705201624":9362,"117102016323":9363,"966":9364,"à°²à°Ńà°®à°µ":9365,"Ġ__:":9366,"985":9367,"103102015158":9368,"1120320159":9369,"112072017438":9370,"à°¯à°¬à°¡à°¤":9371,"à°°à°¬à°¡à°Ł":9372,"à°ıà°¡à°µà°ķ":9373,"Ġà°ħà°°à°ķà°ª":9374,"Ġà°ĩà°¹à°ª":9375,"ence":9376,"atch":9377,"andhrajyothy":9378,"528":9379,"670":9380,"ĠÂłÂłÂłĠÂłÂłÂł":9381,"à°°à°³à°¨":9382,"à°°à°·à°°":9383,"à°¤à°µà°²à°¸":9384,"à°µà°§à°°":9385,"à°Ĺà°¡à°Ł":9386,"à°§à°ķà°²":9387,"à°¹à°¤à°ķ":9388,"Ġà°ľà°Ĺà°ľ":9389,"Ġà°²à°¬à°²":9390,"Ġà°ħà°¨à°¦":9391,"à°µà°°à°¦à°°":9392,"Ġà°ıà°µà°¯":9393,"Ġà°Īà°¦à°°":9394,"Ġà°¹à°¯à°Ĺ":9395,"utv":9396,"Ġà°ªà°¡à°Łà°®":9397,"à°ļà°¨à°µà°¸à°°":9398,"Ġà°ķà°³à°ķà°³":9399,"à°Īà°¦":9400,"à°³à°¨à°²à°¤":9401,"Ġà°ķà°¦à°ªà°²":9402,"à°µà°ķà°µ":9403,"Ġ1959":9404,"Ġ950":9405,"à±įâĢĮâĢĻ..":9406,"à°¯à°ªà°¡à°ķ":9407,"à±į..\"":9408,"12604201510":9409,"11712201634":9410,"à°ģ,":9411,"129112015178":9412,"12507201744":9413,"113022017369":9414,"103102015157":9415,"à±Ģ.......":9416,"1120220158":9417,"ÂłÂłÂłÂłÂłÂłÂłÂłÂłÂłÂłÂłÂłÂłÂłÂłÂłÂłÂłÂłÂłÂłÂłÂłÂłÂłÂłÂłÂłÂłÂłÂłÂłÂłÂłÂłÂłÂłÂłÂłÂłÂłÂłÂłÂłÂłÂłÂłÂłÂłÂłÂłÂłÂłÂłÂłÂłÂłÂłÂłÂłÂłÂłÂłÂłÂłÂłÂłÂłÂłÂłÂłÂłÂłÂłÂłÂłÂłÂłÂłÂłÂłÂłÂłÂłÂłÂłÂłÂłÂłÂłÂłÂłÂłÂłÂłÂłÂłÂłÂłÂłÂłÂłÂłÂłÂłÂłÂłÂłÂłÂłÂłÂłÂłÂłÂłÂłÂłÂłÂłÂłÂłÂłÂłÂłÂłÂłÂł":9418,"Ġà°¸à°µà°°à°£à°²à°¨":9419,"à°Ńà°Ĺà°µà°¦":9420,"Ġ*******":9421,"106122017502":9422,"ugutv":9423,"72016273":9424,"Ġà°Ĺà°°à°Ĺà°ªà°°":9425,"ntelugutv":9426,"328":9427,"526":9428,"610":9429,"630":9430,"628":9431,"ire":9432,"à°Ĥ......\"":9433,"à°¯à°°à°ķ":9434,"à°¯à°ļà°ķ":9435,"à°ªà°¨à°®":9436,"à°¸à°®à°¦":9437,"Ġà°¨à°®à°¨":9438,"à°ľà°Ĺà°¤":9439,"Ġà°ľà°ľ":9440,"Ġà°ľà°¤à°Ĺ":9441,"Ġà°īà°¬à°°":9442,"ÂłÂłÂłĠÂłÂłÂłÂłÂłÂłÂłÂłÂłÂłÂł":9443,"ÂłÂłÂłÂłÂłÂłÂłĠčĊ":9444,"à°ªà°¡à°µà°¦":9445,"à°°à°¸à°ĸ":9446,"ĠÂłĠÂłĠÂłĠÂłĠÂłĠÂł":9447,"Ġà°¤à°ªà°®":9448,"Ġà°·à°¡":9449,"Ġ---------":9450,"Ġà°Ĩà°²à°®à°Ł":9451,"à°¯à°¡à°¨":9452,"ĠÂłĠÂłĠÂłĠÂłĠÂłĠÂłĠÂłĠÂłĠÂłĠÂł":9453,"Ġà°İà°¦à°Ĺà°¨":9454,"087":9455,"Ġ4500":9456,"à°²à°Ĺà°®à°¨":9457,"Ġà°Ĺà°¤à°ľà°¨":9458,"Ġ203":9459,"Ġà°¬à°²à°¸":9460,"à°īà°ªà°°":9461,"Ġ167":9462,"Ġà°Ĺà°®à°¨à°¶":9463,"Ġà°ĺà°Łà°¨à°²à°¨":9464,"107092016306":9465,"1041220151":9466,"104102017472":9467,"à°¯à°Ĺà°²à°®":9468,"à±į....!":9469,"128122015189":9470,"961":9471,"987":9472,"à°ļà°¬à°¡à°Ł":9473,"ÂłÂłÂłĠÂłÂłÂłĠÂłÂłÂłÂłÂłÂłÂłÂłÂłÂłÂłÂłÂłÂłÂłÂłÂłÂł":9474,"11508201745":9475,"à°¾',":9476,"052016245":9477,"Ġà°µà°¦à°²à°°":9478,"Ġsh":9479,"Ġà°ķà°²à°Ĺà°ķà°ª":9480,"Ġà°ħà°¦à°°à°¹":9481,"127122017512":9482,"127082016302":9483,"104092016305":9484,"322":9485,"418":9486,"422":9487,"660":9488,"home":9489,"ok":9490,"Ġà°ļà°®à°¨":9491,"à°·à°ķà°°à°®":9492,"à±Īà°ĥ":9493,"à°²à°ķà°ªà°²":9494,"à°«à°µ":9495,"à°°à°ķà°¸":9496,"à°°à°ķà°£":9497,"à±ĩà°Ĥ-":9498,"à°Ĩà°ķà°°":9499,"Ġà°ĵà°¦à°¨à°®":9500,"à°¤à°°à°£à°ª":9501,"ĠÂłĠÂłĠÂłĠÂłĠÂł":9502,"ĠÂłĠÂłĠÂłĠÂłĠÂłĠÂłĠÂł":9503,"à°°à°µà°®à°¨":9504,"1110320159":9505,"à°°à°¯à°¦":9506,"Ġ224":9507,"....!":9508,"à°²à°¯à°°":9509,"Ġà°ħà°¸à°²à°¯":9510,"Ġà°Ĩà°²à°µ":9511,"Ġà°¨à°µà°Ń":9512,"ĠÂłĠÂłĠÂłĠÂłĠÂłĠÂłĠÂłĠÂłĠÂłĠÂłĠÂłÂł":9513,"à°°à°¶à°°":9514,"004":9515,"Ġ430":9516,"Ġ:__":9517,"Ġà°ĺà°²":9518,"à°¾à°Ĥ.âĢĻâĢĻ":9519,"Ġà°Ĺà°¡à°µà°¡":9520,"Ġ193":9521,"Ġ1963":9522,"__\"":9523,"à°§à°µà°ª":9524,"Ġ157":9525,"Ġà°ķà°¥à°Ĺ":9526,"Ġà°ħà°¬à°²":9527,"Ġà°ľà°²à°Ĺà°²":9528,"à°ķà°Ĺà°Ł":9529,"à°ĺà°Łà°¨à°²à°¤":9530,"ĠÂłÂłĠÂłĠÂłĠÂłĠ":9531,"107052015107":9532,"110072015":9533,"10410201747":9534,"994":9535,"à±ĭ\".":9536,"1200620162":9537,"ÂłÂłÂłĠÂłÂłÂłÂłÂłÂłÂłÂłÂłÂłÂłÂłÂłÂłÂłÂłÂłÂłÂłÂłÂłÂłÂłÂłÂłÂłÂłÂłÂłÂł":9538,"Ġà°ªà°¤à°¨à°®à°¯":9539,"one":9540,"à°Łà°Ĺà°²à°¦":9541,"à°ĩà°Ĵà°Ĺ":9542,"ÂłÂłÂłĠÂłÂłÂłÂłÂłÂłÂłÂłÂłÂłÂłÂłÂłÂłÂłÂłÂłÂłÂłÂłÂłÂłÂłÂłÂłÂłÂłÂłÂłÂłÂłÂłÂłÂłÂłÂłÂłÂłÂł":9543,"Ġà°Īà°İà°¨à°¸":9544,"101052015105":9545,"110072015128":9546,"211":9547,"720":9548,"797":9549,"?)":9550,"ha":9551,"à°¨à°²à°²":9552,"à°²à°¯à°²":9553,"à°µà°²à°²":9554,"à°µà°®à°¤":9555,"à°µà°®à°¯":9556,"à°®à°®à°¯":9557,"à°Ĺà°¤à°®à°¯":9558,"à°ļà°µà°Ł":9559,"Ġà°ħà°²à°ķà°¨":9560,"à±Ĥà±įâĢĮ":9561,"Ġà°²à°¤à°¨":9562,"Ġà°Łà°¸":9563,"à°°à°®à°ľ":9564,"Ġà°ħà°µà°¬":9565,"à°¤à°°à°¦":9566,"à°Ĺà°°à°ª":9567,"à°¤à°²à°¯":9568,"à°ıà°Ĳà°¸":9569,"Ġà°¤à°®à°¸":9570,"à°¨à°µà°µà°¨à°°":9571,"ÂłÂłÂłÂłÂłÂłÂłÂłÂłÂłÂłÂłÂłÂłÂłÂłÂłÂłÂłÂłÂłÂłÂłÂłÂłÂłÂłÂł":9572,"071":9573,"à°¡à°µà°²à°¨":9574,"Ġ199":9575,"à±įâĢĮ)âĢĻ":9576,"à±ģ....!":9577,"Ġà°Ńà°¯à°ªà°¡à°¡":9578,"Ġà°®à°¸à°ķà°Ĺ":9579,"983":9580,"Ġà°µà°¦à°²à°¦":9581,"à°¦à°¶à°°à°¥":9582,"Ġ9900":9583,"ÂłÂłÂłĠÂłÂłĠÂłĠÂłĠÂłĠÂłĠÂłĠÂłĠÂłĠÂłĠÂłĠÂłĠÂłĠÂłĠÂłĠÂł":9584,"Ġà°¦à°µà°¡à°²":9585,"105082017448":9586,"110022016205":9587,"122012016198":9588,"Ġà°§à°Ĺà°§à°Ĺ":9589,")âĢĻ":9590,"314":9591,"446":9592,"710":9593,"704":9594,"740":9595,"OR":9596,"à°¯à°§à°°":9597,"à°ªà°½à°¥":9598,"à°µà°ªà°ķ":9599,"à°®à°¯à°¨":9600,"Ġà°ļà°®à°ķ":9601,"Ġà°¨à°²à°¤":9602,"à°·à°ķà°°":9603,"à°·à°¤à°²":9604,"à°·à°²à°¯":9605,"à°£à°²à°¤":9606,"Ġà°īà°°à°µà°ķ":9607,"Ġà°ªà°¡à°µà°¦":9608,"Ġà°¤à°²à°¬":9609,"ÂłÂłÂłÂłÂłÂłÂłÂłÂłÂłÂłÂłÂłÂłÂłÂłÂłÂłÂłÂłÂłÂłÂł":9610,"à°¨à°°à°Ĺ":9611,"à°Ĳà°²à°ķ":9612,"à°¾!...":9613,"Ġà°ªà°²à°µà°°":9614,"Ġà°¸à°Ńà°²à°²":9615,"Ġ1961":9616,"Ġ949":9617,"Ġà°Ĩà°ªà°ķà°ª":9618,"à°¨à°Ĺà°ª":9619,"à°ķà°¸à°¹":9620,"Ġà°Ĩà°Łà°¬":9621,"Ġà°Ĵà°ķà°°à°¨":9622,"à°¹à°¸à°¯":9623,"Ġ173":9624,"Ġà°ľà°²à°°à°µ":9625,"à±Ģ..?":9626,"118092016310":9627,"1191020163":9628,"12905201511":9629,"765":9630,"à°°à°®à°²à°¶":9631,"12201751":9632,"102017482":9633,"123052017417":9634,"11501201735":9635,"à°Ĥ',":9636,"à°ļà°µà°²à°¯":9637,"ÂłÂłĠÂłÂłÂłĠÂłÂłÂłĠÂłÂłÂłÂłÂłÂłÂłÂłÂłÂłÂłÂłÂłÂłÂłÂłÂłÂłÂłÂłÂłÂłÂłÂł":9638,"ÂłÂłÂłĠÂłÂłÂłÂłÂłÂłÂłÂłÂłÂłÂłÂłÂłÂłÂłÂłÂłÂłÂłÂłÂłÂłÂłÂłÂłÂłÂłÂłÂłÂłÂłÂłÂłÂłÂł":9639,"Ġpro":9640,"ĠÂłÂłĠÂłĠÂłĠÂłĠÂłĠÂłĠÂłĠÂłĠÂłĠ":9641,"124022017374":9642,"120122015186":9643,"130062017433":9644,"020":9645,"730":9646,"877":9647,"988":9648,"OU":9649,"ew":9650,"ii":9651,"ĠÂłÂłÂłÂłÂłÂłÂłÂłÂłÂłÂłÂłÂłÂłÂł":9652,"Ġà°¿":9653,"à°°à°¨à°Ł":9654,"à°ķà°¶à°ķ":9655,"à°ļà°ªà°¡":9656,"Ġà°ªà°Ń":9657,"Ġà°®à°±":9658,"Ġà°¨à°ķà°°":9659,"à±ģ.Ą":9660,"Ġà°ľà°¡à°¨":9661,"Ġà°ľà°¡à°¤":9662,"à°¥à°¨à°ķ":9663,"à°°à°®à°µà°¡":9664,"Ġà°ħà°µà°²à°ķ":9665,"Ġà°ķà°¨à°µà°¸à°°":9666,"Ġ229":9667,"Ġà°µà°°à°¹":9668,"à°Ĺà°²à°µà°¨":9669,"Ġà°Ĳà°¹":9670,"à°¯à°¤à°²à°ķ":9671,"à°®à°²à°µ":9672,"083":9673,"Ġ2024":9674,"Ġ2029":9675,"Ġ1920":9676,"Ġ1942":9677,"à°¥à°ķà°¤":9678,"Ġ9000":9679,"Ġ187":9680,"Ġ168":9681,"127102015166":9682,"118032016219":9683,"128052015114":9684,"Ġ275":9685,"12412201518":9686,"12008201514":9687,"120092017466":9688,"662":9689,"Ġà°¤à°Ĺà°²à°Ĺ":9690,"à°Ķà°·à°§":9691,"109012017355":9692,"105052017407":9693,"ĠâĢľ":9694,",,":9695,"235":9696,"902":9697,"The":9698,"Ġgo":9699,"à°¨à°Ĺà°¡":9700,"à°²à°¤à°°à°¬à°¡":9701,"à°¤à°µà°ļ":9702,"ÂłĠĠ":9703,"à°Łà°¤à°ª":9704,"Ġà°ķà°¨à°Ł":9705,"Ġà°ħà°°à°®à°°":9706,"à°ľà°²à°ª":9707,"Ġà°Ĩà°ĸ":9708,"à°Ńà°³":9709,"à°ĸà°²à°²":9710,"à°ĸà°ªà°¡à°¤":9711,"à°¯à°¨à°µà°¸à°°":9712,"à°°à°ķà°¦à°¬":9713,"à°µà°¡à°Ł":9714,"Ġà°ħà°¤à°¨à°ķ":9715,"Ġà°īà°¦à°ķà°®":9716,"Ġà°ĸà°°à°Ĺ":9717,"Ġà°Ĩà°²à°®":9718,"à°µà°¹à°¸":9719,"Ġ202":9720,"à°°à°Ĺà°ķà°ª":9721,"Ġà°Ĺà°¡à°µà°ķà°®":9722,"à°¡à°µà°®":9723,"1996":9724,"à±ģ....'":9725,"à±į...?":9726,"1101120163":9727,"11011201633":9728,"12911201749":9729,"767":9730,"967":9731,"969":9732,"120072016268":9733,"1020720174":9734,"668":9735,"ÂłÂłĠÂłÂłÂłĠÂłÂłÂłĠÂłÂłÂłÂłÂłÂłÂłÂłÂłÂłÂłÂłÂłÂłÂłÂłÂłÂłÂłÂłÂłÂłÂłÂłÂłÂłÂłÂłÂłÂł":9736,"Ġmy":9737,"ĠThe":9738,"ÂłÂłÂłĠÂłĠÂłĠÂłĠÂłĠÂłĠÂłĠÂłĠÂłĠÂłĠÂłĠÂłĠÂłÂł":9739,"Ġà°ľà°²à°ķà°³":9740,"111102017475":9741,"101082016292":9742,"Ġà°Ĺà°²à°Ĺà°²à°²":9743,"116062016254":9744,"110112016332":9745,"\"...":9746,"%)":9747,"436":9748,"690":9749,"ON":9750,"à°¨à°¡à°Ĺ":9751,"à°¨à°¯à°®à°£":9752,"à°¤à°¦à°°":9753,"à°¦à°µà°¨":9754,"à°¯à°¯à°ª":9755,"à°µà°Ĺà°¨":9756,"à°Ĺà°Łà°®":9757,"Ġà°µà°²à°µ":9758,"à±Ĥ/":9759,"à°¬à°§":9760,"Ġà°¬à°²à°¨":9761,"à°¹à°Ĺà°²":9762,"Ġà°İà°¦à°°":9763,"Ġà°İà°°à°ķ":9764,"Ġà°Ńà°¯à°¸":9765,"Ġà°ıà°Īà°Ī":9766,"à°°à°ķà°¤":9767,"à°Łà°°à°µ":9768,"à°Ĩà°ķà°Ł":9769,"Ġ235":9770,"à°ļà°¨à°µ":9771,"Ġà°Ĳà°²à°®":9772,"ÂłÂłÂłÂłÂłÂłÂłÂłÂłÂłÂłÂłÂłÂłÂłÂłÂłÂłÂłÂłÂłÂłÂłÂłÂłÂłÂłÂłÂłÂł":9773,"ÂłÂłÂłÂłÂłÂłÂłÂłÂłÂłÂłÂłÂłÂłÂłÂłÂłÂłÂłÂłÂłÂłÂłÂłÂłÂłÂłÂłÂłÂłÂłÂłÂł":9774,"Ġà°ıà°¡à°¡":9775,"Ġà°īà°ªà°¶à°®":9776,"Ġà°ķà°®à°¤":9777,"à±ģ...âĢĻâĢĻ":9778,"Ġ310":9779,"à°ľà°¯à°¢":9780,"Ġà°Ĩà°Ĺà°µ":9781,"Ġà°Ĩà°¡à°¶":9782,"Ġà°®à°²à°ļà°¡":9783,"à°Łà°ªà°Ĺ":9784,"à°¯à°ªà°¡à°Ĺ":9785,"Ġà°¶à°¤à°ĺ":9786,"991":9787,"11902201620":9788,"11904201510":9789,"1300":9790,"130082015145":9791,"à°¿.........":9792,"120082015142":9793,"885":9794,"11506201625":9795,"12211201749":9796,"à°Łà°Ĺà°²à°µ":9797,"à°µà°ļà°¨à°®":9798,"ÂłÂłĠÂłÂłÂłĠÂłÂłÂłĠÂłčĊ":9799,"Ġwor":9800,"ous":9801,"Ġyour":9802,"105072016262":9803,"112052017410":9804,"121092016313":9805,"111122016344":9806,"236":9807,"239":9808,"ib":9809,"à°¤à°ĺ":9810,"à°¦à°§":9811,"à°Łà°µà°¨":9812,"à°µà°ªà°²":9813,"à°Ĺà°¨à°¨":9814,"ÂłÂłĠÂłĠÂłĠÂłĠÂłĠÂłĠÂłĠÂłĠÂłĠÂłĠÂłĠÂłĠÂłĠÂłĠÂłĠÂłĠÂłĠÂłĠÂłĠÂłĠÂłĠÂłĠÂłĠÂłĠÂłĠÂłĠÂłĠÂłĠÂł":9815,"Ġà°¦à°ĸà°²":9816,"Ġà°īà°·à°¨":9817,"à°Ńà°®à°¨":9818,"à°²à°ķà°¦":9819,"Ġà°¯à°®à°ª":9820,"Ġà°¤à°¨à°¬":9821,"à°¯à°²à°¦":9822,"à°¯à°²à°®":9823,"Ġà°ĵà°Ĺ":9824,"à°°à°¯à°£":9825,"Ġà°ħà°ªà°¹à°°à°£à°ķ":9826,"à°¯à°°à°¹à°¦":9827,"ĠÂłĠÂłĠÂłĠÂłĠÂłĠÂłĠÂłĠÂłĠÂłÂł":9828,"à°ľà°°à°µà°¡":9829,"à°²à°µà°Ĺà°²":9830,"089":9831,"091":9832,"097":9833,"Ġà°ľà°¨à°¶à°ķ":9834,"Ġ204":9835,"à°¡à°¦à°®":9836,"à°Ĺà°¡à°¤":9837,"à°§à°ªà°¡à°¦":9838,"à±į:\"":9839,"110052015":9840,"Ġà°Ķà°¸":9841,"à°Ĺà°£à°¨":9842,"116032016218":9843,"12910201748":9844,"129102017483":9845,"769":9846,"1020820151":9847,"971":9848,"11208201745":9849,"Ġà°¨à°Ĺà°²à°¤":9850,"Ġà°¤à°²à°ķà°Ł":9851,"à°¨à°ªà°¡à°ķ":9852,"Ġac":9853,"ÂłÂłĠÂłÂłÂłĠÂłÂłÂłĠÂłÂłÂłÂłÂłÂłÂłÂłÂłÂłÂłÂłÂłÂłÂłÂłÂłÂłÂłÂłÂłÂłÂł":9854,"Ġà°ķà°²à°Ĺà°²à°¸":9855,"Ġà°ħà°²à°µà°°à°ļ":9856,"115102015162":9857,"105032017378":9858,"106032017378":9859,"102072015125":9860,"117092017465":9861,"120062016256":9862,"110052015108":9863,"516":9864,"534":9865,"652":9866,"830":9867,"TI":9868,"ure":9869,"à°¨à°°à°ķà°²":9870,"à°ķà°µà°¸à°¤":9871,"ÂłĠÂłĠÂłĠÂłĠÂłĠÂłĠÂłĠÂłĠÂłĠÂłĠÂłĠÂłĠÂłĠÂłĠÂłĠÂłĠÂłĠÂłĠÂłĠÂłĠÂłĠÂłĠÂłĠÂłĠÂł":9872,"à°¡à°¸à°°":9873,"à°ªà°ļà°°":9874,"à°ªà°¶à°¯":9875,"à°µà°µà°°":9876,"à±Ĥà°Ĥ,":9877,"Ġà°¨à°®à°²":9878,"Ġà°¨à°°à°¹":9879,"Ġà°°à°¸à°µ":9880,"à°¬à°¨à°Ĺ":9881,"à°³à°Łà°®":9882,"à°¶à°µà°¤":9883,"à°§à°°à°ķ":9884,"Ġà°¦à°®à°¯":9885,"Ġà°ľà°²à°°":9886,"Ġà°ľà°«à°°":9887,"à°²à°ķà°ªà°ķ":9888,"Ġà°¯à°µà°²":9889,"ends":9890,"Ġà°®à°¨à°¦à°Ĺ":9891,"ĠÂłĠÂłĠÂłĠÂłĠÂłĠÂłĠÂłĠÂłÂł":9892,"Ġà°ħà°¡à°Ĺà°µ":9893,"Ġà°ħà°ªà°¶à°ķ":9894,"Ġà°§à°®à°¨":9895,"Ġà°§à°¨à°¯":9896,"à°¿...âĢĻâĢĻ":9897,"ÂłÂłÂłÂłÂłÂłÂłÂłÂłÂłÂłÂłÂłÂłÂłÂłÂłÂłÂłÂłÂłÂłÂłÂłÂłÂłÂłÂłÂłÂłÂłÂłÂłÂłÂłÂłÂłÂłÂłÂłÂłÂł":9898,"Ġ189":9899,"Ġ506":9900,"à°ļà°Ĺà°²à°Ĺà°¡":9901,"1080320159":9902,"107112017487":9903,"109042016227":9904,"10409201746":9905,"104052015106":9906,"993":9907,"12703201622":9908,"127102017482":9909,"963":9910,"11309201630":9911,"113022016206":9912,"ÂłÂłÂłĠÂłÂłÂłĠÂłÂłÂłĠÂłĠÂłĠÂłĠÂłĠÂłĠÂłĠÂłĠÂłĠÂłĠÂłĠÂłĠÂłĠÂłĠÂłĠÂłĠÂłĠÂłĠÂłĠÂłĠÂłĠÂłĠÂłĠÂłĠÂłĠÂłĠÂłĠÂłĠÂł":9913,"ÂłÂłÂłĠÂłÂłÂłĠÂłÂłÂłÂłÂłÂłÂłÂłÂłÂłÂłÂłÂłÂłÂłÂłÂłÂłÂłÂłÂłÂłÂłÂłÂłÂłÂłÂłÂłÂłÂłÂłÂłÂłÂłÂłÂłÂł":9914,"ÂłÂłÂłĠÂłÂłÂłĠÂłÂłĠÂłĠÂłĠÂłĠÂłĠÂłĠÂłĠÂłĠÂłĠÂłĠÂłĠÂłĠÂłĠÂłĠÂłĠÂłĠÂłĠÂłĠÂłĠÂłĠÂł":9915,"113112016333":9916,"Ġà°¸à°°à°³à°¤à°°":9917,"Ġà°®à°¦à°¨à°ªà°¡":9918,"ÂłÂłĠÂłÂłĠÂłĠÂłĠÂłĠÂłĠÂłĠÂłĠÂłĠÂłĠÂłĠÂłĠÂłĠÂłĠÂłĠÂłĠÂłĠÂłĠÂłĠÂłĠÂłĠÂł":9919,"ÂłÂłÂłĠÂłÂłÂłÂłÂłÂłÂłÂłÂłÂłÂłÂłÂłÂłÂłÂłÂłÂłÂłÂłÂłÂłÂłÂłÂłÂłÂłÂłÂłÂłÂłÂłÂłÂłÂłÂł":9920,"ard":9921,"https":9922,"106072017435":9923,"ĂĂĂĂ":9924,"10307201512":9925,"115012016196":9926,"556":9927,"532":9928,"612":9929,"810":9930,"ÂłĠÂłĠ":9931,"à°Łà°ªà°¦":9932,"à°¯à°Ľ":9933,"à°¡à°ªà°¡":9934,"à°Ĺà°Ĺà°²":9935,"à±ģ.ă":9936,"à°·à°Ĺà°Ł":9937,"Ġà°Ĩà°¤à°¨":9938,"Ġà°Ĺà°¤à°ķ":9939,"Ġà°īà°ĸ":9940,"à°¥à°¨à°Ĺ":9941,"2001":9942,"à°ĸà°®à°¯":9943,"à°°à°®à°²à°¤":9944,"à°°à°®à°¶à°ķ":9945,"Ġà°¯à°¨à°®":9946,"Ġà°¯à°®à°¦":9947,"à°Łà°°à°°":9948,"Ġà°§à°¡":9949,"à°ªà°°à°ª":9950,"à°ļà°¡à°¨":9951,"Ġà°Ĳà°Ĳà°ª":9952,"Ġà°¨à°µà°¤à°°":9953,"Ġà°¸à°¹à°¦":9954,"Ġ324":9955,"à°¾..âĢĻâĢĻ":9956,"à°°à°ľà°²à°¦":9957,"à°¢à°ķ":9958,"Ġ198":9959,"1994":9960,"à°Ľà°Ł":9961,"ÂłÂłÂłĠÂłÂłÂłĠÂłÂłÂłÂłÂłÂłÂłÂłÂłÂłÂłÂłÂłÂłÂł":9962,"Ġ303":9963,"10704201598":9964,"à°¾........":9965,"1090320159":9966,"1090220158":9967,"à±Ģ):":9968,"1040420159":9969,"12403201622":9970,"1250220158":9971,"052016242":9972,"Ġà°µà°¦à°²à°Ł":9973,"ÂłÂłĠÂłĠÂłÂł":9974,"ÂłÂłÂłĠÂłÂłÂłĠÂłÂłÂłÂłÂłÂłÂłÂłÂłÂłÂłÂłÂłÂłÂłÂłÂłÂłÂłÂłÂłÂłÂłÂłÂłÂłÂłÂłÂłÂłÂłÂłÂłÂłÂłÂłÂłÂłÂł":9975,"115102017477":9976,"Ġà°°à°ļà°¨à°¨":9977,"ÂłÂłĠÂłÂłÂłÂłÂłĠ":9978,"Ġà°İà°Ĺà°°à°¡":9979,"Ġhave":9980,"101052016235":9981,"121032017385":9982,"118102015163":9983,"111032016216":9984,"104042016225":9985,"121022016209":9986,"131102016328":9987,"227":9988,"424":9989,"518":9990,"531":9991,"646":9992,"678":9993,"754":9994,"rom":9995,"à°Ĺà°µà°¸":9996,"à°ļà°ľà°¨":9997,"Ġà°ªà°Ĺà°µ":9998,"Ġà°Ĩà°Ĺà°°":9999,"Ġà°Ĩà°ľà°¨":10000,"à°¶à°°à°µ":10001,"à°£à°Ńà°Ĺà°µ":10002,"Ġà°ľà°¨à°ª":10003,"à°Ńà°¯à°ª":10004,"Ġà°ıà°Ĺ":10005,"à°°à°®à°®à°¨":10006,"à°°à°ķà°Ĺ":10007,"Ġà°¸à°®à°ļ":10008,"Ġà°ķà°²à°Ĺà°ļ":10009,"à°¯à°²à°Ĺ":10010,"Ġà°¸à°°à°Ĺà°¸":10011,"à°²à°¤à°ª":10012,"Ġ245":10013,"à°ĺà°µà°ª":10014,"Ġà°¤à°®à°®":10015,"005":10016,"à°¿!!\"":10017,"Ġà°Ĩà°µà°Ĺ":10018,"à°¡à°µà°²à°ķ":10019,"1980":10020,"Ġ9700":10021,"à°µà°Ĺà°£à°®":10022,"Ġà°¬à°¸à°µà°¤":10023,"ÂłÂłÂłĠÂłÂłÂłĠÂłÂłÂłÂłÂłÂłÂłÂłÂłÂłÂłÂłÂłÂł":10024,"ÂłÂłÂłÂłÂłÂłÂłÂłÂłÂłÂłÂłÂłÂłÂłÂłÂłÂłÂłÂłÂłÂłÂłÂłÂłÂłÂłÂłÂłÂłÂłÂłÂłÂłÂłÂłÂł":10025,"Ġ177":10026,"Ġ178":10027,"Ġà°µà°¡à°¬":10028,"à±į....?\"":10029,"126062015123":10030,"12701201620":10031,"119092015153":10032,"12809201746":10033,"761":10034,"à°°à°®à°£à°²à°¨":10035,"Ġà°µà°£à°ķà°¡":10036,"122052017417":10037,"12202201587":10038,"10205201510":10039,"973":10040,"Ġà°µà°°à°¦à°²à°¤":10041,"685":10042,"ÂłÂłÂłĠÂłÂłÂłĠÂłÂłÂłÂłÂłÂłÂłÂłÂłÂłÂłÂłÂłÂłÂłÂłÂłÂłÂłÂłÂłÂłÂłÂłÂłÂłÂłÂłÂłÂłÂłÂłÂłÂłÂłÂłÂłÂłÂłÂłÂł":10043,"Ġà°°à°£à°Ĺ":10044,"Ġà°°à°¥à°ļà°ķ":10045,"ÂłÂłĠÂłÂłÂłĠÂłÂłÂłĠÂłÂłÂłÂłÂłÂłÂłÂłÂłÂłÂłÂłÂłÂłÂłÂłÂłÂłÂłÂłÂłÂłÂłÂłÂł":10046,"comà°²":10047,"112012015":10048,"Ġà°¦à°¯à°¤à°²à°ļ":10049,"3500":10050,"438":10051,"558":10052,"702":10053,"ID":10054,"og":10055,"Ġ%":10056,"Ġġ":10057,"Ġun":10058,"à°°à°½":10059,"à°¦à°ªà°¡à°¤":10060,"à°¯à°§à°¨":10061,"à°¡à°ªà°¨":10062,"à°µà°£à°®":10063,"à°Ĺà°¬à°²":10064,"à°ļà°¬à°Ł":10065,"à°·à°ªà°¦":10066,"Ġà°Ĩà°ĺ":10067,"à°¬à°µà°°":10068,"ÂłÂłÂłĠÂłĠÂłÂł":10069,"à°¹à°ķà°²":10070,"Ġà°ıà°ķà°²à°µ":10071,"Ġà°Īà°«":10072,"à°¦à°°à°ļ":10073,"à°ĸà°ķà°°":10074,"Ġà°Ĵà°¡à°²":10075,"à°¯à°¨à°µ":10076,"à°°à°®à°²à°ª":10077,"à°«à°®":10078,"à°ªà°¡à°ª":10079,"à°ªà°¡à°Łà°®":10080,"ted":10081,"Ġà°ľà°°à°ªà°Ł":10082,"Ġà°®à°¨à°·":10083,"Ġà°Ĩà°°à°¯":10084,"à°°à°µà°¦":10085,"Ġ247":10086,"à°¨à°¨à°Ĺ":10087,"à°ıà°®à°µ":10088,"à°ĺà°¨à°²à°ķ":10089,"Ġà°İà°²à°®":10090,"Ġ376":10091,"Ġ2021":10092,"1990":10093,"à°ªà°¦à°¤":10094,"à±Ģ.,":10095,"ÂłÂłÂłÂłÂłÂłÂłÂłÂłÂłÂłÂłÂłÂłÂłÂłÂłÂłÂłÂłÂłÂłÂłÂłÂłÂłÂłÂłÂłÂłÂłÂłÂłÂł":10096,"à°ħà°¨à°Ĺà°¨à°Ĺ":10097,"Ġà°Ĺà°®à°¨à°®":10098,"à±ģ)-":10099,"107022016204":10100,"à±ģ.....?":10101,"127062016258":10102,"11909201515":10103,"129052015114":10104,"à°°à°ªà°¡à°¤":10105,"à±ģâĢĻâĢĻ.":10106,"779":10107,"981":10108,"1150320162":10109,"664":10110,"ĠĠĠĠĠĠĠĠĠĠĠ":10111,"Ġà°Ĺà°Ĺà°¨à°®":10112,"ÂłÂłĠÂłÂłÂłĠÂłÂłÂłÂłÂłÂłÂłÂłÂłÂłÂłÂłÂłÂłÂłÂłÂłÂłÂłÂłÂłÂłÂłÂłÂłÂłÂłÂłÂłÂłÂłÂłÂłÂłÂłÂłÂłÂłÂłÂłÂłÂłÂłÂł":10113,"ÂłÂłĠÂłÂłÂłĠÂłÂłÂłÂłÂłÂłÂłÂłÂłÂłÂłÂłÂłÂłÂłÂłÂłÂłÂłÂłÂłÂłÂłÂłÂłÂłÂłÂłÂłÂłÂłÂłÂłÂłÂłÂłÂłÂłÂłÂłÂł":10114,"ÂłÂłÂłĠÂłÂłÂłĠÂłÂłĠÂłĠÂłĠÂłĠÂłĠÂłĠÂłĠÂłĠÂłĠÂłĠÂłĠÂł":10115,"Ġà°ķà°¨à°ķà°®à°¹":10116,"101012017352":10117,"105082015137":10118,"114012017357":10119,"448":10120,"640":10121,"688":10122,"706":10123,"820":10124,"910":10125,"978":10126,"ĠÂłÂłÂłÂł":10127,"à°ķà°®à°°":10128,"à°¦à°¸à°µ":10129,"à°Łà°µà°°à°ķ":10130,"à°µà°µà°¸":10131,"..âĢĻ":10132,"Ġà°ĩà°ķà°²":10133,"Ġà°ıà°Łà°¨":10134,"Ġà°ªà°°à°®à°¯":10135,"à°°à°¨à°Ĺ":10136,"à°¤à°²à°ªà°²":10137,"à°ıà°Ĺ":10138,"à°¤à°ķà°¥":10139,"à°¾?.":10140,"Ġà°·à°¤":10141,"Ġà°Ĳà°Ĳà°Ĳà°Ł":10142,"ÂłÂłÂłÂłÂłÂłÂłÂłÂłÂłÂłÂłÂłÂłÂłÂłÂłÂłÂłÂłÂłÂłÂłÂłÂłÂł":10143,"à°Ĳà°²à°¨":10144,"Ġà°Ĭà°ķ":10145,"à°¿?...\"":10146,"à°µà°ķà°£":10147,"Ġà°ıà°ķà°¶":10148,"à°Łà°ªà°¡à°ķà°ª":10149,"110062015":10150,"10609201630":10151,"126122016350":10152,"119052017415":10153,"Ġ265":10154,"à±ĩ....!":10155,"à°¯à°Łà°¨à°¤":10156,"1240120157":10157,"Ġà°ķà°¦à°²à°¦":10158,"à°Łà°¤à°°à°®":10159,"122082015143":10160,"122072017442":10161,"103112015168":10162,"665":10163,"ÂłÂłÂłĠÂłÂłÂłĠÂłÂłÂłÂłÂłÂłÂłÂłÂłÂłÂłÂłÂłÂłÂłÂłÂłÂłÂłÂłÂłÂłÂłÂłÂłÂłÂłÂłÂłÂłÂłÂłÂłÂłÂłÂłÂłÂłÂłÂł":10164,"à±ĩâĢĻ,":10165,"Ġme":10166,"122092016313":10167,"129022016212":10168,"122052015112":10169,"à°·à°°à°£à°¶":10170,"110062015118":10171,"919":10172,"RE":10173,"Ġĉĉ":10174,"à±į;":10175,"à°¸à°µà°°à°£":10176,"Ġà°ªà°Ĺà°¨":10177,"Ġà°µà°¨à°¦":10178,"Ġà°®à°Ĺà°°":10179,"Ġà°¸à°²à°ªà°¨":10180,"à°ľà°¬à°°":10181,"à°§à°ķà°¨":10182,"Ġà°Ĺà°¤à°°":10183,"à°«à°Ĳ":10184,"à°Ĩà°¸à°°":10185,"à°ªà°²à°Ĺ":10186,"à°¨à°µà°¦à°¨":10187,"Ġà°Ĳà°Ĵà°¸":10188,"à°ªà°ķà°¶":10189,"Ġà°Ĭà°¯à°²":10190,"Ġà°Ĭà°¡à°²":10191,"Ġ380":10192,"à°Łà°®à°§":10193,"Ġ540":10194,"Ġ191":10195,"Ġ1958":10196,"à°Ľà°Ľ":10197,"à°Ĺà°¡à°ªà°²":10198,"à°²à°¬à°¦":10199,"à°¤à°Łà°µ":10200,"à°ļà°Ĺà°²à°¡à°¨":10201,"Ġà°¬à°¯à°Łà°ªà°¡à°¨":10202,"127102016326":10203,"127042015104":10204,"1180220158":10205,"11907201626":10206,"1170320162":10207,"13006201743":10208,"12303201594":10209,"112042015":10210,"Ġà°µà°²à°¸à°²à°¨":10211,"Ġà°ªà°¯à°¨à°®à°¯":10212,"à°Ķà°Łà°°":10213,"Ġà°ķà°²à°Ĺà°µà°ļ":10214,"ÂłÂłĠÂłÂłÂłĠÂłÂłÂłÂłÂłÂłÂłÂłÂłÂłÂłÂłÂłÂłÂłÂłÂłÂłÂłÂłÂłÂłÂłÂłÂłÂłÂłÂłÂłÂłÂłÂłÂłÂłÂłÂłÂłÂłÂłÂł":10215,"ÂłÂłÂłĠÂłÂłÂłĠÂłÂłĠÂłĠÂłĠÂłĠÂłĠÂłĠÂłĠÂłĠÂłĠÂłĠÂłĠÂłĠÂłÂł":10216,"Ġno":10217,"ĠĠĠĠĠĠĠĠĠĠĠĠĠĠĠĠĠĠĠĠĠĠĠĠĠĠĠĠĠĠĠĠĠĠĠĠĠĠĠĠĠĠĠĠĠĠĠĠĠĠĠĠĠĠĠĠĠĠĠĠĠĠĠĠ":10218,"1230420162327":10219,"11201201577":10220,"311":10221,"331":10222,"402":10223,"726":10224,"930":10225,"940":10226,"ain":10227,"à°¿à±Į":10228,"à°¦à°¯à°¤":10229,"à±ĭà°ĥ":10230,"à°¯à°¯à°®":10231,"à°®à°ķà°¨":10232,"à°ļà°ªà°°à°ļ":10233,"Ġà°ħà°³à°Ĺ":10234,"Ġà°®à°¤à°Ĺ":10235,"Ġà°¤à°¡à°ª":10236,"à°·à°ķà°°à°®à°¨":10237,"à°£à°¦à°²":10238,"Ġà°īà°«":10239,"à°µà°°à°²à°ķ":10240,"Ġà°ıà°µà°¨":10241,"à°ĸà°¹":10242,"Ġà°ªà°°à°Ń":10243,"à°ªà°¡à°°":10244,"à°¤à°°à°Ĺ":10245,"Ġà°ħà°¡à°¯":10246,"à°¯à°®à°¦":10247,"à°¦à°²à°¸":10248,"à°¤à°®à°¦":10249,"à°µà°¤à°¸":10250,"à°¨à°°à°¹à°°":10251,"à°°à°¦à°ľà°²":10252,"à°¨à°®à°¦":10253,"à°¾.?":10254,"Ġ403":10255,"Ġà°°à°ķà°®à°¯":10256,"Ġà°¸à°Ńà°°":10257,"Ġ208":10258,"Ġ610":10259,"à°¨à°¤à°¡":10260,"à°Ĺà°³à°¹":10261,"à°¥à°ķà°¶":10262,"à°¾...!\"":10263,"à°µà°°à°£à°¨":10264,"à±į..?":10265,"10802201620":10266,"10908201629":10267,"12603201595":10268,"à°¯à°¤à°²à°ª":10269,"13004201510":10270,"à°Ĥ....?":10271,"10306201511":10272,"122042017402":10273,"979":10274,"Ġà°ħà°¸à°¹à°ľà°®":10275,"102112016329":10276,"à°¯à°ªà°°à°ļà°¡":10277,"ant":10278,"ÂłÂłÂłĠÂłÂłÂłÂłÂłÂłÂłÂłÂłÂłÂłÂłÂłÂłÂłÂłÂłÂłÂłÂłÂłÂłÂłÂłÂłÂłÂłÂłÂłÂłÂłÂłÂłÂłÂłÂłÂłÂłÂłÂł":10279,"à±ģà°ģ.":10280,"ass":10281,"à°¾___":10282,"ÂłÂłÂłĠÂłÂłÂłĠÂłÂłĠÂłĠÂłĠÂłĠÂłĠÂłĠÂłĠÂłĠÂłĠÂłĠÂłÂł":10283,"ÂłÂłÂłĠÂłÂłÂłĠÂłÂłĠÂłĠÂłĠÂłĠÂłĠÂłĠÂłĠÂłĠÂłĠÂłĠÂłĠÂłĠÂłĠÂł":10284,"ÂłÂłÂłĠÂłĠÂłĠÂłĠÂłĠÂłĠÂłĠÂłĠÂłĠÂłĠÂłĠÂłĠÂłĠÂłÂł":10285,"ÂłÂłÂłĠÂłÂłĠÂłĠÂłĠÂłĠÂłĠÂłĠÂłĠÂłÂł":10286,"1201020174":10287,"104052016237":10288,"1260420162336":10289,"012":10290,"618":10291,"722":10292,"870":10293,"à°¨à°Ī":10294,"à°¸à°²à°ª":10295,"à°µà°ªà°Ł":10296,"à°µà°µà°¡":10297,"à°®à°ľà°ķ":10298,"à±ĨâĢĮ":10299,"Ġà°µà°ķà°°":10300,"Ġà°µà°¡à°ķ":10301,"âĢ¦":10302,"Ġà°®à°ª":10303,"à±Ĥ),":10304,"Ġà°¨à°°à°¬à°²":10305,"à±Īà±įâĢĮ":10306,"à°³à°¨à°ª":10307,"Ġà°¬à°ķà°°":10308,"à°£à°®à°Ĺ":10309,"Ġà°İà°®à°¨":10310,"à°°à°®à°°à°ķ":10311,"à±ĩà°Ĥ:":10312,"Ġà°¤à°¨à°¸":10313,"ĠÂłĠÂłĠÂłĠÂłĠÂłĠÂłĠÂłÂł":10314,"à°¸à°°à°ļà°¨":10315,"à°²à°¤à°²à°¨":10316,"à°Łà°¨à°¬":10317,"à°ıà°²à°ķ":10318,"ÂłÂłÂłÂłÂłÂłÂłÂłÂłÂłÂłÂłÂłÂłÂłÂłÂłÂłÂłÂłÂłÂłÂłÂłÂłÂłÂł":10319,"à°¾!....":10320,"Ġ480":10321,"à±ģ!....":10322,"à±ģ??":10323,"Ġ207":10324,"1998":10325,"1970":10326,"1969":10327,"à±ĩ..âĢĻ":10328,"Ġ8800":10329,"Ġ9500":10330,"à°ķà°¤à°¡":10331,"ÂłÂłÂłÂłÂłÂłÂłÂłÂłÂłÂłÂłÂłÂłÂłÂłÂłÂłÂłÂłÂłÂłÂłÂłÂłÂłÂłÂłÂłÂłÂłÂłÂłÂłÂłÂłÂłÂłÂłÂłÂł":10332,"à±ģ:\"":10333,"à°Ĥ!!!":10334,"1040920174":10335,"Ġ282":10336,"Ġà°ľà°®à°ķà°Ł":10337,"124042015":10338,"Ġ295":10339,"771":10340,"1230520174":10341,"à°µà°¶à°¤":10342,"Ġà°ħà°¡à°Ĺà°ķà°ª":10343,"ÂłÂłĠÂłĠ":10344,"683":10345,"689":10346,"à°°à°ªà°°à°ļà°¡":10347,"à±ĭâĢĻ.":10348,"11311201633":10349,"à°Ķà°¸":10350,"à°Ĺà°µà°°à°ª":10351,"Ġ\".......":10352,"115062017426":10353,"starhome":10354,"124042015103":10355,"'s":10356,"321":10357,"416":10358,"439":10359,"656":10360,"712":10361,"828":10362,"912":10363,"pe":10364,"ĉĉÂłčĊ":10365,"ĠâĢį":10366,"à±ģâĢĺâĢĺ":10367,"à°²à°ľà°ķ":10368,"à°¯à°ªà°¤":10369,"à°ªà°µà°Ĺ":10370,"Ġà°µà°Ĺà°²":10371,"Ġà°µà°£à°ķ":10372,"Ġà°¨à°§":10373,"à±ģ.?":10374,"à°ľà°µà°¹à°°":10375,"Ġà°Ĩà°¥à°°":10376,"à±Ī/":10377,"à°£à°¨à°²":10378,"Ġà°ıà°¯à°¨":10379,"Ġà°ıà°ķà°¸":10380,"Ġà°ªà°°à°ªà°°":10381,"à°°à°¤à°µ":10382,"à°®à°¨à°ļ":10383,"Ġà°ľà°°à°ªà°Ĺ":10384,"à°¦à°²à°µà°¨":10385,"à°¤à°®à°¸":10386,"Ġà°ķà°³à°²à°¨":10387,"Ġà°ķà°³à°²à°ķ":10388,"à°¾?\"\"":10389,"Ġà°īà°ªà°¸à°Ń":10390,"à°Īà°¤":10391,"à°Īà°¬":10392,"à°Īà°İà°«":10393,"à°¿?!\"":10394,"à°¾..\"":10395,"à°¢à°¸":10396,"à°¶à°ķà°§":10397,"à°Ĺà°³à°ķ":10398,"à±ĩ..:":10399,"à°²à°¬à°¡à°ķ":10400,"Ġ1289":10401,"à°µà°¦à°²à°¨":10402,"à±įâĢĮ)..":10403,"Ġà°Ĳà°¦à°¡":10404,"ÂłÂłÂłÂłÂłÂłÂłÂłÂłÂłÂłÂłÂłÂłÂłÂłÂłÂłÂłÂłÂłÂłÂłÂłÂłÂłÂłÂłÂłÂłÂłÂłÂłÂłÂłÂłÂłÂłÂłÂłÂłÂłÂłÂłÂłÂł":10405,"Ġ179":10406,"à±įâĢĮ..:":10407,"Ġà°ľà°°à°Ĺà°µà°¨":10408,"1100220158":10409,"1060320159":10410,"127122015188":10411,"127092017469":10412,"119052017416":10413,"1300820174":10414,"120052016243":10415,"--\"":10416,"Ġà°ķà°¨à°ªà°¡à°ķà°ª":10417,"ÂłÂłÂłĠÂłÂłÂłĠÂłÂłÂłĠÂłĠÂłĠÂłĠÂłĠÂłĠÂłĠÂłĠÂłĠÂłĠÂłĠÂłĠÂłĠÂłĠÂłĠÂłĠÂłĠÂłĠÂłĠÂłĠÂłĠÂłĠÂłĠÂłĠÂł":10418,"à°¾..?âĢĻ":10419,"Ġà°®à°¡à°¤à°ª":10420,"à°¾à°Ĥ.....\"":10421,"032016223":10422,"Ġà°ļà°®à°¸à°®":10423,"à°µà°Ĺà°²à°¡":10424,"ÂłÂłÂłĠÂłÂłĠÂłĠÂłĠÂłĠÂłĠÂłĠÂłĠÂłĠÂłĠÂłĠÂłĠÂłĠÂłĠÂłĠÂłÂł":10425,"à°®à°¦à°¨à°ªà°²":10426,"Ġex":10427,"ake":10428,"124122017511":10429,"111052016239":10430,"106042017394":10431,"119102016324":10432,")(":10433,"433":10434,"4000":10435,"548":10436,"626":10437,"708":10438,"806":10439,"826":10440,"922":10441,"Ġj":10442,"à°Ĥ`":10443,"à°²à°µà°¤":10444,"à°ªà°¤à°°":10445,"à°ªà°¤à°®":10446,"à°µà°Ĺà°°":10447,"à°®à°µà°ļ":10448,"à°®à°«à°²":10449,"à±Ģà°Ĥ.":10450,"Ġà°ļà°®à°°":10451,"à°·à°°à°¹":10452,"à°¬à°²à°¨":10453,"à°¥à°¦":10454,"à°²à°ķà°¶":10455,"Ġà°Ńà°ľà°Ĺ":10456,"à°ĸà°²à°µ":10457,"à°«à°Ĩà°°":10458,"à°®à°¨à°Ľ":10459,"Ġà°«à°¸à°²":10460,"à°¯à°ķà°·":10461,"à°¯à°ķà°£":10462,"à°ħà°µà°¤":10463,"à°Ĩà°Łà°²":10464,"Ġà°ĵà°°à°²":10465,"à°¯à°µà°¯à°¸":10466,"Ġà°ĸà°Ł":10467,"à°ķà°Łà°ªà°¤":10468,"à°ļà°²à°®à°¯":10469,"à°®à°ķà°®à°¨":10470,"Ġà°Ĩà°¶à°ļ":10471,"Ġ375":10472,"à°¯à°¸à°¹à°ķ":10473,"Ġ425":10474,"à°°à°Ĺà°¡à°¨":10475,"Ġ6000":10476,"1991":10477,"à°ķà°°à°£à°Ĺ":10478,"1700":10479,"à°ĵà°µ":10480,"à°§à°ķà°¶à°ķ":10481,"107102016319":10482,"110082017449":10483,"Ġ2400":10484,"Ġà°®à°Ĺà°¤à°²":10485,"à±į........":10486,"127062016259":10487,"103082017446":10488,"10305201510":10489,"Ġà°ķà°¨à°ªà°¡à°Ĺ":10490,"102072017434":10491,"112015175":10492,"681":10493,"122112015175":10494,"124032017386":10495,"====":10496,"114082016297":10497,"1250420162334":10498,"130082017458":10499,"536":10500,"608":10501,"648":10502,"654":10503,"736":10504,"752":10505,"are":10506,"me":10507,"watch":10508,"à°²à°°à°¸":10509,"à°ķà°¥à°ķ":10510,"à°¤à°¸à°®":10511,"à±ĭ;":10512,"à°¸à°¹à°¨":10513,"à°ļà°¤à°Ĺ":10514,"à±įâĢĮà±į":10515,"Ġà°¤à°¡à°ķ":10516,"à°¿.''":10517,"Ġà°°à°¸à°Ĺ":10518,"Ġà°¬à°¯à°ªà°¡":10519,"à°¾à°Ĥ(":10520,"Ġà°¶à°łà°Ĺ":10521,"ÂłÂłÂłĠÂłÂłÂłÂłÂłÂłÂłÂłÂłÂłÂłÂłÂłÂłÂłÂłÂłÂłÂłÂłÂłÂłÂłÂłÂłÂłÂłÂłÂłÂłÂłÂłÂłÂłÂłÂłÂłÂłÂłÂłÂłÂłÂłÂłÂłÂłÂłÂłÂłÂłÂłÂłÂłÂłÂłÂłÂłÂłÂłÂłÂłÂłÂłÂłÂłÂłÂłÂłÂłÂłÂłÂłÂłÂłÂłÂłÂłÂłÂłÂł":10522,"à°¯à°¨à°¤":10523,"Ġà°¯à°¨à°¬à°¡":10524,"à°ħà°¥":10525,"à°ħà°Ĺà°°":10526,"à°ħà°¦à°°à°Ĺ":10527,"Ġà°®à°°à°¦à°³":10528,"Ġà°ĵà°²à°²":10529,"Ġà°ĵà°ªà°ķ":10530,"Ġà°ħà°®à°²à°ķ":10531,"ĠÂłĠÂłĠÂłĠÂłĠÂłĠÂłÂł":10532,"à°ķà°²à°ªà°²":10533,"à°¯à°®à°µà°¡":10534,"à°°à°µà°ªà°°":10535,"à°¤à°²à°ļ":10536,"Ġ213":10537,"à±Ģà°ĤâĢĻ":10538,"à°¾!âĢĻâĢĻ":10539,"à°¦à°Łà°®":10540,"Ġà°ķà°¦à°ªà°¡":10541,"à°ªà°¨à°Ĺ":10542,"à±ģ?!":10543,"Ġà°¡à°¬à°²":10544,"à°µà°Łà°Ĺ":10545,"Ġ8700":10546,"à°ķà°°à°£à°¶":10547,"à°ªà°¦à°®à°µ":10548,"à°§à°µà°¦":10549,"à°§à°µà°ªà°¨":10550,"1400":10551,"ÂłÂłÂłÂłÂłÂłÂłÂłÂłÂłÂłÂłÂłÂłÂłÂłÂłÂłÂłÂłÂłÂłÂłÂłÂłÂłÂłÂłÂłÂłÂłÂłÂłÂłÂłÂłÂłÂłÂłÂłÂłÂłÂłÂłÂł":10552,"à°µà°°à°£à°µ":10553,"12609201515":10554,"11910201747":10555,"à±ĩ........":10556,"Ġ....?\"":10557,"à°¾:\"":10558,"883":10559,"12302201620":10560,"Ġà°Ĺà°ľà°²à°ķ":10561,"à°¦à°ªà°¡à°Ł":10562,"112022017369":10563,"ĠĠĠĠĠĠĠĠĠĠ":10564,"à°¨à°ªà°¡à°¡":10565,"à°¯à°Ńà°Ĺà°µ":10566,"115102017476":10567,"Ġà°ļà°¦à°µà°Ĺà°²":10568,"Ġà°®à°²à°¯à°ª":10569,"Ġwill":10570,"ound":10571,"Ġman":10572,"ich":10573,"ÂłÂłÂłĠÂłÂłÂłĠÂłÂłĠÂłĠÂłĠÂłĠÂłĠÂłĠÂłĠÂłĠÂłĠÂłĠÂł":10574,"118112017493":10575,"104062016249":10576,"125012016199":10577,"101062015115":10578,"625":10579,"698":10580,"812":10581,"804":10582,"AR":10583,"à°ķà°¨à°µ":10584,"à±ĭ......\"":10585,"à°ªà°¶à°ķ":10586,"à°®à°¡à°ķ":10587,"à°Ĺà°Ńà°°":10588,"à°ļà°°à°£à°²":10589,"Ġà°ķà°§à°ķ":10590,"à±Ĥ;":10591,"Ġà°¨à°¯à°µ":10592,"Ġà°°à°ĸ":10593,"à°¬à°¸à°®":10594,"Ġà°ľà°®à°ķ":10595,"Ġà°īà°¡à°¤":10596,"Ġà°²à°®":10597,"à°¤à°¨à°²à°¨":10598,"à°ħà°°à°µà°ķ":10599,"à°Ĩà°·":10600,"Ġà°ķà°²à°ªà°Ł":10601,"Ġà°®à°¨à°Ĺà°²":10602,"à°Ĺà°°à°°":10603,"à°ķà°²à°¸":10604,"à°¨à°¨à°ķ":10605,"à°ľà°¨à°¶":10606,"à°¾?....\"":10607,"à°ļà°°à°Ĺà°£":10608,"Ġà°Ĳà°Ĳà°¸":10609,"Ġà°İà°µà°°à°®":10610,"ÂłÂłÂłÂłÂłÂłÂłÂłÂłÂłÂłÂłÂłÂłÂłÂłÂłÂłÂłÂłÂłÂłÂłÂłÂłÂłÂłÂłÂł":10611,"Ġà°¸à°¹à°ª":10612,"Ġ325":10613,"Ġà°µà°²à°µà°²":10614,"à°¹à°¨à°ļ":10615,"Ġà°ķà°¦à°¯":10616,"Ġ209":10617,"Ġ512":10618,"Ġ197":10619,"Ġ1939":10620,"à°®à°¹à°®":10621,"Ġ999":10622,"à°²à°¬à°¡à°¦":10623,"ÂłÂłÂłĠÂłÂłÂłĠÂłÂłÂłÂłÂłÂłÂłÂłÂłÂłÂłÂł":10624,"10909201630":10625,"119072016268":10626,"128042015104":10627,"12006201625":10628,"881":10629,"12304201510":10630,"11306201625":10631,"11509201515":10632,"11211201517":10633,"112022016206":10634,"Ġà°¸à°µà°°à°¦":10635,"Ġà°¬à°¯à°³":10636,"795":10637,"à±ĩâĢĻ.":10638,"Ġà°°à°ļà°¨à°²à°ķ":10639,"à°¤à°¶à°¤":10640,"ÂłÂłÂłĠÂłÂłÂłÂłÂłÂłÂłÂłÂłÂłÂłÂłÂłÂłÂłÂłÂłÂłÂłÂłÂłÂłÂłÂłÂłÂłÂłÂłÂłÂłÂłÂłÂłÂłÂłÂłÂłÂłÂłÂłÂł":10641,"ÂłÂłÂłĠÂłÂłÂłĠÂłÂłĠÂłĠÂłĠÂłĠÂłĠÂłĠÂłĠÂłĠÂłĠÂłĠÂłĠÂłĠÂłĠÂłĠÂłĠÂł":10642,"Ġà°ĭà°£à°ªà°¡":10643,"Ġà°½à°§":10644,"113072016265":10645,"112092017463":10646,"108122016343":10647,"124022016210":10648,"125052015113":10649,"313":10650,"414":10651,"606":10652,"602":10653,"616":10654,"632":10655,"716":10656,"756":10657,"758":10658,"844":10659,"852":10660,"890":10661,"901":10662,"LE":10663,"na":10664,"oc":10665,"sund":10666,"Ġte":10667,"Ġti":10668,"ĠâĢĮ:":10669,"à°¦à°¯à°¨":10670,"à°¯à°°à°¸":10671,"à°ªà°¤à°¨à°®":10672,"à°®à°°à°®":10673,"à°Ĺà°ķà°®":10674,"à°ļà°Ĩà°°":10675,"Ġà°ªà°Ĺà°³":10676,"Ġà°ħà°³":10677,"Ġà°¸à°«à°°":10678,"à±Īà±į":10679,"à°¶à°ªà°°à°ļ":10680,"à°¶à°ķà°°à°¤":10681,"à°£à°£":10682,"à°¹à°¸à°µ":10683,"Ġà°İà°±":10684,"ĠÂłĠčĊ":10685,"Ġà°¡à°¡":10686,"à°°à°¤à°¸":10687,"à°«à°ª":10688,"Ġà°¯à°®à°Ĺ":10689,"à°®à°¨à°µà°¡":10690,"à°®à°¨à°Ĺà°°":10691,"à°ħà°°à°ļ":10692,"à°ªà°¡à°¦à°¨":10693,"Ġà°Ĩà°®à°¡à°¦":10694,"à°¤à°°à°£à°¨":10695,"à°¤à°²à°¸":10696,"Ġ227":10697,"Ġ221":10698,"Ġà°ªà°¡à°Ĺà°µ":10699,"à°¤à°®à°²":10700,"à°¤à°®à°µà°¡":10701,"à°ıà°İà°²":10702,"à°¤à°ķà°¦":10703,"à°ĺà°ľ":10704,"à±Ģà°Ĥ..":10705,"à°µà°¹à°Ł":10706,"à°°à°¹à°ª":10707,"Ġà°¨à°¡à°¯":10708,"à°ªà°¨à°¯":10709,"Ġà°¨à°Łà°µ":10710,"Ġ1936":10711,"Ġ1941":10712,"à°¦à°®à°Ĺ":10713,"ÂłÂłÂłÂłÂłÂłÂłÂłÂłÂłÂłÂłÂłÂłÂłÂłÂłÂłÂłÂłÂłÂłÂłÂłÂłÂłÂłÂłÂłÂłÂłÂłÂłÂłÂłÂłÂłÂłÂłÂłÂłÂłÂł":10714,"Ġà°ĺà°Łà°¨à°²à°¤":10715,"à±ģ.........":10716,"Ġà°ħà°µà°Ĺà°¤à°®à°µ":10717,"à±Ģ\".":10718,"Ġà°¸à°¹à°ľà°®à°¨":10719,"113092016308":10720,"à°«à°²à°®à°µà°¡":10721,"Ġà°ħà°¡à°Ĺà°®à°¨":10722,"669":10723,"à°®à°°à°£à°¤":10724,"Ġà°ľà°²à°®à°Ł":10725,"à°ķà°µà°°à°ª":10726,"032016222":10727,"ÂłÂłÂłĠÂłÂłÂłĠÂłÂłĠÂłĠÂłĠÂłĠÂłĠÂłĠÂłĠÂłĠÂłĠÂłÂł":10728,"ÂłÂłÂłĠÂłÂłÂłĠÂłÂłĠÂłĠÂłĠÂłĠÂłĠÂłĠÂłĠÂłĠÂłĠÂłĠÂłĠÂłĠÂłĠÂłĠÂłÂł":10729,"à°Łà°µà°°à°¸à°ķ":10730,"1310120158":10731,"Ġà°«à°¡à°£à°µ":10732,"1260420162338":10733,"115052017412":10734,"114092017464":10735,"110012016194":10736,"115022016207":10737,"!!\"":10738,"412":10739,"604":10740,"644":10741,"686":10742,"724":10743,"728":10744,"738":10745,"836":10746,"874":10747,"942":10748,"man":10749,"rends":10750,"à°ķà°¦à°®":10751,"à°¦à°Łà°¨":10752,"ÂłĠÂłĠÂłĠÂłĠÂłĠÂłĠÂłĠÂłĠÂłĠÂłĠÂłĠÂłĠÂłĠÂłĠÂłĠÂłĠÂłĠÂłĠÂłĠÂłĠÂł":10753,"à°Łà°ªà°Łà°²":10754,"à°¡à°Ĺà°°":10755,"à°¸à°²à°µ":10756,"à°Ĺà°¹":10757,"Ġà°ķà°¦à°¨":10758,"Ġà°¨à°«":10759,"à°·à°®à°Ĺ":10760,"Ġà°Ĩà°Ĺà°¤":10761,"Ġà°ħà°¨à°µ":10762,"à°Ńà°£à°¤":10763,"à°²à°¨à°ªà°¡":10764,"à°²à°ķà°¸":10765,"Ġà°ıà°Ĳà°İà°¸":10766,"à°ķà°°à°µ":10767,"ÂłÂłĠÂłÂłĠÂł":10768,"à°¯à°ķà°¤à°ª":10769,"Ġà°Ĵà°ķà°¬":10770,"Ġà°Ĵà°ķà°£":10771,"à°ħà°²à°¨":10772,"à°ħà°°à°Ł":10773,"1111120174":10774,"Ġ211":10775,"Ġ226":10776,"Ġ257":10777,"à°ĩà°¯à°°":10778,"Ġà°¨à°µà°Ĺ":10779,"à°Īà°®à°§":10780,"Ġ341":10781,"à°¨à°¸à°Ń":10782,"Ġà°Ńà°¯à°¬":10783,"Ġà°Ĺà°¡à°ªà°¨":10784,"1972":10785,"à°Ĺà°³à°®":10786,"Ġ8200":10787,"Ġ7900":10788,"Ġ9800":10789,"à°µà°Ĺà°£":10790,"à°¾...âĢĻ":10791,"à°ķà°¦à°³":10792,"110072015127":10793,"Ġà°¬à°¯à°Łà°ªà°¡à°µà°ļ":10794,"Ġà°Ķà°ª":10795,"Ġà°®à°®à°¤à°ķ":10796,"117112016335":10797,"124112016338":10798,"à°°à°ªà°¡à°¨":10799,"887":10800,"781":10801,"à°Ĩà°¯à°¨à°¤":10802,"1150620162":10803,"11508201629":10804,"à±ĩ?'":10805,"Ġà°¸à°°à°¸à°®":10806,"663":10807,"à°¨à°ªà°¡à°²":10808,"à°¯à°ªà°°à°ªà°¤":10809,"Ġà°ķà°²à°µà°®à°¨":10810,"891":10811,"ÂłÂłÂłÂłÂłÂłÂłÂłÂłÂłÂłÂłÂłÂłÂłÂłÂłÂłÂłÂłÂłÂłÂłÂłÂłÂłÂłÂłÂłÂłÂłÂłÂłÂłÂłÂłÂłÂłÂłÂłÂłÂłÂłÂłÂłÂłÂłÂłÂłÂłÂłÂłÂłÂłÂłÂłÂłÂłÂłÂłÂłÂł":10812,"à°ªà°¨à°²à°µ":10813,"Ġà°°à°¥à°ª":10814,"ish":10815,"ort":10816,"à°¾__\"":10817,"ÂłÂłÂłĠÂłĠÂłĠÂłĠÂłĠÂłĠÂłĠÂłĠÂłĠÂłĠÂłĠÂłÂł":10818,"very":10819,"1010520162356":10820,"102022017364":10821,"Ġà°Ĩà°Ńà°°à°£à°®":10822,"111072017437":10823,"101112016328":10824,"112012017356":10825,"116022016207":10826,"123062015122":10827,"126022016211":10828,"217":10829,"634":10830,"638":10831,"658":10832,"642":10833,"748":10834,"742":10835,"986":10836,"ear":10837,"Ġr":10838,"à°¿à°¿":10839,"à°¨à°ķà°°à°®":10840,"à°°à°¡à°ķ":10841,"à°¤à°µà°¤":10842,"à°¦à°¯à°¸":10843,"à°ªà°°à°¤":10844,"à°¸à°¦à°¨":10845,"à°¸à°ĸ":10846,"à°ļà°Łà°¨":10847,"Ġà°ķà°¡à°ķ":10848,"Ġà°İà°¦à°¨":10849,"Ġà°ľà°Ĺà°¡":10850,"Ġà°¹à°¯à°¤à°¨à°Ĺà°°":10851,"à±ģ,.":10852,"Ġà°¯à°µà°¨":10853,"Ġà°«à°ľ":10854,"Ġà°¸à°®à°Ń":10855,"Ġà°ķà°²à°ªà°¨":10856,"à°ķà°¡à°¦":10857,"à°²à°²à°¦":10858,"Ġ258":10859,"Ġà°ĩà°¦à°®":10860,"à°·à°¯à°ª":10861,"à°¤à°ķà°¸":10862,"Ġà°¤à°®à°µà°¦":10863,"à°¨à°ķà°¸":10864,"à°Ĳà°²à°¯":10865,"Ġà°¨à°¡à°µà°ķ":10866,"Ġ:--":10867,"à°¿??":10868,"à±ģ?..":10869,"Ġà°¬à°²à°ªà°°à°ļ":10870,"1900":10871,"Ġà°ľà°²à°µà°°":10872,"Ġà°¬à°¯à°Łà°ªà°¡à°¦":10873,"11808201745":10874,"117042017399":10875,"Ġ__________":10876,"à±Ĥ?...":10877,"à°ķà°¶à°¤":10878,"à°¡à°Ĺà°²à°®":10879,"à°°à°¥à°®à°¸":10880,"ther":10881,"à°¡à°ļà°ķà°Ł":10882,"ĠÂłĠÂłĠÂłĠÂłÂłĠÂłÂłÂł":10883,"ÂłÂłĠÂłÂłÂłĠÂłÂłÂłÂłÂłÂłÂłÂłÂłÂłÂłÂłÂłÂłÂłÂłÂłÂłÂłÂłÂłÂłÂłÂłÂłÂłÂłÂłÂłÂłÂłÂłÂłÂłÂłÂłÂłÂłÂłÂłÂłÂłÂł":10884,"ÂłÂłÂłĠÂłÂłĠÂłĠÂłĠÂłĠÂłĠÂłĠÂłĠÂłĠÂłĠÂłĠÂłĠÂłĠÂłĠÂłĠÂłĠÂłĠÂłĠÂłĠÂłÂł":10885,"à°ĩà°°à°µà°¯":10886,"ĠÂłÂłĠÂłĠÂłĠÂłĠÂłĠÂłĠÂłĠÂłĠÂłĠÂł":10887,"110122015182":10888,"105012016192":10889,"124012016199":10890,"315":10891,"435":10892,"537":10893,"734":10894,"802":10895,"856":10896,"832":10897,"976":10898,"hi":10899,"à°ķà°¬à°°":10900,"à°¦à°¬à°¡":10901,"ÂłĠÂł":10902,"à±ĩ___":10903,"à°µà°§à°¨":10904,"à°ļà°°à°ª":10905,"à°ļà°Ĺà°¤":10906,"Ġà°ªà°¦à°°":10907,"à°·à°¯à°²":10908,"à°³à°Ĺà°²à°¨":10909,"à±Ĭ,":10910,"Ġà°¬à°¨à°Ĺ":10911,"Ġà°¬à°«à°°":10912,"Ġà°Ĺà°ľà°®":10913,"à°£à°ªà°°":10914,"Ġà°²à°¹à°°":10915,"à°²à°ķà°µ":10916,"à°İà°ķà°¨":10917,"à°®à°¨à°ªà°²":10918,"à°ħà°ĺ":10919,"à°ħà°¨à°Ĺ":10920,"à°ªà°Łà°ķ":10921,"à°°à°Ńà°²":10922,"à°¯à°®à°§à°°":10923,"Ġà°ªà°¨à°¸":10924,"Ġ246":10925,"Ġ(\"":10926,"à°ĺà°ª":10927,"003":10928,"à°¨à°¸à°¨":10929,"à±ģ!!\"":10930,"Ġà°Ĩà°¡à°¬à°¡":10931,"à°ľà°ķà°¤":10932,"à°¿..:":10933,"à°¡à°µà°ª":10934,"Ġ7800":10935,"à°ķà°¸à°¦":10936,"à°®à°£à°ļ":10937,"ÂłÂłÂłĠÂłÂłÂłĠÂłÂłÂłĠÂłÂłÂłÂłÂłÂłÂłÂłÂłÂłÂłÂłÂłÂłÂłÂłÂłÂłÂłÂłÂłÂłÂłÂłÂłÂłÂłÂłÂłÂłÂłÂłÂłÂłÂłÂłÂłÂłÂłÂłÂłÂłÂłÂłÂłÂłÂłÂł":10938,"Ġà°ķà°¥à°²à°²":10939,"Ġà°ıà°ķà°µ":10940,"Ġà°Ńà°µà°¨à°®":10941,"à°Łà°ªà°¡à°µà°²à°¸":10942,"Ġ281":10943,"1260120158":10944,"126112015177":10945,"12802201588":10946,"129112015177":10947,"à°Ĺà°ªà°°à°®":10948,"à±ĩ--":10949,"Ġà°¸à°¹à°ľà°µà°¨à°°":10950,"1230220162":10951,"10303201589":10952,"11210201632":10953,"11202201736":10954,"à°Ĥ'.":10955,"Ġà°¨à°µà°²à°²à°¨":10956,"Ġà°¨à°°à°ķà°¡":10957,"ÂłÂłĠÂłÂłÂłĠÂłÂłÂłĠÂłÂłÂłĠÂłÂłÂłÂłÂłÂłÂłÂłÂłÂłÂłÂłÂłÂłÂłÂłÂłÂłÂłÂłÂłÂłÂłÂłÂłÂłÂłÂłÂłÂłÂłÂłÂłÂłÂłÂłÂłÂłÂłÂłÂłÂłÂłÂłÂłÂłÂłÂł":10958,"ÂłÂłÂłĠÂłĠÂłĠÂłĠÂłĠÂłĠÂłĠÂłĠÂłĠÂłĠÂłĠÂłĠÂłĠÂłĠÂł":10959,"104082015136":10960,"111062016252":10961,"103032016213":10962,"à±Ĩà±ģà±ĸ":10963,"113012016195":10964,"114032016217":10965,"125102015165":10966,"Ġà°¨à°²à°¤à°Ĺ":10967,"411":10968,"407":10969,"694":10970,"714":10971,"732":10972,"808":10973,"892":10974,"926":10975,"ĠÂłÂłĠÂłÂłÂł":10976,"à°¿âĢĺâĢĺ":10977,"à°¨à°°à°µ":10978,"à°¨à°ªà°¡à°¤":10979,"à°®à°µà°¤":10980,"à°Ĺà°¨à°°":10981,"à°Ĺà°¡à°¡":10982,"à±Ĩ(":10983,"Ġà°®à°¦à°®":10984,"à°¬à°µà°¤":10985,"à°¶à°²à°®":10986,"à°§à°¶à°¤":10987,"à°µà°°à°µ":10988,"Ġà°ıà°Ńà°¯":10989,"Ġà°Īà°®à°¨":10990,"Ġà°¹à°ľà°°":10991,"à°¤à°¨à°ªà°²":10992,"Ġà°Ĵà°ķà°ªà°¨":10993,"Ġà°ħà°µà°Ĺà°¤":10994,"à°·à°¨à°¤":10995,"ÂłÂłÂłÂłÂłÂłÂłÂłĠčĊ":10996,"à°Ĺà°°à°¹":10997,"à°°à°£à°®à°Ł":10998,"à°°à°¨à°ķ":10999,"Ġà°ħà°²à°¯":11000,"à°°à°µà°µ":11001,"Ġ219":11002,"Ġà°§à°¨à°²":11003,"à°ıà°²à°¨":11004,"à°ıà°Īà°²":11005,"à°ĺà°¶":11006,"Ġà°Ĳà°ĵà°İà°¸":11007,"à°²à°µà°ª":11008,"009":11009,"Ġ356":11010,"à±ģ?....":11011,"Ġ720":11012,"à°Ľà°¨à°®":11013,"Ġà°ħà°¸à°²à°¤à°¨":11014,"à°¶à°¨à°²à°ķ":11015,"à°ĥ'":11016,"Ġà°¬à°¯à°Łà°ªà°¡à°Ĺà°²":11017,"à°¤à°¡à°¬à°¡":11018,"11606201625":11019,"à°ªà°£à°¤":11020,"11801201619":11021,"11909201746":11022,"à°¿âĢĻâĢĻ.":11023,"112016336":11024,"Ġà°Ĺà°ľà°Ĺà°ľà°²":11025,"102082015136":11026,"10203201589":11027,"à°¨à°¬à°Ĺà°¤":11028,"Ġà°ħà°¡à°Ĺà°µà°¦":11029,"à°£à°ªà°°à°®":11030,"687":11031,"12211201517":11032,"ÂłÂłĠÂłÂłĠÂłĠÂłĠÂłĠÂłĠÂłĠÂłĠÂłĠÂłĠÂłĠÂłĠÂłĠÂłĠÂłĠÂłĠÂłĠÂłĠÂłĠÂłĠÂłĠÂłĠÂłĠÂłĠÂłĠÂł":11033,"Ġso":11034,"ÂłÂłĠÂłÂłÂłĠÂłÂłÂłÂłÂłÂłÂłÂłÂłÂłÂłÂłÂłÂłÂłÂłÂłÂłÂłÂłÂłÂłÂłÂłÂłÂłÂłÂłÂłÂłÂłÂłÂłÂłÂłÂłÂłÂłÂłÂłÂłÂł":11035,"ÂłÂłÂłĠÂłÂłÂłĠÂłÂłĠÂłĠÂłĠÂłĠÂłĠÂłĠÂłĠÂłĠÂłĠÂłĠÂłĠÂłĠÂłĠÂłÂł":11036,"104052016236":11037,"Ġà°ıà°ķà°ªà°¤":11038,"102032017376":11039,"artrends":11040,"111052017410":11041,"118122016347":11042,"127012017362":11043,"12101201579":11044,"sundartrends":11045,"115062016254":11046,"!....":11047,"323":11048,"423":11049,"818":11050,"822":11051,"898":11052,"AL":11053,"à°²à°ľà°¨":11054,"à°²à°ľà°²":11055,"à°ķà°¨à°¨":11056,"à°¤à°Łà°¨":11057,"à°®à°·à°®":11058,"Ġà°®à°Ĺà°¸":11059,"Ġà°°à°²":11060,"à°³à°«":11061,"à°¶à°µà°®":11062,"Ġà°¦à°¯à°Ĺ":11063,"à°¹à°¯à°¤":11064,"à°¹à°¸à°¨":11065,"à°¹à°£à°ķ":11066,"Ġà°İà°İà°¨":11067,"Ġà°ľà°®à°¯":11068,"à±Ĩà°Ĥ?\"":11069,"à°°à°¤à°ķà°¡à°®":11070,"Ġà°¸à°®à°¦":11071,"à°¤à°¨à°Ĺ":11072,"à°¤à°¨à°¡à°ķ":11073,"à°Łà°°à°²":11074,"à°¨à°Łà°¨":11075,"Ġà°ķà°²à°¬à°¡":11076,"Ġà°ķà°²à°¯à°ļ":11077,"Ġà°ĵà°·à°¨":11078,"Ġà°ħà°°à°µà°²":11079,"à°¤à°²à°ªà°Ł":11080,"Ġ239":11081,"Ġ238":11082,"Ġ2100":11083,"1210320159":11084,"à°µà°¨à°²à°¨":11085,"à°µà°¤à°²à°²":11086,"à°ªà°°à°ļà°¨":11087,"à°łà°ķà°®":11088,"à°²à°µà°µ":11089,"007":11090,"à°¿?....":11091,"à°¸à°²à°¦":11092,"Ġ206":11093,"à°°à°Ĺà°¡à°ķ":11094,"Ġ1937":11095,"Ġ1932":11096,"1956":11097,"à°Ĵà°ķà°®":11098,"Ġà°ķà°¡à°ªà°ľ":11099,"Ġ307":11100,"à°ħà°²à°¹":11101,"à±Ĥ..!":11102,"Ġà°®à°®à°¤à°¨":11103,"117112016334":11104,"12904201623":11105,"à°Ĭà°¹à°²":11106,"124052016245":11107,"Ġà°¨à°°à°¸à°¯":11108,"1050320158":11109,"à±įâĢĮ!!":11110,"Ġà°ľà°°à°Ĺà°¡à°®":11111,"à±ĩà°Ĥ?'":11112,"Ġ369":11113,"12310201516":11114,"ÂłÂłÂłĠÂłĠčĊ":11115,"Ġthis":11116,"ary":11117,"est":11118,"Ġwas":11119,"Ġne":11120,"abntelugutv":11121,"1210420162319":11122,"121062017429":11123,"130052017420":11124,"131052017420":11125,"116092016309":11126,"113012017357":11127,"121032016220":11128,"130012017363":11129,"12104201510":11130,"11102201584":11131,"11104201599":11132,"329":11133,"421":11134,"445":11135,"447":11136,"431":11137,"635":11138,"636":11139,"622":11140,"699":11141,"749":11142,"834":11143,"848":11144,"842":11145,"896":11146,"IS":11147,"TE":11148,"age":11149,"ll":11150,"nt":11151,"Ġĉ":11152,"à°¨à°°à°®":11153,"à°Ĥà°ĥ":11154,"à°²à°Ńà°°":11155,"à°ķà°³à°¤":11156,"à°ķà°¶à°°":11157,"à°¦à°ªà°¦":11158,"à°¯à°¤à°°":11159,"à°¯à°ļà°°":11160,"à°¯à°¯à°®à°µ":11161,"à°®à°°à°µ":11162,"à±Ģ+":11163,"à±Ģà°ĥ":11164,"à°ļà°®à°¯":11165,"Ġà°®à°²à°®":11166,"Ġà°¸à°ľà°²":11167,"Ġà°¨à°¯à°®à°¨":11168,"à°¶à°¨à°ª":11169,"à°§à°¨à°µ":11170,"à°¹à°«":11171,"Ġà°ľà°¡à°µ":11172,"à°µà°°à°ªà°°":11173,"à°²à°ķà°¡à°²":11174,"Ġà°¯à°®à°²":11175,"à°ħà°°à°£":11176,"à°°à°¸à°²":11177,"ĠÂłĠÂłĠÂłĠÂłĠÂłĠÂłĠÂłĠ":11178,"Ġà°ķà°¨à°²":11179,"à°°à°£à°§":11180,"Ġà°Ĩà°¯à°¨à°ļ":11181,"Ġ212":11182,"Ġ237":11183,"Ġ255":11184,"à°ªà°°à°ļà°²":11185,"à°ıà°¦à°¨":11186,"Ġà°·à°ķà°²à°ķ":11187,"à°¨à°µà°ķ":11188,"à±į.'":11189,"ÂłÂłÂłÂłÂłÂłÂłÂłÂłÂłÂłÂłÂłÂłÂłÂłÂłÂłÂłÂłÂłÂłÂłÂłÂł":11190,"à°¯à°¤à°²à°¤":11191,"à°¡à°Ĺà°¡à°¤":11192,"à°¿)-":11193,"Ġ312":11194,"Ġ318":11195,"Ġ377":11196,"à±ģ.\"\"":11197,"Ġ498":11198,"Ġ460":11199,"à°Łà°ķà°¦":11200,"Ġà°¸à°®à°¸à°®":11201,"à°µà°°à°ķà°¦":11202,"Ġà°Ĺà°¡à°¬":11203,"Ġ510":11204,"à°¨à°¤à°²à°ķ":11205,"1985":11206,"Ġ998":11207,"à°¨à°Ĺà°ªà°ª":11208,"Ġà°®à°²à°¦":11209,"ÂłÂłÂłÂłÂłÂłÂłÂłÂłÂłÂłÂłÂłÂłÂłÂłÂłÂłÂłÂłÂłÂłÂłÂłÂłÂłÂłÂłÂłÂłÂłÂłÂłÂłÂłÂłÂłÂłÂłÂłÂłÂłÂłÂłÂłÂłÂł":11210,"Ġ232":11211,"Ġ305":11212,"Ġà°ľà°²à°¸à°®":11213,"Ġà°ľà°¯à°µà°°":11214,"à°Łà°ªà°¡à°¦":11215,"10804201598":11216,"Ġà°Ńà°¯à°ªà°¡à°µà°²à°¸":11217,"à±į....?":11218,"11801201578":11219,"Ġ276":11220,"à±ĭ?'":11221,"12203201594":11222,"à°½à°¦":11223,"Ġà°µà°¦à°²à°Ĺ":11224,"à°Ĺà°¤à°¨à°®":11225,"Ġà°¤à°Ĺà°²à°Ł":11226,"Ġà°ħà°²à°¸à°Łà°¨":11227,"871":11228,"à°¦à°¬à°Ĺà°¤":11229,"à°ĩà°Ĵà°²":11230,"Ġcas":11231,"à±ģà°ģ!":11232,"Ġà°ħà°Ńà°¯à°¹à°¸":11233,"Ġdo":11234,"ĠDD":11235,"1040520162368":11236,"ĠNo":11237,"1210420162317":11238,"131052016248":11239,"Ġall":11240,"114052017412":11241,"1290420162350":11242,"405":11243,"523":11244,"547":11245,"672":11246,"725":11247,"814":11248,"846":11249,"858":11250,"872":11251,"954":11252,"VE":11253,"co":11254,"ie":11255,"nic":11256,"à°°à°¯à°¨":11257,"à°°à°¥à°¨":11258,"à°¯à°§à°ķ":11259,"à°¡à°¨à°µà°¸à°°":11260,"âĢĮ!":11261,"à°¬à°ľà°°":11262,"à°§à°ľ":11263,"à°£à°µà°²":11264,"à°£à°ķà°Ł":11265,"à°£à°¤à°¤":11266,"Ġà°īà°¤à°ķ":11267,"à°¥à°ļ":11268,"à°İà°ĩ":11269,"à°°à°ķà°¡à°®":11270,"à°¸à°°à°£":11271,"Ġà°ķà°¨à°Ĺ":11272,"à°¾,\"":11273,"à°Ĥ.'":11274,"Ġ010":11275,"Ġà°µà°°à°¦à°²à°ķ":11276,"Ġà°§à°Ĺà°§":11277,"à°¾?,":11278,"à°¨à°µà°¯":11279,"à°¾!?\"":11280,"à°¾!!\"":11281,"Ġà°¸à°¹à°°":11282,"Ġ329":11283,"Ġ354":11284,"Ġà°¨à°¡à°µà°¦":11285,"Ġà°ľà°¨à°¹":11286,"1993":11287,"1982":11288,"à±į!...":11289,"Ġ9600":11290,"à°®à°Ĺà°Ł":11291,"ÂłÂłÂłĠÂłÂłÂłĠÂłÂłÂłÂłÂłÂł":11292,"Ġ306":11293,"à±ĭ..âĢĻ":11294,"à°§à°ķà°¶":11295,"Ġà°¤à°¡à°µà°ķ":11296,"108042016226":11297,"11612201634":11298,"à±į....!\"":11299,"Ġ294":11300,"Ġ..........":11301,"Ġà°°à°®à°£à°¤":11302,"12302201587":11303,"103062015116":11304,"1120720174":11305,"793":11306,"Ġà°ħà°¡à°Ĺà°µà°²à°¸":11307,"ĠĠĠĠĠĠĠĠĠĠĠĠ":11308,"Ġà°ľà°²à°®à°¯":11309,"893":11310,"691":11311,"Ġà°²à°¡à°ĸ":11312,"Ġde":11313,"104032017377":11314,"1240420162330":11315,"112082015139":11316,"122032016220":11317,"120102017479":11318,"/-":11319,"409":11320,"403":11321,"419":11322,"415":11323,"4500":11324,"535":11325,"624":11326,"692":11327,"746":11328,"903":11329,"938":11330,"à°°à°¥à°²":11331,"à°¦à°¦à°µ":11332,"à°¡à°¦à°²à°ļ":11333,"à°¸à°¦à°¸":11334,"à°µà°¦à°²à°ļ":11335,"à°®à°µà°²":11336,"à°®à°¡à°®":11337,"Ġà°ªà°µà°³":11338,"à°·à°¯à°µ":11339,"Ġà°Ĩà°½à°§":11340,"à°¬à°²à°ª":11341,"à°³à°²à°²":11342,"Ġà°¦à°®à°¨à°ķ":11343,"Ġà°ħà°¨à°µà°²à°¸":11344,"à±Ĩà°Ĥ!":11345,"Ġà°Īà°ķà°²":11346,"Ġà°Īà°²à°µ":11347,"Ġà°¹à°Ĺ":11348,"à°¦à°¨à°ªà°²":11349,"ÂłÂłĠÂłÂłÂłĠÂłÂłĠÂłĠÂłĠÂłĠÂłĠÂłĠÂłĠÂłĠÂłĠÂłĠÂłĠÂłĠÂłĠÂłĠÂłĠÂłĠÂłĠÂłĠÂłĠÂłĠÂłĠÂłĠÂłĠÂłĠÂłĠÂłĠÂłĠÂłĠÂł":11350,"à±ĩà°ĤâĢĻ":11351,"âĢĻ..":11352,"ĠâĢĺâĢĻ":11353,"Ġ222":11354,"12111201517":11355,"Ġà°ħà°ªà°ĸ":11356,"à°ªà°°à°¶":11357,"à°®à°²à°¦":11358,"à±ĩ.!":11359,"à°¡à°Ĺà°²à°¨à°¨":11360,"à°²à°µà°²à°¨":11361,"à°¯à°¸à°¹":11362,"à°¨à°¸à°®":11363,"à°ŀà°¦":11364,"à°¶à°ķà°¤à°¤":11365,"Ġ1900":11366,"Ġ1931":11367,"Ġ8600":11368,"à°ķà°°à°£à°µ":11369,"à°Ĺà°¦à°®":11370,"à°¤à°µà°¦":11371,"à°īà°Ńà°¯":11372,"Ġà°Ĩà°Łà°²à°ķ":11373,"3600":11374,"Ġà°«à°²à°¸":11375,"à±į...!\"":11376,"à°¿....'":11377,"à°¤à°Łà°¦":11378,"à°ķà°¦à°²à°ķ":11379,"1070720174":11380,"116042016230":11381,"11901201735":11382,"12810201516":11383,"Ġ2600":11384,"113042015":11385,"à±Ĥ\".":11386,"à°ľà°Ĺà°ªà°¤":11387,"11310201747":11388,"ÂłÂłÂłÂłÂłÂłÂłÂłÂłÂłÂłÂłÂłÂłÂłÂłÂłÂłÂłÂłÂłÂłÂłÂłÂłÂłÂłÂłÂłÂłÂłÂłÂłÂłÂłÂłÂłÂłÂłÂłÂłÂłÂłÂłÂłÂłÂłÂłÂłÂłÂłÂłÂłÂłÂłÂłÂłÂłÂł":11389,"ÂłÂłÂłĠÂłÂłÂłÂłÂłÂłÂłÂłÂłÂłÂłÂłÂłÂłÂłÂłÂłÂłÂłÂłÂłÂłÂłÂłÂłÂłÂłÂłÂłÂłÂłÂłÂłÂł":11390,"ÂłÂłĠÂłĠÂłĠÂłĠÂłĠÂłĠÂłÂł":11391,"ame":11392,"Ġà°ħà°¡à°Ĺà°¡à°®":11393,"à°¨à°ķà°²à°µ":11394,"Ġhas":11395,"Ġwho":11396,"Ġà°ļà°µà°ķà°Ĺ":11397,"1240420162329":11398,"ife":11399,"122072015132":11400,"11602201585":11401,"starhomeo":11402,"Ġà°§à°Ĺà°§à°Ĺà°²":11403,"219":11404,"413":11405,"533":11406,"614":11407,"711":11408,"744":11409,"952":11410,"à°ĤâĢĮ":11411,"à°¤à°°à°¤à°°":11412,"à°¦à°ªà°ķ":11413,"à±ĭâĢĵ":11414,"à°ļà°²à°ª":11415,"à±Ĩà±Ĥ":11416,"Ġà°ħà°£à°ķ":11417,"Ġà°°à°¨à°µ":11418,"à°·à°°à°ľ":11419,"à°³à°¨à°®":11420,"Ġà°ħà°¨à°ªà°°":11421,"à°µà°°à°¸à°²":11422,"Ġà°¡à°Ł":11423,"à°°à°¤à°ľ":11424,"à°°à°®à°²à°²":11425,"à°®à°¨à°¬":11426,"à°ħà°Ĩ":11427,"à°ħà°µà°¸":11428,"à°µà°¡à°¡":11429,"Ġ236":11430,"121122017":11431,"à°ªà°°à°ļà°Ł":11432,"à°¤à°ķà°·":11433,"à°·à°²à°¦":11434,"à°°à°¦à°®à°Ĺ":11435,"à°ķà°Łà°¶":11436,"à°®à°²à°ļ":11437,"Ġà°ıà°®à°¡":11438,"à°¡à°¨à°¡":11439,"Ġà°īà°ªà°¨à°¦":11440,"Ġà°¤à°Ĺà°²à°¨":11441,"à°²à°µà°®à°¨":11442,"Ġà°¨à°¡à°µà°Ĺ":11443,"Ġà°Ĩà°Ĺà°ķà°ª":11444,"Ġà°ķà°¦à°²à°ķà°ª":11445,"à°ªà°¦à°¸":11446,"à°ħà°¤à°¨à°²":11447,"Ġà°ķà°¸à°¬":11448,"à°ļà°Ĺà°²à°µà°¨":11449,"10702201736":11450,"1100320162":11451,"Ġ286":11452,"11901201578":11453,"129032016223":11454,"120042015":11455,"783":11456,"1030820162":11457,"1031220151":11458,"667":11459,"à°±à°ª":11460,"à±Ĥ.......":11461,"Ġà°Ŀà°°":11462,"873":11463,"à±ĭâĢĻ,":11464,"Ġà°ªà°¤à°¨à°®à°µ":11465,"-----":11466,"à°ªà°µà°°à°ª":11467,"Ġà°¦à°¹à°¨à°®à°¯":11468,"ÂłÂłÂłĠÂłÂłĠÂłĠÂłĠÂłĠÂłĠÂłĠÂłĠÂłĠÂłĠÂłĠÂłĠÂłĠÂłĠÂłĠÂłĠÂłĠÂłĠÂłĠÂłĠÂł":11469,"10102201620":11470,"1200420162313":11471,"1200420162315":11472,"à°¨à°¯à°¨à°¤":11473,"114032017382":11474,"121112016336":11475,"101122017499":11476,"à°£à°ķà°²à°¶à°®":11477,"Ġà°²à°¬à°²à°¬à°²":11478,"121122017509":11479,"103082016293":11480,"854":11481,"899":11482,"886":11483,"914":11484,"958":11485,"IT":11486,"hat":11487,"à°¨à°ĺà°Ł":11488,"à°ķà°®à°¤":11489,"à°Łà°¦à°²":11490,"à°¡à°®à°²":11491,"à°¡à°ªà°ķ":11492,"à°¸à°Ĺà°¤":11493,"à°Ĺà°¨à°²":11494,"à°Ĺà°ķà°°à°®":11495,"à°ļà°ķà°°":11496,"Ġà°¸à°²à°ķ":11497,"Ġà°¸à°¨à°¨":11498,"à°ľà°¬à°²":11499,"à°¶à°²à°µ":11500,"à°§à°£":11501,"à°§à°²à°¯":11502,"à°ķà°°à°¶":11503,"à°°à°ķà°®à°Ĺ":11504,
[...]
